{
  "version": "1.0",
  "truncation": null,
  "padding": null,
  "added_tokens": [
    {
      "id": 0,
      "content": "[UNK]",
      "single_word": false,
      "lstrip": false,
      "rstrip": false,
      "normalized": false,
      "special": true
    },
    {
      "id": 1,
      "content": "[PAD]",
      "single_word": false,
      "lstrip": false,
      "rstrip": false,
      "normalized": false,
      "special": true
    }
  ],
  "normalizer": null,
  "pre_tokenizer": {
    "type": "Whitespace"
  },
  "post_processor": null,
  "decoder": null,
  "model": {
    "type": "BPE",
    "dropout": null,
    "unk_token": "[UNK]",
    "continuing_subword_prefix": null,
    "end_of_word_suffix": null,
    "fuse_unk": false,
    "byte_fallback": false,
    "ignore_merges": false,
    "vocab": {
      "[UNK]": 0,
      "[PAD]": 1,
      "\b": 2,
      "\u0010": 3,
      "!": 4,
      "\"": 5,
      "#": 6,
      "$": 7,
      "%": 8,
      "&": 9,
      "'": 10,
      "(": 11,
      ")": 12,
      "*": 13,
      "+": 14,
      ",": 15,
      "-": 16,
      ".": 17,
      "/": 18,
      "0": 19,
      "1": 20,
      "2": 21,
      "3": 22,
      "4": 23,
      "5": 24,
      "6": 25,
      "7": 26,
      "8": 27,
      "9": 28,
      ":": 29,
      ";": 30,
      "<": 31,
      "=": 32,
      ">": 33,
      "?": 34,
      "@": 35,
      "A": 36,
      "B": 37,
      "C": 38,
      "D": 39,
      "E": 40,
      "F": 41,
      "G": 42,
      "H": 43,
      "I": 44,
      "J": 45,
      "K": 46,
      "L": 47,
      "M": 48,
      "N": 49,
      "O": 50,
      "P": 51,
      "Q": 52,
      "R": 53,
      "S": 54,
      "T": 55,
      "U": 56,
      "V": 57,
      "W": 58,
      "X": 59,
      "Y": 60,
      "Z": 61,
      "[": 62,
      "\\": 63,
      "]": 64,
      "^": 65,
      "_": 66,
      "`": 67,
      "a": 68,
      "b": 69,
      "c": 70,
      "d": 71,
      "e": 72,
      "f": 73,
      "g": 74,
      "h": 75,
      "i": 76,
      "j": 77,
      "k": 78,
      "l": 79,
      "m": 80,
      "n": 81,
      "o": 82,
      "p": 83,
      "q": 84,
      "r": 85,
      "s": 86,
      "t": 87,
      "u": 88,
      "v": 89,
      "w": 90,
      "x": 91,
      "y": 92,
      "z": 93,
      "{": 94,
      "|": 95,
      "}": 96,
      "~": 97,
      "": 98,
      "": 99,
      "": 100,
      "": 101,
      "": 102,
      "": 103,
      "": 104,
      "": 105,
      "": 106,
      "": 107,
      "¡": 108,
      "¢": 109,
      "£": 110,
      "¤": 111,
      "§": 112,
      "¨": 113,
      "«": 114,
      "­": 115,
      "®": 116,
      "´": 117,
      "·": 118,
      "º": 119,
      "»": 120,
      "½": 121,
      "¾": 122,
      "¿": 123,
      "À": 124,
      "Á": 125,
      "Ã": 126,
      "Ä": 127,
      "Å": 128,
      "È": 129,
      "É": 130,
      "Ê": 131,
      "Õ": 132,
      "Ü": 133,
      "ß": 134,
      "à": 135,
      "á": 136,
      "â": 137,
      "ã": 138,
      "ä": 139,
      "å": 140,
      "æ": 141,
      "ç": 142,
      "è": 143,
      "é": 144,
      "ê": 145,
      "ë": 146,
      "ì": 147,
      "í": 148,
      "î": 149,
      "ï": 150,
      "ð": 151,
      "ñ": 152,
      "ò": 153,
      "ó": 154,
      "ô": 155,
      "ö": 156,
      "ø": 157,
      "ù": 158,
      "ú": 159,
      "û": 160,
      "ü": 161,
      "ý": 162,
      "ō": 163,
      "–": 164,
      "‘": 165,
      "’": 166,
      "“": 167,
      "”": 168,
      "…": 169,
      "₤": 170,
      "": 171,
      "th": 172,
      "in": 173,
      "er": 174,
      "an": 175,
      "the": 176,
      "is": 177,
      "re": 178,
      "on": 179,
      "at": 180,
      "en": 181,
      "to": 182,
      "ou": 183,
      "ing": 184,
      "es": 185,
      "al": 186,
      "as": 187,
      "or": 188,
      "and": 189,
      "it": 190,
      "of": 191,
      "ar": 192,
      "ed": 193,
      "il": 194,
      "st": 195,
      "ly": 196,
      "br": 197,
      "he": 198,
      "om": 199,
      "le": 200,
      "se": 201,
      "ch": 202,
      "/>": 203,
      "be": 204,
      "mo": 205,
      "ac": 206,
      "ic": 207,
      "wh": 208,
      "ve": 209,
      "ie": 210,
      "ad": 211,
      "that": 212,
      "no": 213,
      "ut": 214,
      "ver": 215,
      "lo": 216,
      "ent": 217,
      "this": 218,
      "for": 219,
      "ion": 220,
      "im": 221,
      "ay": 222,
      "ter": 223,
      "gh": 224,
      "id": 225,
      "was": 226,
      "mov": 227,
      "li": 228,
      "am": 229,
      "ith": 230,
      "/><": 231,
      "un": 232,
      "fil": 233,
      "ere": 234,
      "The": 235,
      "ke": 236,
      "film": 237,
      "ab": 238,
      "ld": 239,
      "ro": 240,
      "with": 241,
      "el": 242,
      "movie": 243,
      "his": 244,
      "are": 245,
      "one": 246,
      "ha": 247,
      "out": 248,
      "ir": 249,
      "ge": 250,
      "you": 251,
      "ow": 252,
      "ri": 253,
      ".<": 254,
      "su": 255,
      "sh": 256,
      "pe": 257,
      "but": 258,
      "go": 259,
      "so": 260,
      "ome": 261,
      "ce": 262,
      "all": 263,
      "od": 264,
      "ul": 265,
      "ally": 266,
      "not": 267,
      "tor": 268,
      "ts": 269,
      "de": 270,
      "po": 271,
      "ther": 272,
      "fe": 273,
      "ne": 274,
      "ould": 275,
      "ill": 276,
      "com": 277,
      "ma": 278,
      "sc": 279,
      "ur": 280,
      "..": 281,
      "have": 282,
      "ap": 283,
      "tr": 284,
      "act": 285,
      "ex": 286,
      "ust": 287,
      "do": 288,
      "me": 289,
      "man": 290,
      "some": 291,
      "ct": 292,
      "us": 293,
      "di": 294,
      "ght": 295,
      "est": 296,
      "who": 297,
      "pl": 298,
      "ess": 299,
      "ol": 300,
      "end": 301,
      "thing": 302,
      "per": 303,
      "rom": 304,
      "her": 305,
      "con": 306,
      "ain": 307,
      "by": 308,
      "au": 309,
      "nd": 310,
      "very": 311,
      "te": 312,
      "wor": 313,
      "like": 314,
      "see": 315,
      "ous": 316,
      "ant": 317,
      "they": 318,
      "ple": 319,
      "ag": 320,
      "up": 321,
      "ven": 322,
      "ell": 323,
      "tim": 324,
      "from": 325,
      "art": 326,
      "ok": 327,
      "we": 328,
      "if": 329,
      "It": 330,
      "ies": 331,
      "pro": 332,
      "pre": 333,
      "ack": 334,
      "qu": 335,
      "ast": 336,
      "just": 337,
      "ough": 338,
      "ation": 339,
      "ate": 340,
      "ind": 341,
      "about": 342,
      "has": 343,
      "char": 344,
      "ers": 345,
      "way": 346,
      "atch": 347,
      "other": 348,
      "can": 349,
      "any": 350,
      "ig": 351,
      "ive": 352,
      "ist": 353,
      "ment": 354,
      "my": 355,
      "ard": 356,
      "Th": 357,
      "bo": 358,
      "This": 359,
      "get": 360,
      "good": 361,
      "tory": 362,
      "more": 363,
      "acter": 364,
      "ure": 365,
      "character": 366,
      "what": 367,
      "ine": 368,
      "watch": 369,
      "ich": 370,
      "would": 371,
      "der": 372,
      "ong": 373,
      "ot": 374,
      "there": 375,
      "able": 376,
      "ity": 377,
      "ss": 378,
      "time": 379,
      "now": 380,
      "um": 381,
      "reat": 382,
      "ak": 383,
      "our": 384,
      "ame": 385,
      "ound": 386,
      "ite": 387,
      "int": 388,
      "story": 389,
      "she": 390,
      "aw": 391,
      "ck": 392,
      "even": 393,
      "ful": 394,
      "co": 395,
      "pt": 396,
      "most": 397,
      "had": 398,
      "when": 399,
      "ide": 400,
      "gu": 401,
      "ble": 402,
      "gr": 403,
      "only": 404,
      "really": 405,
      "which": 406,
      "ight": 407,
      "Wh": 408,
      "uch": 409,
      "scen": 410,
      "were": 411,
      "lot": 412,
      "than": 413,
      "bec": 414,
      "et": 415,
      "bad": 416,
      "ade": 417,
      "sp": 418,
      "ever": 419,
      "ink": 420,
      "their": 421,
      "show": 422,
      "did": 423,
      "ious": 424,
      "ll": 425,
      "ick": 426,
      "him": 427,
      "itt": 428,
      "ear": 429,
      "play": 430,
      "av": 431,
      "its": 432,
      "how": 433,
      "cl": 434,
      "does": 435,
      "look": 436,
      "wo": 437,
      "low": 438,
      "age": 439,
      "af": 440,
      "ause": 441,
      "sel": 442,
      "pp": 443,
      "ty": 444,
      "over": 445,
      "ep": 446,
      "ish": 447,
      "off": 448,
      "could": 449,
      "ob": 450,
      "ence": 451,
      "much": 452,
      "them": 453,
      "fo": 454,
      "...": 455,
      "ice": 456,
      "ire": 457,
      "been": 458,
      "bet": 459,
      "ci": 460,
      "ople": 461,
      "ass": 462,
      "cr": 463,
      "irst": 464,
      "dis": 465,
      "In": 466,
      "know": 467,
      "into": 468,
      "ud": 469,
      "make": 470,
      "will": 471,
      "mak": 472,
      "people": 473,
      "well": 474,
      "dire": 475,
      "because": 476,
      "think": 477,
      "ort": 478,
      "don": 479,
      "real": 480,
      "own": 481,
      "ho": 482,
      "made": 483,
      "wr": 484,
      "great": 485,
      "ves": 486,
      "fun": 487,
      "ff": 488,
      "bl": 489,
      "ra": 490,
      "son": 491,
      "self": 492,
      "too": 493,
      "first": 494,
      "thr": 495,
      "And": 496,
      "every": 497,
      "ace": 498,
      "ser": 499,
      "work": 500,
      "ny": 501,
      "inter": 502,
      "where": 503,
      "ile": 504,
      "pr": 505,
      "seem": 506,
      "vie": 507,
      "du": 508,
      "say": 509,
      "fa": 510,
      "But": 511,
      "movies": 512,
      "ert": 513,
      "ary": 514,
      "ated": 515,
      "part": 516,
      "cre": 517,
      "actor": 518,
      "ical": 519,
      "also": 520,
      "then": 521,
      "spe": 522,
      "less": 523,
      "plot": 524,
      "ans": 525,
      "ps": 526,
      "acting": 527,
      "view": 528,
      "characters": 529,
      "Ch": 530,
      "dr": 531,
      "back": 532,
      "min": 533,
      "ance": 534,
      "your": 535,
      "mer": 536,
      "fl": 537,
      "though": 538,
      "ctor": 539,
      "seen": 540,
      "films": 541,
      "being": 542,
      "after": 543,
      "hor": 544,
      "There": 545,
      "ose": 546,
      "He": 547,
      "ving": 548,
      "nt": 549,
      "ach": 550,
      "year": 551,
      "ng": 552,
      "point": 553,
      "many": 554,
      "ction": 555,
      ").": 556,
      "two": 557,
      "ittle": 558,
      "never": 559,
      "through": 560,
      "des": 561,
      "inal": 562,
      "),": 563,
      "life": 564,
      "try": 565,
      "ber": 566,
      "ens": 567,
      "ces": 568,
      "urn": 569,
      "iz": 570,
      "old": 571,
      "bel": 572,
      "tal": 573,
      "str": 574,
      "op": 575,
      "ually": 576,
      "love": 577,
      "jo": 578,
      "here": 579,
      "ict": 580,
      "ang": 581,
      "little": 582,
      "better": 583,
      "cent": 584,
      "igh": 585,
      "fore": 586,
      "ake": 587,
      "ise": 588,
      "ily": 589,
      "ue": 590,
      "kill": 591,
      "19": 592,
      "!!": 593,
      "ved": 594,
      "should": 595,
      "ark": 596,
      "augh": 597,
      "ting": 598,
      "--": 599,
      "ave": 600,
      "If": 601,
      "day": 602,
      "best": 603,
      "want": 604,
      "gi": 605,
      "ef": 606,
      "scene": 607,
      "mat": 608,
      "star": 609,
      "ry": 610,
      "read": 611,
      "ase": 612,
      "ild": 613,
      "sur": 614,
      "ree": 615,
      "under": 616,
      "ev": 617,
      "scenes": 618,
      "find": 619,
      "something": 620,
      "ought": 621,
      "fri": 622,
      "Al": 623,
      "feel": 624,
      "irl": 625,
      "again": 626,
      "interest": 627,
      "perfor": 628,
      "stand": 629,
      "che": 630,
      "cast": 631,
      "won": 632,
      "10": 633,
      "ath": 634,
      "such": 635,
      "ning": 636,
      "ably": 637,
      "belie": 638,
      "ertain": 639,
      "ason": 640,
      "happ": 641,
      "still": 642,
      "vers": 643,
      "cho": 644,
      "ian": 645,
      "cou": 646,
      "may": 647,
      "turn": 648,
      "gen": 649,
      "mis": 650,
      "ense": 651,
      "ating": 652,
      "these": 653,
      "St": 654,
      "director": 655,
      "funny": 656,
      "ror": 657,
      "ions": 658,
      "pos": 659,
      "new": 660,
      "em": 661,
      "doesn": 662,
      "actors": 663,
      "got": 664,
      "friend": 665,
      "pret": 666,
      "tri": 667,
      "scre": 668,
      "down": 669,
      "sto": 670,
      "girl": 671,
      "imp": 672,
      "wom": 673,
      "fam": 674,
      "watching": 675,
      "didn": 676,
      "ial": 677,
      "ins": 678,
      "ash": 679,
      "fin": 680,
      "ip": 681,
      "those": 682,
      "red": 683,
      "att": 684,
      "guy": 685,
      "mon": 686,
      "az": 687,
      "orig": 688,
      "while": 689,
      "joy": 690,
      "performan": 691,
      "ents": 692,
      "car": 693,
      "tak": 694,
      "row": 695,
      "going": 696,
      "ph": 697,
      "why": 698,
      "Jo": 699,
      "years": 700,
      "long": 701,
      "les": 702,
      "times": 703,
      "makes": 704,
      "mem": 705,
      "ater": 706,
      "put": 707,
      "nothing": 708,
      "few": 709,
      "produ": 710,
      "set": 711,
      "actually": 712,
      "laugh": 713,
      "minut": 714,
      "comed": 715,
      "same": 716,
      "right": 717,
      "before": 718,
      "cont": 719,
      "ual": 720,
      "As": 721,
      "ways": 722,
      "icul": 723,
      "mus": 724,
      "bit": 725,
      "**": 726,
      "big": 727,
      "enjoy": 728,
      "hel": 729,
      "appe": 730,
      "vis": 731,
      "original": 732,
      "ste": 733,
      "action": 734,
      "ript": 735,
      "comes": 736,
      "sho": 737,
      "cts": 738,
      "pect": 739,
      "You": 740,
      "comple": 741,
      "rel": 742,
      "another": 743,
      "ia": 744,
      "sing": 745,
      "writ": 746,
      "ren": 747,
      "fect": 748,
      "sub": 749,
      "young": 750,
      "ress": 751,
      "fact": 752,
      "seems": 753,
      "diff": 754,
      "screen": 755,
      "exc": 756,
      "comm": 757,
      "thought": 758,
      "around": 759,
      "script": 760,
      "bu": 761,
      "So": 762,
      "hard": 763,
      "par": 764,
      "enough": 765,
      "come": 766,
      "high": 767,
      "pretty": 768,
      "How": 769,
      "ween": 770,
      "need": 771,
      "ody": 772,
      "light": 773,
      "cept": 774,
      "bor": 775,
      "hu": 776,
      "cial": 777,
      "Br": 778,
      "ically": 779,
      "sa": 780,
      "kind": 781,
      "inv": 782,
      "por": 783,
      "mind": 784,
      "quite": 785,
      "horror": 786,
      "cle": 787,
      "What": 788,
      "things": 789,
      "beg": 790,
      "ately": 791,
      "far": 792,
      "ince": 793,
      "reason": 794,
      "fort": 795,
      "ten": 796,
      "give": 797,
      "let": 798,
      "kid": 799,
      "gets": 800,
      "sm": 801,
      "tell": 802,
      "person": 803,
      "world": 804,
      "ster": 805,
      "ner": 806,
      "war": 807,
      "interesting": 808,
      "ings": 809,
      "care": 810,
      "ward": 811,
      "sex": 812,
      "least": 813,
      "She": 814,
      "fr": 815,
      "vi": 816,
      "vious": 817,
      "take": 818,
      "expect": 819,
      "sol": 820,
      "aut": 821,
      "hand": 822,
      "rible": 823,
      "main": 824,
      "used": 825,
      "meric": 826,
      "ness": 827,
      "cor": 828,
      "done": 829,
      "Americ": 830,
      "They": 831,
      "vel": 832,
      "ations": 833,
      "cut": 834,
      "isn": 835,
      "minutes": 836,
      "between": 837,
      "alo": 838,
      "saw": 839,
      "whole": 840,
      "child": 841,
      "press": 842,
      "must": 843,
      "line": 844,
      "wonder": 845,
      "ced": 846,
      "app": 847,
      "ank": 848,
      "\",": 849,
      "making": 850,
      "cess": 851,
      "cour": 852,
      "call": 853,
      "wood": 854,
      "grap": 855,
      "mom": 856,
      "use": 857,
      "led": 858,
      "sequ": 859,
      "worth": 860,
      "role": 861,
      "might": 862,
      "ars": 863,
      "ted": 864,
      "sure": 865,
      "complete": 866,
      "ending": 867,
      "cam": 868,
      "ug": 869,
      "without": 870,
      "ouse": 871,
      "arly": 872,
      "anything": 873,
      "start": 874,
      "class": 875,
      "lead": 876,
      "ying": 877,
      "med": 878,
      "head": 879,
      "tem": 880,
      "worst": 881,
      "comedy": 882,
      "king": 883,
      "Mo": 884,
      "series": 885,
      "ible": 886,
      "almost": 887,
      "je": 888,
      "ail": 889,
      "TH": 890,
      "poor": 891,
      "always": 892,
      "away": 893,
      "col": 894,
      "ased": 895,
      "De": 896,
      "audi": 897,
      "book": 898,
      "00": 899,
      "add": 900,
      "bably": 901,
      "hy": 902,
      "pie": 903,
      "cine": 904,
      "No": 905,
      "clo": 906,
      "land": 907,
      "An": 908,
      "tru": 909,
      "arr": 910,
      "ines": 911,
      "For": 912,
      "run": 913,
      "sound": 914,
      "TV": 915,
      "ult": 916,
      "music": 917,
      "That": 918,
      "illi": 919,
      "dec": 920,
      "woman": 921,
      "both": 922,
      "oney": 923,
      "mot": 924,
      "lack": 925,
      "ey": 926,
      "rest": 927,
      "cond": 928,
      "family": 929,
      "differ": 930,
      "sent": 931,
      "ign": 932,
      "mar": 933,
      "last": 934,
      "uring": 935,
      "\".": 936,
      "ature": 937,
      "vo": 938,
      "ons": 939,
      "boy": 940,
      "probably": 941,
      "poss": 942,
      "mean": 943,
      "dialo": 944,
      "Ro": 945,
      "hn": 946,
      "found": 947,
      "beaut": 948,
      "Le": 949,
      "ale": 950,
      "entertain": 951,
      "ional": 952,
      "Chr": 953,
      "comp": 954,
      "ext": 955,
      "ife": 956,
      "pol": 957,
      "fol": 958,
      "ms": 959,
      "performance": 960,
      "place": 961,
      "My": 962,
      "ments": 963,
      "rather": 964,
      "era": 965,
      "Be": 966,
      "sup": 967,
      "posed": 968,
      "stu": 969,
      "peri": 970,
      "ither": 971,
      "played": 972,
      "John": 973,
      "ER": 974,
      "val": 975,
      "ange": 976,
      "sy": 977,
      "espe": 978,
      "sl": 979,
      "trying": 980,
      "Re": 981,
      "dram": 982,
      "since": 983,
      "hal": 984,
      "cially": 985,
      "mas": 986,
      "happen": 987,
      "tit": 988,
      "ative": 989,
      "gl": 990,
      "believe": 991,
      "looks": 992,
      "unt": 993,
      "iful": 994,
      "We": 995,
      "stead": 996,
      "All": 997,
      "sid": 998,
      "isod": 999,
      "cap": 1000,
      "looking": 1001,
      "lik": 1002,
      "top": 1003,
      "money": 1004,
      "ks": 1005,
      "wasn": 1006,
      "anyone": 1007,
      "men": 1008,
      "ft": 1009,
      "pris": 1010,
      "ann": 1011,
      "When": 1012,
      "episod": 1013,
      "Se": 1014,
      "bre": 1015,
      "To": 1016,
      "body": 1017,
      "course": 1018,
      "hum": 1019,
      ".\"": 1020,
      "proble": 1021,
      "goes": 1022,
      "Hol": 1023,
      "ru": 1024,
      "air": 1025,
      "ane": 1026,
      "ull": 1027,
      "ute": 1028,
      "tw": 1029,
      "sense": 1030,
      "keep": 1031,
      "half": 1032,
      "Ar": 1033,
      "DV": 1034,
      "sim": 1035,
      "direct": 1036,
      "rid": 1037,
      "side": 1038,
      "Un": 1039,
      "help": 1040,
      "fects": 1041,
      "istic": 1042,
      "bud": 1043,
      "Ne": 1044,
      "ingly": 1045,
      "yet": 1046,
      "DVD": 1047,
      "bly": 1048,
      "member": 1049,
      "job": 1050,
      "ore": 1051,
      "upid": 1052,
      "fan": 1053,
      "night": 1054,
      "gether": 1055,
      "having": 1056,
      "each": 1057,
      "plain": 1058,
      "hour": 1059,
      "father": 1060,
      "fully": 1061,
      "someone": 1062,
      "plays": 1063,
      "said": 1064,
      "pict": 1065,
      "ics": 1066,
      "audience": 1067,
      "gue": 1068,
      "different": 1069,
      "watched": 1070,
      "iting": 1071,
      "io": 1072,
      "effects": 1073,
      "ney": 1074,
      "spo": 1075,
      "vide": 1076,
      "together": 1077,
      "else": 1078,
      "fall": 1079,
      "house": 1080,
      "review": 1081,
      "creat": 1082,
      "ality": 1083,
      "One": 1084,
      "sit": 1085,
      "stupid": 1086,
      "Not": 1087,
      "At": 1088,
      "shows": 1089,
      "Lo": 1090,
      "especially": 1091,
      "....": 1092,
      "understand": 1093,
      "imag": 1094,
      "human": 1095,
      "second": 1096,
      "ah": 1097,
      "ond": 1098,
      "obvious": 1099,
      "cur": 1100,
      "commend": 1101,
      "beautiful": 1102,
      "Mar": 1103,
      "plo": 1104,
      "American": 1105,
      "version": 1106,
      "special": 1107,
      "ants": 1108,
      "rele": 1109,
      "cu": 1110,
      "idea": 1111,
      "imply": 1112,
      "fel": 1113,
      "Bo": 1114,
      "piece": 1115,
      "follow": 1116,
      "takes": 1117,
      "begin": 1118,
      "left": 1119,
      "wife": 1120,
      "shot": 1121,
      "entire": 1122,
      "ele": 1123,
      "log": 1124,
      "usu": 1125,
      "word": 1126,
      "certain": 1127,
      "lywood": 1128,
      "himself": 1129,
      "ates": 1130,
      "form": 1131,
      "supposed": 1132,
      "mur": 1133,
      "ilar": 1134,
      "spect": 1135,
      "Some": 1136,
      "nice": 1137,
      "ism": 1138,
      "omb": 1139,
      "appoint": 1140,
      "attem": 1141,
      "invol": 1142,
      "three": 1143,
      "cing": 1144,
      "incl": 1145,
      "ences": 1146,
      "anim": 1147,
      "ix": 1148,
      "fav": 1149,
      "awful": 1150,
      "sty": 1151,
      "came": 1152,
      "boring": 1153,
      "rent": 1154,
      "Ste": 1155,
      "ired": 1156,
      "als": 1157,
      "true": 1158,
      "conv": 1159,
      "short": 1160,
      "ames": 1161,
      "disappoint": 1162,
      "Don": 1163,
      "simply": 1164,
      "ited": 1165,
      "fortun": 1166,
      "den": 1167,
      "recommend": 1168,
      "ject": 1169,
      "ters": 1170,
      "cy": 1171,
      "seeing": 1172,
      "tray": 1173,
      "completely": 1174,
      "ists": 1175,
      "Gr": 1176,
      "fail": 1177,
      "hero": 1178,
      "later": 1179,
      "However": 1180,
      "Pe": 1181,
      "ones": 1182,
      "On": 1183,
      "ird": 1184,
      "0s": 1185,
      "blo": 1186,
      "everything": 1187,
      "budget": 1188,
      "IN": 1189,
      "ese": 1190,
      "using": 1191,
      "solute": 1192,
      "super": 1193,
      "mess": 1194,
      "death": 1195,
      "reg": 1196,
      "production": 1197,
      "ition": 1198,
      "ship": 1199,
      "Rob": 1200,
      "wrong": 1201,
      "serious": 1202,
      "during": 1203,
      "face": 1204,
      "either": 1205,
      "gener": 1206,
      "ross": 1207,
      "perfect": 1208,
      "given": 1209,
      "pain": 1210,
      "ends": 1211,
      "ared": 1212,
      "wal": 1213,
      "once": 1214,
      "ier": 1215,
      "home": 1216,
      "video": 1217,
      "aren": 1218,
      "Hollywood": 1219,
      "Well": 1220,
      "tic": 1221,
      "ries": 1222,
      "everyone": 1223,
      "miss": 1224,
      "suc": 1225,
      "chool": 1226,
      "loc": 1227,
      "Christ": 1228,
      "open": 1229,
      "eas": 1230,
      "remember": 1231,
      "others": 1232,
      "camera": 1233,
      "Fr": 1234,
      "ger": 1235,
      "Do": 1236,
      "ret": 1237,
      "uck": 1238,
      "umb": 1239,
      "except": 1240,
      "song": 1241,
      "cer": 1242,
      "lig": 1243,
      "instead": 1244,
      "absolute": 1245,
      "itten": 1246,
      "ellent": 1247,
      "pass": 1248,
      "terrible": 1249,
      "fight": 1250,
      "mother": 1251,
      "friends": 1252,
      "black": 1253,
      "itch": 1254,
      "portray": 1255,
      "amp": 1256,
      "ling": 1257,
      "ident": 1258,
      "heart": 1259,
      "dri": 1260,
      "Even": 1261,
      "ower": 1262,
      "xt": 1263,
      "waste": 1264,
      "exam": 1265,
      "name": 1266,
      "sk": 1267,
      "pport": 1268,
      "ready": 1269,
      "AN": 1270,
      "flick": 1271,
      "lop": 1272,
      "fair": 1273,
      "coun": 1274,
      "picture": 1275,
      "ley": 1276,
      "sul": 1277,
      "pa": 1278,
      "lines": 1279,
      "Car": 1280,
      "ref": 1281,
      "particul": 1282,
      "kids": 1283,
      "graphy": 1284,
      "haps": 1285,
      "women": 1286,
      "doing": 1287,
      "Af": 1288,
      "Go": 1289,
      "school": 1290,
      "cover": 1291,
      "getting": 1292,
      "case": 1293,
      "unch": 1294,
      "couple": 1295,
      "consid": 1296,
      "defin": 1297,
      "ering": 1298,
      "que": 1299,
      "Lu": 1300,
      "slow": 1301,
      "wa": 1302,
      "along": 1303,
      "ike": 1304,
      "sil": 1305,
      "mention": 1306,
      "dead": 1307,
      "sort": 1308,
      "deve": 1309,
      "Cl": 1310,
      "present": 1311,
      "ize": 1312,
      "excellent": 1313,
      "playing": 1314,
      "bas": 1315,
      "until": 1316,
      "band": 1317,
      "performances": 1318,
      "ream": 1319,
      "ory": 1320,
      "ered": 1321,
      "ides": 1322,
      "small": 1323,
      "nor": 1324,
      "dialogue": 1325,
      "murder": 1326,
      "tern": 1327,
      "worse": 1328,
      "couldn": 1329,
      "ys": 1330,
      "surpris": 1331,
      "felt": 1332,
      "ming": 1333,
      "Sh": 1334,
      "ities": 1335,
      "guess": 1336,
      "full": 1337,
      "written": 1338,
      "classic": 1339,
      "After": 1340,
      "emot": 1341,
      "humor": 1342,
      "stars": 1343,
      "truly": 1344,
      "sad": 1345,
      "moments": 1346,
      "ility": 1347,
      "maybe": 1348,
      "pu": 1349,
      "eng": 1350,
      "gg": 1351,
      "quest": 1352,
      "male": 1353,
      "feature": 1354,
      "ors": 1355,
      "appear": 1356,
      "Co": 1357,
      "iness": 1358,
      "actress": 1359,
      "talent": 1360,
      "itself": 1361,
      "THE": 1362,
      "viol": 1363,
      "includ": 1364,
      "Mr": 1365,
      "style": 1366,
      "ton": 1367,
      "conf": 1368,
      "went": 1369,
      "sever": 1370,
      "live": 1371,
      "bed": 1372,
      "sci": 1373,
      "dist": 1374,
      "ery": 1375,
      "however": 1376,
      "cli": 1377,
      "ime": 1378,
      "arent": 1379,
      "mark": 1380,
      "mid": 1381,
      "room": 1382,
      "next": 1383,
      "His": 1384,
      "arn": 1385,
      "favor": 1386,
      "episode": 1387,
      "lish": 1388,
      "cop": 1389,
      "iv": 1390,
      "problem": 1391,
      "fortunately": 1392,
      "ST": 1393,
      "Dav": 1394,
      "tow": 1395,
      "early": 1396,
      "aged": 1397,
      "develop": 1398,
      "mor": 1399,
      "adv": 1400,
      "evil": 1401,
      "often": 1402,
      "liked": 1403,
      "itely": 1404,
      ",\"": 1405,
      "und": 1406,
      "although": 1407,
      "experi": 1408,
      "title": 1409,
      "ention": 1410,
      "ler": 1411,
      "Then": 1412,
      "cinemat": 1413,
      "hope": 1414,
      "anno": 1415,
      "impress": 1416,
      "gives": 1417,
      "attempt": 1418,
      "drama": 1419,
      "Jack": 1420,
      "direction": 1421,
      "Why": 1422,
      "cred": 1423,
      "called": 1424,
      "possible": 1425,
      "absolutely": 1426,
      "list": 1427,
      "cas": 1428,
      "cus": 1429,
      "coming": 1430,
      "na": 1431,
      "credi": 1432,
      "ages": 1433,
      "become": 1434,
      "ended": 1435,
      "break": 1436,
      "RE": 1437,
      "dict": 1438,
      "fant": 1439,
      "amaz": 1440,
      "sat": 1441,
      "seemed": 1442,
      "reme": 1443,
      "power": 1444,
      "against": 1445,
      "turns": 1446,
      "fac": 1447,
      "Sp": 1448,
      "ax": 1449,
      "pul": 1450,
      "With": 1451,
      "Man": 1452,
      "oc": 1453,
      "Dan": 1454,
      "ont": 1455,
      "wanted": 1456,
      "gn": 1457,
      "teen": 1458,
      "wish": 1459,
      "ground": 1460,
      "children": 1461,
      "close": 1462,
      "beginning": 1463,
      "deli": 1464,
      "writing": 1465,
      "iller": 1466,
      "ca": 1467,
      "fre": 1468,
      "writer": 1469,
      "final": 1470,
      "already": 1471,
      "strong": 1472,
      "NO": 1473,
      "spir": 1474,
      "??": 1475,
      "entertaining": 1476,
      "example": 1477,
      "Just": 1478,
      "loved": 1479,
      "vable": 1480,
      "town": 1481,
      "New": 1482,
      "Also": 1483,
      "While": 1484,
      "known": 1485,
      "ied": 1486,
      "extreme": 1487,
      "hind": 1488,
      "selves": 1489,
      "ized": 1490,
      "Je": 1491,
      "Sc": 1492,
      "dark": 1493,
      "ues": 1494,
      "becomes": 1495,
      "ude": 1496,
      "rif": 1497,
      "quality": 1498,
      "os": 1499,
      "works": 1500,
      "Char": 1501,
      "aim": 1502,
      "ael": 1503,
      "allow": 1504,
      "tries": 1505,
      "deser": 1506,
      "Ri": 1507,
      "track": 1508,
      "Eng": 1509,
      "daugh": 1510,
      "past": 1511,
      "leg": 1512,
      "pri": 1513,
      "win": 1514,
      "ided": 1515,
      "pite": 1516,
      "success": 1517,
      "May": 1518,
      "dy": 1519,
      "Now": 1520,
      "ture": 1521,
      "psy": 1522,
      "cinema": 1523,
      "ON": 1524,
      "tot": 1525,
      "certainly": 1526,
      "Mich": 1527,
      "ib": 1528,
      "horrible": 1529,
      "vision": 1530,
      "wonderful": 1531,
      "totally": 1532,
      "fig": 1533,
      "fine": 1534,
      "brilli": 1535,
      "iculous": 1536,
      "ub": 1537,
      "ief": 1538,
      "unk": 1539,
      "200": 1540,
      "Bro": 1541,
      "Mc": 1542,
      "relation": 1543,
      "nam": 1544,
      "vill": 1545,
      "dep": 1546,
      "mentary": 1547,
      "atic": 1548,
      "guys": 1549,
      "fans": 1550,
      "pur": 1551,
      "jor": 1552,
      "aring": 1553,
      ").<": 1554,
      "ific": 1555,
      "Tr": 1556,
      "dou": 1557,
      "vic": 1558,
      "several": 1559,
      "ord": 1560,
      "throw": 1561,
      "lost": 1562,
      "effect": 1563,
      "Ge": 1564,
      "hon": 1565,
      "based": 1566,
      "cult": 1567,
      "genre": 1568,
      "Michael": 1569,
      "Pa": 1570,
      "wise": 1571,
      "prom": 1572,
      "killer": 1573,
      "stuff": 1574,
      "antly": 1575,
      "aving": 1576,
      "susp": 1577,
      "decent": 1578,
      "!<": 1579,
      "atur": 1580,
      "lives": 1581,
      "foot": 1582,
      "tent": 1583,
      "ask": 1584,
      "Is": 1585,
      "Of": 1586,
      "ball": 1587,
      "wants": 1588,
      "ains": 1589,
      "adm": 1590,
      "starts": 1591,
      "ridiculous": 1592,
      "stay": 1593,
      "ino": 1594,
      "crap": 1595,
      "dam": 1596,
      "support": 1597,
      "predict": 1598,
      "viewer": 1599,
      "ister": 1600,
      "uni": 1601,
      "definitely": 1602,
      "Ed": 1603,
      "orge": 1604,
      "behind": 1605,
      "plan": 1606,
      "hop": 1607,
      "finally": 1608,
      "hold": 1609,
      "gave": 1610,
      "history": 1611,
      "myster": 1612,
      "Dr": 1613,
      "gy": 1614,
      "figure": 1615,
      "contin": 1616,
      "type": 1617,
      "die": 1618,
      "etc": 1619,
      "master": 1620,
      "num": 1621,
      "ket": 1622,
      "Or": 1623,
      "ned": 1624,
      "looked": 1625,
      "ding": 1626,
      "non": 1627,
      "crit": 1628,
      "ek": 1629,
      "AL": 1630,
      "killed": 1631,
      "sum": 1632,
      "touch": 1633,
      "typ": 1634,
      "myself": 1635,
      "Her": 1636,
      "sor": 1637,
      "novel": 1638,
      "Bl": 1639,
      "late": 1640,
      "parts": 1641,
      "white": 1642,
      "arch": 1643,
      "pick": 1644,
      "ony": 1645,
      "deal": 1646,
      "thinking": 1647,
      "days": 1648,
      "level": 1649,
      "throughout": 1650,
      "God": 1651,
      "explo": 1652,
      "gar": 1653,
      "War": 1654,
      "intel": 1655,
      "daughter": 1656,
      "ago": 1657,
      "ried": 1658,
      "blood": 1659,
      "game": 1660,
      "Every": 1661,
      "usual": 1662,
      "annoying": 1663,
      "gun": 1664,
      "weak": 1665,
      "moment": 1666,
      "Ger": 1667,
      "speak": 1668,
      "antic": 1669,
      "themselves": 1670,
      "girls": 1671,
      "colle": 1672,
      "import": 1673,
      "bar": 1674,
      "explain": 1675,
      "grou": 1676,
      "ump": 1677,
      "docu": 1678,
      "key": 1679,
      "jok": 1680,
      "directed": 1681,
      ".)": 1682,
      "believable": 1683,
      "AT": 1684,
      "Oh": 1685,
      "heard": 1686,
      "tra": 1687,
      "situ": 1688,
      "feeling": 1689,
      "ination": 1690,
      "cheap": 1691,
      "convin": 1692,
      "Per": 1693,
      "tech": 1694,
      "involved": 1695,
      "sle": 1696,
      "aves": 1697,
      "exact": 1698,
      "chang": 1699,
      "says": 1700,
      "perhaps": 1701,
      "stud": 1702,
      "happens": 1703,
      "Brit": 1704,
      "desc": 1705,
      "voice": 1706,
      "trans": 1707,
      "pose": 1708,
      "appro": 1709,
      "major": 1710,
      "OK": 1711,
      "pay": 1712,
      "learn": 1713,
      "prof": 1714,
      "cannot": 1715,
      "stop": 1716,
      "enjoyed": 1717,
      "Any": 1718,
      "took": 1719,
      "ints": 1720,
      "ances": 1721,
      "makers": 1722,
      "bring": 1723,
      "ring": 1724,
      "uses": 1725,
      "stories": 1726,
      "First": 1727,
      "ni": 1728,
      "matter": 1729,
      "polit": 1730,
      "rew": 1731,
      "chard": 1732,
      "eyes": 1733,
      "Me": 1734,
      "wouldn": 1735,
      "ali": 1736,
      "graph": 1737,
      "pped": 1738,
      "hus": 1739,
      "ography": 1740,
      "move": 1741,
      "ount": 1742,
      "sequel": 1743,
      "dream": 1744,
      "US": 1745,
      "dle": 1746,
      "police": 1747,
      "soon": 1748,
      "mag": 1749,
      "inst": 1750,
      "bus": 1751,
      "rating": 1752,
      "apparent": 1753,
      "obviously": 1754,
      "hilar": 1755,
      "talk": 1756,
      "Richard": 1757,
      "ady": 1758,
      "turned": 1759,
      "husband": 1760,
      "roles": 1761,
      "order": 1762,
      "ards": 1763,
      "Ben": 1764,
      "score": 1765,
      "happened": 1766,
      "IL": 1767,
      "lan": 1768,
      "apt": 1769,
      "Paul": 1770,
      "musical": 1771,
      "David": 1772,
      "bing": 1773,
      "itive": 1774,
      "taking": 1775,
      "favorite": 1776,
      "Con": 1777,
      "urt": 1778,
      "tele": 1779,
      "hit": 1780,
      "tract": 1781,
      "clich": 1782,
      "oper": 1783,
      "resul": 1784,
      "event": 1785,
      "jokes": 1786,
      "hot": 1787,
      "vir": 1788,
      "Who": 1789,
      "amazing": 1790,
      "lar": 1791,
      "var": 1792,
      "IM": 1793,
      "leave": 1794,
      "anger": 1795,
      "told": 1796,
      "hours": 1797,
      "hol": 1798,
      "James": 1799,
      "wer": 1800,
      "ork": 1801,
      "extremely": 1802,
      "group": 1803,
      "rated": 1804,
      "Tom": 1805,
      "incredi": 1806,
      "shock": 1807,
      "tail": 1808,
      "change": 1809,
      "expected": 1810,
      "Po": 1811,
      "iter": 1812,
      "experience": 1813,
      "shots": 1814,
      "roll": 1815,
      "Dis": 1816,
      "mist": 1817,
      "...<": 1818,
      "!!!!": 1819,
      "ene": 1820,
      "IS": 1821,
      "none": 1822,
      "Col": 1823,
      "today": 1824,
      "chance": 1825,
      "odd": 1826,
      "opin": 1827,
      "shoot": 1828,
      "ational": 1829,
      "count": 1830,
      "quick": 1831,
      "pho": 1832,
      "apan": 1833,
      "particularly": 1834,
      "career": 1835,
      "saying": 1836,
      "Su": 1837,
      "gore": 1838,
      "exist": 1839,
      "running": 1840,
      "fut": 1841,
      "ats": 1842,
      "ator": 1843,
      "rip": 1844,
      "Robert": 1845,
      "Mor": 1846,
      "save": 1847,
      "started": 1848,
      "predictable": 1849,
      "dialog": 1850,
      "taken": 1851,
      "brilliant": 1852,
      "utter": 1853,
      "including": 1854,
      "20": 1855,
      "near": 1856,
      "astic": 1857,
      "wards": 1858,
      "Bar": 1859,
      "yourself": 1860,
      "violence": 1861,
      "itting": 1862,
      "recent": 1863,
      "ush": 1864,
      "alone": 1865,
      "single": 1866,
      "sym": 1867,
      "Japan": 1868,
      "swe": 1869,
      "res": 1870,
      "scar": 1871,
      "cool": 1872,
      "OR": 1873,
      "stra": 1874,
      "suff": 1875,
      "English": 1876,
      "clear": 1877,
      "hilarious": 1878,
      "brother": 1879,
      "check": 1880,
      "illiam": 1881,
      "four": 1882,
      "suck": 1883,
      "memor": 1884,
      "forget": 1885,
      "pleas": 1886,
      "draw": 1887,
      "zomb": 1888,
      "moder": 1889,
      "dull": 1890,
      "mil": 1891,
      "Ho": 1892,
      "198": 1893,
      "strange": 1894,
      "huge": 1895,
      "disappointed": 1896,
      "grow": 1897,
      "ris": 1898,
      "whose": 1899,
      "similar": 1900,
      "opening": 1901,
      "stick": 1902,
      "abo": 1903,
      "shown": 1904,
      "****": 1905,
      "female": 1906,
      "talking": 1907,
      "photo": 1908,
      "la": 1909,
      "cause": 1910,
      "ung": 1911,
      "reality": 1912,
      "!\"": 1913,
      "ather": 1914,
      "aby": 1915,
      "usually": 1916,
      "number": 1917,
      "exactly": 1918,
      "thetic": 1919,
      "across": 1920,
      "cost": 1921,
      "appears": 1922,
      "AR": 1923,
      "sign": 1924,
      "iss": 1925,
      "silly": 1926,
      "hear": 1927,
      "points": 1928,
      "ives": 1929,
      "comment": 1930,
      "azy": 1931,
      "aver": 1932,
      "yes": 1933,
      "straight": 1934,
      "Sha": 1935,
      "rench": 1936,
      "country": 1937,
      "ury": 1938,
      "treat": 1939,
      "ili": 1940,
      "Har": 1941,
      "ott": 1942,
      "ina": 1943,
      "fast": 1944,
      "plac": 1945,
      "walk": 1946,
      "gan": 1947,
      "scary": 1948,
      "hell": 1949,
      "necess": 1950,
      "honest": 1951,
      "outh": 1952,
      "released": 1953,
      "ING": 1954,
      "opinion": 1955,
      "realistic": 1956,
      "EN": 1957,
      "ined": 1958,
      "somewhat": 1959,
      "effort": 1960,
      "middle": 1961,
      "prem": 1962,
      "box": 1963,
      "erial": 1964,
      "ield": 1965,
      "cliché": 1966,
      "team": 1967,
      "Unfortunately": 1968,
      "eless": 1969,
      "197": 1970,
      "simple": 1971,
      "Wor": 1972,
      "plic": 1973,
      "giving": 1974,
      "rodu": 1975,
      "sometimes": 1976,
      "Although": 1977,
      "happy": 1978,
      "dan": 1979,
      "sequence": 1980,
      "mal": 1981,
      "uro": 1982,
      "popul": 1983,
      "words": 1984,
      "seriously": 1985,
      "respect": 1986,
      "mostly": 1987,
      "question": 1988,
      "sn": 1989,
      "tt": 1990,
      "ital": 1991,
      "ures": 1992,
      "cinematography": 1993,
      "despite": 1994,
      "deep": 1995,
      "falls": 1996,
      "knew": 1997,
      "local": 1998,
      "Maybe": 1999,
      "Com": 2000,
      "highly": 2001,
      "songs": 2002,
      "modern": 2003,
      "William": 2004,
      "dro": 2005,
      "enty": 2006,
      "important": 2007,
      "cret": 2008,
      "del": 2009,
      "build": 2010,
      "thor": 2011,
      "ised": 2012,
      "episodes": 2013,
      "doub": 2014,
      "ibly": 2015,
      "season": 2016,
      "II": 2017,
      "due": 2018,
      "problems": 2019,
      "documentary": 2020,
      "King": 2021,
      "Over": 2022,
      "whe": 2023,
      "British": 2024,
      "natur": 2025,
      "George": 2026,
      "claim": 2027,
      "Lee": 2028,
      "finds": 2029,
      "law": 2030,
      "bunch": 2031,
      "acy": 2032,
      "arely": 2033,
      "fer": 2034,
      "stage": 2035,
      "vol": 2036,
      "usion": 2037,
      "knows": 2038,
      "equ": 2039,
      "ished": 2040,
      "Yes": 2041,
      "attention": 2042,
      "intellig": 2043,
      "appre": 2044,
      "suspense": 2045,
      "avo": 2046,
      "kept": 2047,
      "pres": 2048,
      "material": 2049,
      "sexual": 2050,
      "dest": 2051,
      "estern": 2052,
      "actual": 2053,
      "lame": 2054,
      "199": 2055,
      "famous": 2056,
      "sets": 2057,
      "remind": 2058,
      "ently": 2059,
      "har": 2060,
      "asy": 2061,
      "ky": 2062,
      "ability": 2063,
      "meet": 2064,
      "prov": 2065,
      "pping": 2066,
      "spoil": 2067,
      "relationship": 2068,
      "narr": 2069,
      "sw": 2070,
      "sen": 2071,
      "living": 2072,
      "clearly": 2073,
      "atr": 2074,
      "sem": 2075,
      "front": 2076,
      "needs": 2077,
      "easily": 2078,
      "?<": 2079,
      "comic": 2080,
      "lock": 2081,
      "sold": 2082,
      "previous": 2083,
      "vil": 2084,
      "oud": 2085,
      "cident": 2086,
      "oo": 2087,
      "among": 2088,
      "ctive": 2089,
      "carto": 2090,
      "detail": 2091,
      "attle": 2092,
      "television": 2093,
      "hate": 2094,
      "agon": 2095,
      "events": 2096,
      "subject": 2097,
      "iety": 2098,
      "apart": 2099,
      "oul": 2100,
      "iet": 2101,
      "tried": 2102,
      "free": 2103,
      "forward": 2104,
      "Indi": 2105,
      "emb": 2106,
      "minute": 2107,
      "ension": 2108,
      "twist": 2109,
      "tom": 2110,
      "Wal": 2111,
      "ceed": 2112,
      "prise": 2113,
      "entertainment": 2114,
      "potent": 2115,
      "difficul": 2116,
      "poorly": 2117,
      "victim": 2118,
      "rend": 2119,
      "bey": 2120,
      "sequences": 2121,
      "appreci": 2122,
      "ham": 2123,
      "ik": 2124,
      "atter": 2125,
      "Chris": 2126,
      "mix": 2127,
      "pathetic": 2128,
      "storyline": 2129,
      "feels": 2130,
      "aster": 2131,
      "lies": 2132,
      "future": 2133,
      "Disney": 2134,
      "five": 2135,
      "lin": 2136,
      "setting": 2137,
      "Ke": 2138,
      "fire": 2139,
      "tells": 2140,
      "By": 2141,
      "cted": 2142,
      "blic": 2143,
      "ampire": 2144,
      "tori": 2145,
      "York": 2146,
      "kills": 2147,
      "Most": 2148,
      "lim": 2149,
      "Sam": 2150,
      "shi": 2151,
      "period": 2152,
      "iel": 2153,
      "herself": 2154,
      "message": 2155,
      "Pr": 2156,
      "thriller": 2157,
      "decided": 2158,
      "Peter": 2159,
      "From": 2160,
      "!!!": 2161,
      "30": 2162,
      "working": 2163,
      "named": 2164,
      "ening": 2165,
      "attack": 2166,
      "stru": 2167,
      "doubt": 2168,
      "50": 2169,
      "slight": 2170,
      "zz": 2171,
      "ution": 2172,
      "romantic": 2173,
      "Ex": 2174,
      "LE": 2175,
      "haven": 2176,
      "const": 2177,
      "telling": 2178,
      "eye": 2179,
      "Fo": 2180,
      "atmo": 2181,
      "tale": 2182,
      "writers": 2183,
      "Like": 2184,
      "path": 2185,
      "ica": 2186,
      "search": 2187,
      "nearly": 2188,
      "write": 2189,
      "editing": 2190,
      "sugg": 2191,
      "upon": 2192,
      "Dire": 2193,
      "state": 2194,
      "Par": 2195,
      "stre": 2196,
      "NOT": 2197,
      "atever": 2198,
      "meaning": 2199,
      "release": 2200,
      "dramatic": 2201,
      "repe": 2202,
      "ged": 2203,
      "VER": 2204,
      "deed": 2205,
      "surprised": 2206,
      "above": 2207,
      "omin": 2208,
      "hood": 2209,
      "beyond": 2210,
      "sha": 2211,
      "iment": 2212,
      "drug": 2213,
      "Frank": 2214,
      "mill": 2215,
      "clim": 2216,
      "premise": 2217,
      "atmosp": 2218,
      "aught": 2219,
      "appeal": 2220,
      "supporting": 2221,
      "convincing": 2222,
      "difficult": 2223,
      "wit": 2224,
      "moving": 2225,
      "within": 2226,
      "city": 2227,
      "comments": 2228,
      "',": 2229,
      "accent": 2230,
      "means": 2231,
      "pts": 2232,
      "easy": 2233,
      "apparently": 2234,
      "kick": 2235,
      "rate": 2236,
      "elements": 2237,
      "arents": 2238,
      "!)": 2239,
      "Can": 2240,
      "otic": 2241,
      "basically": 2242,
      "exe": 2243,
      "typical": 2244,
      "bored": 2245,
      "large": 2246,
      "agree": 2247,
      "Che": 2248,
      "badly": 2249,
      "Jim": 2250,
      "dumb": 2251,
      "creep": 2252,
      "reviews": 2253,
      "post": 2254,
      "Watch": 2255,
      "bal": 2256,
      "hom": 2257,
      "enn": 2258,
      "Pl": 2259,
      "ially": 2260,
      "issu": 2261,
      "El": 2262,
      "round": 2263,
      "Star": 2264,
      "PO": 2265,
      "ses": 2266,
      "camp": 2267,
      "tle": 2268,
      "lie": 2269,
      "theater": 2270,
      "enjoyable": 2271,
      "resp": 2272,
      "ener": 2273,
      "trou": 2274,
      "overall": 2275,
      "wind": 2276,
      "comb": 2277,
      "lier": 2278,
      "ights": 2279,
      "Good": 2280,
      "Its": 2281,
      "Nor": 2282,
      "inno": 2283,
      "killing": 2284,
      "visual": 2285,
      "truth": 2286,
      "Mart": 2287,
      "gang": 2288,
      "flash": 2289,
      "average": 2290,
      "Cr": 2291,
      "theme": 2292,
      "esy": 2293,
      "ously": 2294,
      "personal": 2295,
      "wait": 2296,
      "Oscar": 2297,
      "dden": 2298,
      "oun": 2299,
      "contro": 2300,
      "possibly": 2301,
      "descri": 2302,
      "Ser": 2303,
      "liter": 2304,
      "secret": 2305,
      "port": 2306,
      "introdu": 2307,
      "Gu": 2308,
      "viewing": 2309,
      "filmed": 2310,
      "dog": 2311,
      "weird": 2312,
      "viewers": 2313,
      "Fil": 2314,
      "showing": 2315,
      "begins": 2316,
      "consider": 2317,
      "IMD": 2318,
      "ugh": 2319,
      "reve": 2320,
      "credits": 2321,
      "OU": 2322,
      "gest": 2323,
      "forced": 2324,
      "rock": 2325,
      "acted": 2326,
      "cons": 2327,
      "avy": 2328,
      "Des": 2329,
      "parents": 2330,
      "buy": 2331,
      "America": 2332,
      "ana": 2333,
      "ilo": 2334,
      "train": 2335,
      "conne": 2336,
      "soundtrack": 2337,
      "whether": 2338,
      "rede": 2339,
      "'.": 2340,
      "cers": 2341,
      "sister": 2342,
      "joke": 2343,
      "?\"": 2344,
      "capture": 2345,
      "ral": 2346,
      "uss": 2347,
      "These": 2348,
      "flu": 2349,
      "ets": 2350,
      "asc": 2351,
      "animation": 2352,
      "Japanese": 2353,
      "sudden": 2354,
      "flaw": 2355,
      "logical": 2356,
      "needed": 2357,
      "villain": 2358,
      "Night": 2359,
      "rich": 2360,
      "mentioned": 2361,
      "Am": 2362,
      "Ph": 2363,
      "particular": 2364,
      "Here": 2365,
      "match": 2366,
      "soc": 2367,
      "express": 2368,
      "teach": 2369,
      "business": 2370,
      "unity": 2371,
      "Qu": 2372,
      "catch": 2373,
      "rap": 2374,
      "urther": 2375,
      "background": 2376,
      "bother": 2377,
      "accept": 2378,
      "crim": 2379,
      "Scott": 2380,
      "mystery": 2381,
      "bro": 2382,
      "ular": 2383,
      "Ber": 2384,
      "vent": 2385,
      "oty": 2386,
      "French": 2387,
      "leads": 2388,
      "medi": 2389,
      "nature": 2390,
      "third": 2391,
      "concl": 2392,
      "crime": 2393,
      "Will": 2394,
      "step": 2395,
      "strug": 2396,
      "casting": 2397,
      "fails": 2398,
      "public": 2399,
      "Mon": 2400,
      "hi": 2401,
      "trash": 2402,
      "somehow": 2403,
      "dies": 2404,
      "week": 2405,
      "natural": 2406,
      "gone": 2407,
      "ising": 2408,
      "meant": 2409,
      "execut": 2410,
      "dance": 2411,
      "stere": 2412,
      "Euro": 2413,
      "hair": 2414,
      "water": 2415,
      "sell": 2416,
      "cru": 2417,
      "deliver": 2418,
      "Em": 2419,
      "sick": 2420,
      "brought": 2421,
      "serv": 2422,
      "worked": 2423,
      "ze": 2424,
      "avoid": 2425,
      "pure": 2426,
      "anyway": 2427,
      "Christmas": 2428,
      "footage": 2429,
      "?)": 2430,
      "wasted": 2431,
      "became": 2432,
      "arrass": 2433,
      "shame": 2434,
      "ians": 2435,
      "yn": 2436,
      "potential": 2437,
      "directors": 2438,
      "80": 2439,
      "bers": 2440,
      "ta": 2441,
      "inally": 2442,
      "ches": 2443,
      "profess": 2444,
      "aging": 2445,
      "interested": 2446,
      "laughs": 2447,
      "leading": 2448,
      "blow": 2449,
      "please": 2450,
      "focus": 2451,
      "bur": 2452,
      "arre": 2453,
      "lots": 2454,
      "gotten": 2455,
      "LO": 2456,
      "nud": 2457,
      "lying": 2458,
      "embarrass": 2459,
      "board": 2460,
      "standing": 2461,
      "Tim": 2462,
      "ye": 2463,
      "Ital": 2464,
      "advent": 2465,
      "Ad": 2466,
      "Other": 2467,
      "mad": 2468,
      "div": 2469,
      "pat": 2470,
      "leaves": 2471,
      "ultim": 2472,
      "note": 2473,
      "rific": 2474,
      "imagine": 2475,
      "older": 2476,
      "sleep": 2477,
      "result": 2478,
      "screenplay": 2479,
      "jud": 2480,
      "reen": 2481,
      "total": 2482,
      "ively": 2483,
      "earlier": 2484,
      "flat": 2485,
      "refer": 2486,
      "ison": 2487,
      "grand": 2488,
      "surprise": 2489,
      "admit": 2490,
      "mach": 2491,
      "reading": 2492,
      "directing": 2493,
      "sorry": 2494,
      "stereoty": 2495,
      "exper": 2496,
      "bot": 2497,
      "IMDb": 2498,
      "pull": 2499,
      "fantastic": 2500,
      "popular": 2501,
      "Ang": 2502,
      "ost": 2503,
      "aked": 2504,
      "realize": 2505,
      "gle": 2506,
      "unlike": 2507,
      "Ear": 2508,
      "development": 2509,
      "Let": 2510,
      "Vic": 2511,
      "reco": 2512,
      "scient": 2513,
      "necessary": 2514,
      "rey": 2515,
      "attract": 2516,
      "stal": 2517,
      "els": 2518,
      "LY": 2519,
      "aste": 2520,
      "thy": 2521,
      "inger": 2522,
      "Black": 2523,
      "fit": 2524,
      "gay": 2525,
      "cat": 2526,
      "ague": 2527,
      "196": 2528,
      "AD": 2529,
      "IT": 2530,
      "acts": 2531,
      "pointless": 2532,
      "cheesy": 2533,
      "positive": 2534,
      "design": 2535,
      "apped": 2536,
      "AS": 2537,
      "ero": 2538,
      "stun": 2539,
      "roy": 2540,
      "venge": 2541,
      "greatest": 2542,
      "create": 2543,
      "situation": 2544,
      "fighting": 2545,
      "Wo": 2546,
      "rac": 2547,
      "concer": 2548,
      "Overall": 2549,
      "suggest": 2550,
      "pac": 2551,
      "demon": 2552,
      "concept": 2553,
      "onic": 2554,
      "clever": 2555,
      "emotion": 2556,
      "emotional": 2557,
      "memorable": 2558,
      "atmosphere": 2559,
      "reach": 2560,
      "studi": 2561,
      "psycho": 2562,
      "nudity": 2563,
      "fi": 2564,
      "rad": 2565,
      "iff": 2566,
      "berg": 2567,
      "keeps": 2568,
      "quickly": 2569,
      "cartoon": 2570,
      "Fred": 2571,
      "rit": 2572,
      "roc": 2573,
      "rote": 2574,
      "met": 2575,
      "iction": 2576,
      "sed": 2577,
      "ald": 2578,
      "brain": 2579,
      "histor": 2580,
      "trad": 2581,
      "ideas": 2582,
      "general": 2583,
      "political": 2584,
      "ES": 2585,
      "remake": 2586,
      "Sm": 2587,
      "battle": 2588,
      "bul": 2589,
      "nother": 2590,
      "imm": 2591,
      "ager": 2592,
      "discover": 2593,
      "field": 2594,
      "girlfriend": 2595,
      "90": 2596,
      "Bill": 2597,
      "La": 2598,
      "vampire": 2599,
      "features": 2600,
      "Another": 2601,
      "Hal": 2602,
      "fasc": 2603,
      "sens": 2604,
      "adapt": 2605,
      "hands": 2606,
      "gain": 2607,
      "missing": 2608,
      "Mat": 2609,
      "whom": 2610,
      "Mur": 2611,
      "ped": 2612,
      "beat": 2613,
      "compe": 2614,
      "German": 2615,
      "Hor": 2616,
      "bi": 2617,
      "wed": 2618,
      "satis": 2619,
      "incredibly": 2620,
      "15": 2621,
      "Mac": 2622,
      "lor": 2623,
      "anti": 2624,
      "expecting": 2625,
      "distur": 2626,
      "ges": 2627,
      "relig": 2628,
      "revol": 2629,
      "ices": 2630,
      "logy": 2631,
      "whatever": 2632,
      "fairly": 2633,
      "copy": 2634,
      "Pro": 2635,
      "erry": 2636,
      "ula": 2637,
      "drag": 2638,
      "attempts": 2639,
      "talented": 2640,
      "akes": 2641,
      "crazy": 2642,
      "scream": 2643,
      "reasons": 2644,
      "eventually": 2645,
      "recogn": 2646,
      "store": 2647,
      "prison": 2648,
      "fest": 2649,
      "wart": 2650,
      "unless": 2651,
      "Instead": 2652,
      "occas": 2653,
      "fantasy": 2654,
      "Ab": 2655,
      "hardly": 2656,
      "flo": 2657,
      "filled": 2658,
      "romance": 2659,
      "erson": 2660,
      "ban": 2661,
      "dub": 2662,
      "sounds": 2663,
      "Er": 2664,
      "towards": 2665,
      "Joe": 2666,
      "En": 2667,
      "oh": 2668,
      "suit": 2669,
      "Bet": 2670,
      "wrote": 2671,
      "spent": 2672,
      "table": 2673,
      "crew": 2674,
      "CH": 2675,
      "Mary": 2676,
      "bage": 2677,
      "/>\"": 2678,
      "meets": 2679,
      "social": 2680,
      "invest": 2681,
      "various": 2682,
      "illy": 2683,
      "phys": 2684,
      "Pol": 2685,
      "bert": 2686,
      "dress": 2687,
      "cute": 2688,
      "anna": 2689,
      "redeem": 2690,
      "biz": 2691,
      "brings": 2692,
      "ateur": 2693,
      "monster": 2694,
      "depth": 2695,
      "space": 2696,
      "itted": 2697,
      "unique": 2698,
      "Super": 2699,
      "iliar": 2700,
      "ba": 2701,
      "lady": 2702,
      "iously": 2703,
      "Director": 2704,
      "trail": 2705,
      "portrayed": 2706,
      "ched": 2707,
      "accur": 2708,
      "trave": 2709,
      "dim": 2710,
      "further": 2711,
      "ares": 2712,
      "amount": 2713,
      "manages": 2714,
      "maker": 2715,
      "familiar": 2716,
      "deserves": 2717,
      "langu": 2718,
      "Europe": 2719,
      "40": 2720,
      "indeed": 2721,
      "anks": 2722,
      "\")": 2723,
      "Cor": 2724,
      "Ir": 2725,
      "Ale": 2726,
      "cir": 2727,
      "ival": 2728,
      "cei": 2729,
      "thrill": 2730,
      "desper": 2731,
      "Perhaps": 2732,
      "creepy": 2733,
      "ders": 2734,
      "uc": 2735,
      "return": 2736,
      "asher": 2737,
      "accident": 2738,
      "filmmakers": 2739,
      "unfortunately": 2740,
      "comput": 2741,
      "aine": 2742,
      "perfectly": 2743,
      "mere": 2744,
      "spirit": 2745,
      "rand": 2746,
      "doctor": 2747,
      "contri": 2748,
      "Van": 2749,
      "remark": 2750,
      "brief": 2751,
      "amateur": 2752,
      "god": 2753,
      "common": 2754,
      "society": 2755,
      "outside": 2756,
      "members": 2757,
      "Sim": 2758,
      "bes": 2759,
      "sess": 2760,
      "tre": 2761,
      "dev": 2762,
      "elling": 2763,
      "produced": 2764,
      "boys": 2765,
      "Act": 2766,
      "inc": 2767,
      "stri": 2768,
      "def": 2769,
      "izing": 2770,
      "inside": 2771,
      "appy": 2772,
      "waiting": 2773,
      "credit": 2774,
      "satisf": 2775,
      "Ham": 2776,
      "achie": 2777,
      "base": 2778,
      "door": 2779,
      "value": 2780,
      "earth": 2781,
      "married": 2782,
      "superb": 2783,
      "missed": 2784,
      "reveal": 2785,
      "ging": 2786,
      "luck": 2787,
      "theat": 2788,
      "gram": 2789,
      "193": 2790,
      "rub": 2791,
      "(\"": 2792,
      "jump": 2793,
      "western": 2794,
      "ribly": 2795,
      "offic": 2796,
      "aven": 2797,
      "spl": 2798,
      "laughing": 2799,
      "created": 2800,
      "Pal": 2801,
      "insp": 2802,
      "plenty": 2803,
      "dancing": 2804,
      "numb": 2805,
      "weren": 2806,
      "ford": 2807,
      "garbage": 2808,
      "Ju": 2809,
      "gress": 2810,
      "nie": 2811,
      "test": 2812,
      "recor": 2813,
      "failed": 2814,
      "masterpiece": 2815,
      "Where": 2816,
      "itty": 2817,
      "ashing": 2818,
      "tension": 2819,
      "insul": 2820,
      "neg": 2821,
      "requ": 2822,
      "ghost": 2823,
      "Movie": 2824,
      "lect": 2825,
      "bizarre": 2826,
      "fash": 2827,
      "ghts": 2828,
      "rup": 2829,
      "itary": 2830,
      "bling": 2831,
      "Big": 2832,
      "andy": 2833,
      "pet": 2834,
      "choice": 2835,
      "continu": 2836,
      "ai": 2837,
      "regard": 2838,
      "immedi": 2839,
      "decides": 2840,
      "control": 2841,
      "Great": 2842,
      "Lon": 2843,
      "Red": 2844,
      "crow": 2845,
      "van": 2846,
      "net": 2847,
      "Li": 2848,
      "OM": 2849,
      "Sch": 2850,
      "project": 2851,
      "intri": 2852,
      "fake": 2853,
      "entirely": 2854,
      "Pre": 2855,
      "cal": 2856,
      "hid": 2857,
      "depict": 2858,
      "approach": 2859,
      "iers": 2860,
      "spend": 2861,
      "producers": 2862,
      "biggest": 2863,
      "slasher": 2864,
      "Hen": 2865,
      "ensive": 2866,
      "slightly": 2867,
      "ito": 2868,
      "proper": 2869,
      "Bas": 2870,
      "barely": 2871,
      "bs": 2872,
      "hang": 2873,
      "soul": 2874,
      "Stan": 2875,
      "exciting": 2876,
      "Fran": 2877,
      "House": 2878,
      "otherwise": 2879,
      "appearance": 2880,
      "World": 2881,
      "cross": 2882,
      "ient": 2883,
      "Dead": 2884,
      "recently": 2885,
      "ships": 2886,
      "Blo": 2887,
      "jour": 2888,
      "ken": 2889,
      "pract": 2890,
      "beauty": 2891,
      "annel": 2892,
      "powerful": 2893,
      "psych": 2894,
      "Bel": 2895,
      "pace": 2896,
      "following": 2897,
      "successful": 2898,
      "culture": 2899,
      "changed": 2900,
      "Du": 2901,
      "Gold": 2902,
      "fat": 2903,
      "mass": 2904,
      "ened": 2905,
      "elly": 2906,
      "dem": 2907,
      "doll": 2908,
      "finish": 2909,
      "former": 2910,
      "ults": 2911,
      "tough": 2912,
      "exception": 2913,
      "shooting": 2914,
      "Italian": 2915,
      "impro": 2916,
      "moves": 2917,
      "died": 2918,
      "mes": 2919,
      "sav": 2920,
      "sees": 2921,
      "Love": 2922,
      "presented": 2923,
      "random": 2924,
      "Park": 2925,
      "caught": 2926,
      "rough": 2927,
      "runs": 2928,
      "HO": 2929,
      "burn": 2930,
      "opport": 2931,
      "six": 2932,
      "lover": 2933,
      "compar": 2934,
      "ples": 2935,
      "spot": 2936,
      "appreciate": 2937,
      "consist": 2938,
      "wall": 2939,
      "ican": 2940,
      "100": 2941,
      "suddenly": 2942,
      "Earth": 2943,
      "baby": 2944,
      "arri": 2945,
      "actions": 2946,
      "company": 2947,
      "purpose": 2948,
      "sweet": 2949,
      "ded": 2950,
      "ises": 2951,
      "manner": 2952,
      "laughable": 2953,
      "younger": 2954,
      "void": 2955,
      "cape": 2956,
      "Sure": 2957,
      "thus": 2958,
      "faith": 2959,
      "stereotyp": 2960,
      "assu": 2961,
      "Stre": 2962,
      "books": 2963,
      "language": 2964,
      "Ru": 2965,
      "tective": 2966,
      "195": 2967,
      "singing": 2968,
      "color": 2969,
      "Stewart": 2970,
      "thur": 2971,
      "amusing": 2972,
      "ius": 2973,
      "loud": 2974,
      "uine": 2975,
      "adult": 2976,
      "aper": 2977,
      "ordin": 2978,
      "rect": 2979,
      "longer": 2980,
      "appeared": 2981,
      "zombie": 2982,
      "fashion": 2983,
      "ED": 2984,
      "Lou": 2985,
      "itation": 2986,
      "force": 2987,
      "extra": 2988,
      "intelligent": 2989,
      "olf": 2990,
      "Bat": 2991,
      "hun": 2992,
      "thes": 2993,
      "genuine": 2994,
      "complex": 2995,
      "added": 2996,
      "Rock": 2997,
      "gover": 2998,
      "office": 2999,
      "subtle": 3000,
      "compared": 3001,
      "likes": 3002,
      "depend": 3003,
      "critic": 3004,
      "computer": 3005,
      "showed": 3006,
      "bles": 3007,
      "decide": 3008,
      "Only": 3009,
      "Christian": 3010,
      "basic": 3011,
      "Harr": 3012,
      "pal": 3013,
      "taste": 3014,
      "anda": 3015,
      "arily": 3016,
      "ades": 3017,
      "Too": 3018,
      "conclusion": 3019,
      "\".<": 3020,
      "Aust": 3021,
      "Mad": 3022,
      "host": 3023,
      "chemis": 3024,
      "Arthur": 3025,
      "tur": 3026,
      "leaving": 3027,
      "unbelievable": 3028,
      "chemistry": 3029,
      "Rom": 3030,
      "aus": 3031,
      "chase": 3032,
      "absur": 3033,
      "involving": 3034,
      "situations": 3035,
      "Best": 3036,
      "revenge": 3037,
      "nowhere": 3038,
      "follows": 3039,
      "formation": 3040,
      "impressive": 3041,
      "lets": 3042,
      "impossible": 3043,
      "road": 3044,
      "excuse": 3045,
      "utterly": 3046,
      "Alex": 3047,
      "neither": 3048,
      "program": 3049,
      "worthy": 3050,
      "Ple": 3051,
      "smo": 3052,
      "ena": 3053,
      "escape": 3054,
      "heavy": 3055,
      "iced": 3056,
      "pects": 3057,
      "carry": 3058,
      "solid": 3059,
      "AND": 3060,
      "respons": 3061,
      "considered": 3062,
      "pack": 3063,
      "ining": 3064,
      "belief": 3065,
      "developed": 3066,
      "impression": 3067,
      "ech": 3068,
      "brut": 3069,
      "rious": 3070,
      "pieces": 3071,
      "Smith": 3072,
      "Dou": 3073,
      "date": 3074,
      "194": 3075,
      "military": 3076,
      "college": 3077,
      "trouble": 3078,
      "ays": 3079,
      "okay": 3080,
      "painful": 3081,
      "questions": 3082,
      "Mel": 3083,
      "danger": 3084,
      "glad": 3085,
      "normal": 3086,
      "Anyway": 3087,
      "mistake": 3088,
      "criminal": 3089,
      "High": 3090,
      "ID": 3091,
      "SPO": 3092,
      "standard": 3093,
      "audiences": 3094,
      "values": 3095,
      "portrayal": 3096,
      "Bur": 3097,
      "Ma": 3098,
      "sitting": 3099,
      "aking": 3100,
      "cold": 3101,
      "Still": 3102,
      "disappointing": 3103,
      "disappointment": 3104,
      "bought": 3105,
      "gent": 3106,
      "ths": 3107,
      "mood": 3108,
      "somewhere": 3109,
      "mental": 3110,
      "People": 3111,
      "sion": 3112,
      "pop": 3113,
      "Film": 3114,
      "GI": 3115,
      "gag": 3116,
      "capt": 3117,
      "techn": 3118,
      "ILER": 3119,
      "literally": 3120,
      "Two": 3121,
      "gory": 3122,
      "rema": 3123,
      "esome": 3124,
      "load": 3125,
      "thinks": 3126,
      "raid": 3127,
      "succeed": 3128,
      "London": 3129,
      "Bad": 3130,
      "LA": 3131,
      "aire": 3132,
      "iny": 3133,
      "ilt": 3134,
      "watchable": 3135,
      "survi": 3136,
      "Because": 3137,
      "abr": 3138,
      "ns": 3139,
      "sters": 3140,
      "likable": 3141,
      "OF": 3142,
      "Part": 3143,
      "bear": 3144,
      "author": 3145,
      "science": 3146,
      "absurd": 3147,
      "Wil": 3148,
      "bomb": 3149,
      "violent": 3150,
      "SPOILER": 3151,
      "Dark": 3152,
      "squ": 3153,
      "delight": 3154,
      "medio": 3155,
      "000": 3156,
      "inspired": 3157,
      "Ra": 3158,
      "rot": 3159,
      "prop": 3160,
      "obsess": 3161,
      "party": 3162,
      "motion": 3163,
      "zombies": 3164,
      "fascin": 3165,
      "70": 3166,
      "City": 3167,
      "leng": 3168,
      "spec": 3169,
      "costum": 3170,
      "street": 3171,
      "studio": 3172,
      "ceived": 3173,
      "18": 3174,
      "OO": 3175,
      "ker": 3176,
      "riage": 3177,
      "intent": 3178,
      "disturbing": 3179,
      "BC": 3180,
      "EVER": 3181,
      "Ram": 3182,
      "starring": 3183,
      "ites": 3184,
      "favour": 3185,
      "walking": 3186,
      "considering": 3187,
      "Ant": 3188,
      "complain": 3189,
      "***": 3190,
      "lad": 3191,
      "mm": 3192,
      "aspect": 3193,
      "oft": 3194,
      "ires": 3195,
      "trip": 3196,
      "million": 3197,
      "names": 3198,
      "sal": 3199,
      "counter": 3200,
      "effective": 3201,
      "investig": 3202,
      "suspect": 3203,
      "generally": 3204,
      "drawn": 3205,
      "immediately": 3206,
      "Henry": 3207,
      "Gar": 3208,
      "mouth": 3209,
      "cry": 3210,
      "craf": 3211,
      "minor": 3212,
      "subst": 3213,
      "hoping": 3214,
      "Indian": 3215,
      "adventure": 3216,
      "Mark": 3217,
      "cell": 3218,
      "ov": 3219,
      "idi": 3220,
      "managed": 3221,
      "drive": 3222,
      "moral": 3223,
      "Jeff": 3224,
      "fear": 3225,
      "neigh": 3226,
      "Charles": 3227,
      "climax": 3228,
      "Adam": 3229,
      "fell": 3230,
      "inner": 3231,
      "chick": 3232,
      "terror": 3233,
      "ified": 3234,
      "Young": 3235,
      "Did": 3236,
      "seg": 3237,
      "core": 3238,
      "adaptation": 3239,
      "Spe": 3240,
      "tone": 3241,
      "ests": 3242,
      "orts": 3243,
      "ization": 3244,
      "steal": 3245,
      "humour": 3246,
      "occur": 3247,
      "Bri": 3248,
      "apo": 3249,
      "rare": 3250,
      "adow": 3251,
      "essent": 3252,
      "bled": 3253,
      "phen": 3254,
      "Way": 3255,
      "nment": 3256,
      "threat": 3257,
      "uster": 3258,
      "lla": 3259,
      "witness": 3260,
      "Jane": 3261,
      "Yet": 3262,
      "nons": 3263,
      "si": 3264,
      "avail": 3265,
      "laughter": 3266,
      "suppose": 3267,
      "images": 3268,
      "innocent": 3269,
      "gas": 3270,
      "mult": 3271,
      "shed": 3272,
      "intention": 3273,
      "cks": 3274,
      "drunk": 3275,
      "Nothing": 3276,
      "paid": 3277,
      "fresh": 3278,
      "thrown": 3279,
      "notice": 3280,
      "plane": 3281,
      "magic": 3282,
      "Dick": 3283,
      "Oli": 3284,
      "Russ": 3285,
      "Str": 3286,
      "Very": 3287,
      "ls": 3288,
      "confl": 3289,
      "views": 3290,
      "smart": 3291,
      "animated": 3292,
      "Paris": 3293,
      "Den": 3294,
      "Jes": 3295,
      "Jones": 3296,
      "WW": 3297,
      "za": 3298,
      "island": 3299,
      "depress": 3300,
      "ify": 3301,
      "attractive": 3302,
      "historical": 3303,
      "Ok": 3304,
      "gust": 3305,
      "feat": 3306,
      "plus": 3307,
      "contr": 3308,
      "ained": 3309,
      "likely": 3310,
      "gry": 3311,
      "incredible": 3312,
      "ultimately": 3313,
      "Kar": 3314,
      "Sun": 3315,
      "Sci": 3316,
      "uce": 3317,
      "stem": 3318,
      "beha": 3319,
      "idence": 3320,
      "amed": 3321,
      "commer": 3322,
      "appropri": 3323,
      "Despite": 3324,
      "charming": 3325,
      "places": 3326,
      "soldiers": 3327,
      "irth": 3328,
      "urch": 3329,
      "genius": 3330,
      "born": 3331,
      "expectations": 3332,
      "correct": 3333,
      "escap": 3334,
      "ands": 3335,
      "prot": 3336,
      "twists": 3337,
      "cinematic": 3338,
      "13": 3339,
      "?!": 3340,
      "tun": 3341,
      "resem": 3342,
      "verse": 3343,
      "awesome": 3344,
      "thank": 3345,
      "porn": 3346,
      "destroy": 3347,
      "professional": 3348,
      "moved": 3349,
      "asty": 3350,
      "Though": 3351,
      "intended": 3352,
      "tired": 3353,
      "abor": 3354,
      "phone": 3355,
      "boyfriend": 3356,
      "intrigu": 3357,
      "Mus": 3358,
      "Ray": 3359,
      "pen": 3360,
      "init": 3361,
      "terms": 3362,
      "scenery": 3363,
      "fool": 3364,
      "presence": 3365,
      "narrative": 3366,
      "MO": 3367,
      "mir": 3368,
      "exp": 3369,
      "offer": 3370,
      "graphic": 3371,
      "Shak": 3372,
      "Please": 3373,
      "Sar": 3374,
      "wild": 3375,
      "aff": 3376,
      "position": 3377,
      "mission": 3378,
      "changes": 3379,
      "Christop": 3380,
      "Ac": 3381,
      "pair": 3382,
      "aton": 3383,
      "aware": 3384,
      "sexy": 3385,
      "dad": 3386,
      "thin": 3387,
      "remain": 3388,
      "torture": 3389,
      "charm": 3390,
      "See": 3391,
      "Jean": 3392,
      "Girl": 3393,
      "Ken": 3394,
      "ini": 3395,
      "enced": 3396,
      "esh": 3397,
      "mote": 3398,
      "comedies": 3399,
      "ledge": 3400,
      "marriage": 3401,
      "Afr": 3402,
      "contem": 3403,
      "indust": 3404,
      "flashback": 3405,
      "dom": 3406,
      "lacks": 3407,
      "placed": 3408,
      "Christopher": 3409,
      "Fe": 3410,
      "Story": 3411,
      "bits": 3412,
      "ties": 3413,
      "wel": 3414,
      "inn": 3415,
      "onto": 3416,
      "alive": 3417,
      "filming": 3418,
      "lighting": 3419,
      "happening": 3420,
      "Steve": 3421,
      "constantly": 3422,
      "ran": 3423,
      "loss": 3424,
      "rape": 3425,
      "redeeming": 3426,
      "mediocre": 3427,
      "reck": 3428,
      "irty": 3429,
      "serial": 3430,
      "izes": 3431,
      "numbers": 3432,
      "costumes": 3433,
      "Bol": 3434,
      "Bob": 3435,
      "Show": 3436,
      "itor": 3437,
      "yer": 3438,
      "ancy": 3439,
      "loves": 3440,
      "irrit": 3441,
      "difference": 3442,
      "Charlie": 3443,
      "loose": 3444,
      "imagin": 3445,
      "issues": 3446,
      "Hard": 3447,
      "dread": 3448,
      "ior": 3449,
      "kno": 3450,
      "tend": 3451,
      "century": 3452,
      "equally": 3453,
      "details": 3454,
      "Martin": 3455,
      "commercial": 3456,
      "Kelly": 3457,
      "Mic": 3458,
      "mysterious": 3459,
      "wis": 3460,
      "aspects": 3461,
      "arts": 3462,
      "lif": 3463,
      "anted": 3464,
      "qual": 3465,
      "Miss": 3466,
      "pil": 3467,
      "remote": 3468,
      "vert": 3469,
      "disgust": 3470,
      "surround": 3471,
      "Once": 3472,
      "AC": 3473,
      "Sy": 3474,
      "Ver": 3475,
      "eth": 3476,
      "wolf": 3477,
      "held": 3478,
      "confusing": 3479,
      "legend": 3480,
      "remains": 3481,
      "grad": 3482,
      "plots": 3483,
      "actresses": 3484,
      "holes": 3485,
      "photography": 3486,
      "opportunity": 3487,
      "available": 3488,
      "disco": 3489,
      "knowing": 3490,
      "explained": 3491,
      "naked": 3492,
      "ider": 3493,
      "ills": 3494,
      "ured": 3495,
      "laughed": 3496,
      "wondering": 3497,
      "stunning": 3498,
      "12": 3499,
      "AM": 3500,
      "argu": 3501,
      "noir": 3502,
      "Wood": 3503,
      "ordinary": 3504,
      "asts": 3505,
      "andon": 3506,
      "rob": 3507,
      "spital": 3508,
      "contains": 3509,
      "Steven": 3510,
      "surprisingly": 3511,
      "alien": 3512,
      "Jerry": 3513,
      "bol": 3514,
      "len": 3515,
      "edy": 3516,
      "club": 3517,
      "affair": 3518,
      "dated": 3519,
      "asks": 3520,
      "image": 3521,
      "pictures": 3522,
      "virt": 3523,
      "SE": 3524,
      "West": 3525,
      "via": 3526,
      "nobody": 3527,
      "gold": 3528,
      "comfort": 3529,
      "ctions": 3530,
      "producer": 3531,
      "element": 3532,
      "confused": 3533,
      "divid": 3534,
      "government": 3535,
      "Sant": 3536,
      "gin": 3537,
      "ride": 3538,
      "owers": 3539,
      "oks": 3540,
      "drink": 3541,
      "wooden": 3542,
      "honestly": 3543,
      "IE": 3544,
      "South": 3545,
      "ario": 3546,
      "lose": 3547,
      "ura": 3548,
      "aps": 3549,
      "victims": 3550,
      "trailer": 3551,
      "protagon": 3552,
      "pan": 3553,
      "sight": 3554,
      "theless": 3555,
      "discus": 3556,
      "merely": 3557,
      "Never": 3558,
      "fu": 3559,
      "mart": 3560,
      "ico": 3561,
      "terrific": 3562,
      "lia": 3563,
      "roo": 3564,
      "soever": 3565,
      "trick": 3566,
      "seconds": 3567,
      "slowly": 3568,
      "silent": 3569,
      "students": 3570,
      "Val": 3571,
      "itz": 3572,
      "lived": 3573,
      "student": 3574,
      "Shakespe": 3575,
      "sch": 3576,
      "aside": 3577,
      "boss": 3578,
      "whatsoever": 3579,
      "cock": 3580,
      "bland": 3581,
      "content": 3582,
      "passion": 3583,
      "planet": 3584,
      "Dam": 3585,
      "rout": 3586,
      "tar": 3587,
      "individ": 3588,
      "afraid": 3589,
      "phy": 3590,
      "flicks": 3591,
      "Men": 3592,
      "flow": 3593,
      "ki": 3594,
      "influ": 3595,
      "chall": 3596,
      "vey": 3597,
      "shadow": 3598,
      "jects": 3599,
      "Angel": 3600,
      "Many": 3601,
      "VE": 3602,
      "lay": 3603,
      "pra": 3604,
      "explan": 3605,
      "awk": 3606,
      "prim": 3607,
      "fright": 3608,
      "safe": 3609,
      "supposedly": 3610,
      "rented": 3611,
      "Eddie": 3612,
      "niest": 3613,
      "scientist": 3614,
      "neighbor": 3615,
      "Ter": 3616,
      "ape": 3617,
      "fiction": 3618,
      "cele": 3619,
      "detective": 3620,
      "standards": 3621,
      "murders": 3622,
      "Batman": 3623,
      "Hel": 3624,
      "Lyn": 3625,
      "hide": 3626,
      "pun": 3627,
      "compl": 3628,
      "Americans": 3629,
      "current": 3630,
      "enter": 3631,
      "stands": 3632,
      "pretent": 3633,
      "azz": 3634,
      "system": 3635,
      "touching": 3636,
      "dreams": 3637,
      "Bor": 3638,
      "Zomb": 3639,
      "latter": 3640,
      "uous": 3641,
      "outstanding": 3642,
      "agger": 3643,
      "putting": 3644,
      "Kr": 3645,
      "kes": 3646,
      "model": 3647,
      "melo": 3648,
      "coher": 3649,
      "grade": 3650,
      "emplo": 3651,
      "More": 3652,
      "Roy": 3653,
      "ibility": 3654,
      "critics": 3655,
      "broad": 3656,
      "behavi": 3657,
      "Sin": 3658,
      "willing": 3659,
      "lessly": 3660,
      "answer": 3661,
      "ugly": 3662,
      "include": 3663,
      "sky": 3664,
      "building": 3665,
      "bish": 3666,
      "bank": 3667,
      "wide": 3668,
      "inspir": 3669,
      "ander": 3670,
      "filmmaker": 3671,
      "ablish": 3672,
      "haun": 3673,
      "followed": 3674,
      "formula": 3675,
      "bottom": 3676,
      "negative": 3677,
      "Blood": 3678,
      "60": 3679,
      "ado": 3680,
      "uts": 3681,
      ".....": 3682,
      "empt": 3683,
      "decis": 3684,
      "imagination": 3685,
      "fellow": 3686,
      "sadly": 3687,
      "forgettable": 3688,
      "Tar": 3689,
      "soft": 3690,
      "tie": 3691,
      "information": 3692,
      "adults": 3693,
      "hasn": 3694,
      "lovely": 3695,
      "sident": 3696,
      "Canad": 3697,
      "BE": 3698,
      "IG": 3699,
      "bod": 3700,
      "ilities": 3701,
      "Thom": 3702,
      "Shakespeare": 3703,
      "Little": 3704,
      "mut": 3705,
      "itude": 3706,
      "establish": 3707,
      "justice": 3708,
      "themes": 3709,
      "crack": 3710,
      "turning": 3711,
      "celebr": 3712,
      "arm": 3713,
      "frust": 3714,
      "stuck": 3715,
      "Hit": 3716,
      "forgotten": 3717,
      "grat": 3718,
      "prin": 3719,
      "Death": 3720,
      "compelling": 3721,
      "creative": 3722,
      "pretentious": 3723,
      "DO": 3724,
      "Was": 3725,
      "ahead": 3726,
      "pse": 3727,
      "station": 3728,
      "hospital": 3729,
      "mainly": 3730,
      "woods": 3731,
      "fascinating": 3732,
      "multi": 3733,
      "Having": 3734,
      "cow": 3735,
      "cused": 3736,
      "eat": 3737,
      "race": 3738,
      "army": 3739,
      "scare": 3740,
      "ups": 3741,
      "matic": 3742,
      "surely": 3743,
      "titles": 3744,
      "Allen": 3745,
      "describe": 3746,
      "accurate": 3747,
      "individual": 3748,
      "resc": 3749,
      "itions": 3750,
      "termin": 3751,
      "dig": 3752,
      "seemingly": 3753,
      "forever": 3754,
      "childhood": 3755,
      "falling": 3756,
      "deserved": 3757,
      "Nick": 3758,
      "Tre": 3759,
      "UN": 3760,
      "aud": 3761,
      "grace": 3762,
      "breath": 3763,
      "relationships": 3764,
      "Mag": 3765,
      "hab": 3766,
      "sin": 3767,
      "onna": 3768,
      "edge": 3769,
      "bright": 3770,
      "trust": 3771,
      "progress": 3772,
      "funniest": 3773,
      "beautifully": 3774,
      "Daniel": 3775,
      "Di": 3776,
      "birth": 3777,
      "ases": 3778,
      "fill": 3779,
      "soci": 3780,
      "animals": 3781,
      "journey": 3782,
      "AY": 3783,
      "Ms": 3784,
      "anymore": 3785,
      "feelings": 3786,
      "puts": 3787,
      "clean": 3788,
      "Both": 3789,
      "emotions": 3790,
      "record": 3791,
      "Life": 3792,
      "han": 3793,
      "ya": 3794,
      "lights": 3795,
      "wearing": 3796,
      "clothes": 3797,
      "motiv": 3798,
      "pleasant": 3799,
      "Victori": 3800,
      "Cind": 3801,
      "IC": 3802,
      "card": 3803,
      "cum": 3804,
      "icide": 3805,
      "oking": 3806,
      "quiet": 3807,
      "evin": 3808,
      "opera": 3809,
      "Fox": 3810,
      "Mi": 3811,
      "ray": 3812,
      "loy": 3813,
      "ousy": 3814,
      "raz": 3815,
      "intelligence": 3816,
      "Superman": 3817,
      "Gor": 3818,
      "Sus": 3819,
      "leep": 3820,
      "igno": 3821,
      "ourne": 3822,
      "Cha": 3823,
      "Mal": 3824,
      "Since": 3825,
      "mally": 3826,
      "folks": 3827,
      "location": 3828,
      "double": 3829,
      "damn": 3830,
      "Everything": 3831,
      "speaking": 3832,
      "hic": 3833,
      "witch": 3834,
      "stink": 3835,
      "share": 3836,
      "ode": 3837,
      "Horror": 3838,
      "nic": 3839,
      "itional": 3840,
      "cher": 3841,
      "becoming": 3842,
      "disaster": 3843,
      "blind": 3844,
      "evol": 3845,
      "heads": 3846,
      "compan": 3847,
      "gling": 3848,
      "faces": 3849,
      "DE": 3850,
      "nasty": 3851,
      "hey": 3852,
      "ural": 3853,
      "addition": 3854,
      "impressed": 3855,
      "flaws": 3856,
      "occasion": 3857,
      "achieve": 3858,
      ".,": 3859,
      "Billy": 3860,
      "CGI": 3861,
      "Green": 3862,
      "Jason": 3863,
      "sour": 3864,
      "tack": 3865,
      "wing": 3866,
      "unnecessary": 3867,
      "area": 3868,
      "auto": 3869,
      "artistic": 3870,
      "finished": 3871,
      "twice": 3872,
      "recommended": 3873,
      "winning": 3874,
      "picked": 3875,
      "thorough": 3876,
      "ju": 3877,
      "mine": 3878,
      "nu": 3879,
      "prefer": 3880,
      "intense": 3881,
      "Jackson": 3882,
      "teacher": 3883,
      "conflict": 3884,
      "Dar": 3885,
      "fli": 3886,
      "independ": 3887,
      "angry": 3888,
      "ency": 3889,
      "traged": 3890,
      "minis": 3891,
      "desert": 3892,
      "pleasure": 3893,
      "Mex": 3894,
      "Sand": 3895,
      "Tay": 3896,
      "onder": 3897,
      "ppy": 3898,
      "slap": 3899,
      "length": 3900,
      "Hitler": 3901,
      "gre": 3902,
      "central": 3903,
      "Bruce": 3904,
      "Danny": 3905,
      "drugs": 3906,
      "explanation": 3907,
      "Avoid": 3908,
      "Fi": 3909,
      "national": 3910,
      "research": 3911,
      "asp": 3912,
      "lyn": 3913,
      "trag": 3914,
      "ishing": 3915,
      "shouldn": 3916,
      "helps": 3917,
      "possess": 3918,
      "issue": 3919,
      "fif": 3920,
      "doz": 3921,
      "proves": 3922,
      "awn": 3923,
      "Which": 3924,
      "thanks": 3925,
      "reminded": 3926,
      "window": 3927,
      "Spo": 3928,
      "hated": 3929,
      "punch": 3930,
      "unfunny": 3931,
      "constru": 3932,
      "wee": 3933,
      "weap": 3934,
      "Second": 3935,
      "deserve": 3936,
      "hotel": 3937,
      "drop": 3938,
      "Keaton": 3939,
      "responsible": 3940,
      "industry": 3941,
      "Sad": 3942,
      "bill": 3943,
      "ano": 3944,
      "iles": 3945,
      "loving": 3946,
      "news": 3947,
      "rown": 3948,
      "allowed": 3949,
      "techno": 3950,
      "80s": 3951,
      "Finally": 3952,
      "dying": 3953,
      "channel": 3954,
      "realized": 3955,
      "giant": 3956,
      "began": 3957,
      "warm": 3958,
      "energy": 3959,
      "struggle": 3960,
      "Out": 3961,
      "Western": 3962,
      "blame": 3963,
      "visible": 3964,
      "collection": 3965,
      "rupt": 3966,
      "11": 3967,
      "Ron": 3968,
      "mount": 3969,
      "uff": 3970,
      "horse": 3971,
      "listen": 3972,
      "teenage": 3973,
      ":<": 3974,
      "youth": 3975,
      "repeated": 3976,
      "rubbish": 3977,
      "Okay": 3978,
      "GE": 3979,
      "RA": 3980,
      "eper": 3981,
      "fights": 3982,
      "gorge": 3983,
      "sun": 3984,
      "oted": 3985,
      "award": 3986,
      "offers": 3987,
      "shocking": 3988,
      "provides": 3989,
      "appropriate": 3990,
      "text": 3991,
      "va": 3992,
      "aries": 3993,
      "brothers": 3994,
      "heal": 3995,
      "abs": 3996,
      "personality": 3997,
      "undred": 3998,
      "delivers": 3999,
      "priv": 4000,
      "nonsense": 4001,
      "Taylor": 4002,
      "Day": 4003,
      "hat": 4004,
      "stream": 4005,
      "Their": 4006,
      "superi": 4007,
      "relative": 4008,
      "commun": 4009,
      "heroes": 4010,
      "limited": 4011,
      "religious": 4012,
      "Jesus": 4013,
      "ga": 4014,
      "mild": 4015,
      "stret": 4016,
      "stock": 4017,
      "cuts": 4018,
      "clichés": 4019,
      "itous": 4020,
      "thoroughly": 4021,
      "Ye": 4022,
      "eight": 4023,
      "hundred": 4024,
      "mare": 4025,
      "rog": 4026,
      "gem": 4027,
      "anywhere": 4028,
      "Johnny": 4029,
      "Span": 4030,
      "instance": 4031,
      "presents": 4032,
      "TO": 4033,
      "iest": 4034,
      "mel": 4035,
      "Luke": 4036,
      "Sher": 4037,
      "iven": 4038,
      "alk": 4039,
      "ama": 4040,
      "illa": 4041,
      "convers": 4042,
      "process": 4043,
      "kidn": 4044,
      "cording": 4045,
      "capable": 4046,
      "apartment": 4047,
      "tragedy": 4048,
      "iro": 4049,
      "artist": 4050,
      "cops": 4051,
      "White": 4052,
      "player": 4053,
      "knowledge": 4054,
      "perform": 4055,
      "ipul": 4056,
      "inese": 4057,
      "Robin": 4058,
      "physical": 4059,
      "Lynch": 4060,
      "Jud": 4061,
      "creature": 4062,
      "skin": 4063,
      "asked": 4064,
      "14": 4065,
      "Jr": 4066,
      "Jon": 4067,
      "Les": 4068,
      "Lau": 4069,
      "aa": 4070,
      "fits": 4071,
      "sac": 4072,
      "yed": 4073,
      "atra": 4074,
      "vehic": 4075,
      "noticed": 4076,
      "seless": 4077,
      "Stephen": 4078,
      "Brother": 4079,
      "sympath": 4080,
      "sucks": 4081,
      "signific": 4082,
      "Williams": 4083,
      "awkward": 4084,
      "cate": 4085,
      "rage": 4086,
      "asure": 4087,
      "ston": 4088,
      "tran": 4089,
      "manage": 4090,
      "agent": 4091,
      "emp": 4092,
      "helped": 4093,
      "introduced": 4094,
      "remarkable": 4095,
      "Dougl": 4096,
      "Que": 4097,
      "bian": 4098,
      "bio": 4099,
      "stat": 4100,
      "aint": 4101,
      "provide": 4102,
      "food": 4103,
      "Joan": 4104,
      "coll": 4105,
      "adds": 4106,
      "Ann": 4107,
      "Sean": 4108,
      "Uni": 4109,
      "knock": 4110,
      "tragic": 4111,
      "Run": 4112,
      "lon": 4113,
      "yle": 4114,
      "hook": 4115,
      "answ": 4116,
      "comedic": 4117,
      "leader": 4118,
      "sentiment": 4119,
      "humans": 4120,
      "spectac": 4121,
      "gorgeous": 4122,
      "Hart": 4123,
      "Sil": 4124,
      "wanna": 4125,
      "resol": 4126,
      "asing": 4127,
      "bell": 4128,
      "terribly": 4129,
      "heroine": 4130,
      "engaging": 4131,
      "includes": 4132,
      "yeah": 4133,
      "dimens": 4134,
      "70s": 4135,
      "Eli": 4136,
      "bum": 4137,
      "bath": 4138,
      "cable": 4139,
      "lat": 4140,
      "ote": 4141,
      "ron": 4142,
      "ante": 4143,
      "scared": 4144,
      "prec": 4145,
      "realism": 4146,
      "dry": 4147,
      "Morgan": 4148,
      "pacing": 4149,
      "Santa": 4150,
      ".'": 4151,
      "Last": 4152,
      "Wow": 4153,
      "cup": 4154,
      "onde": 4155,
      "shallow": 4156,
      "Douglas": 4157,
      "HA": 4158,
      "rarely": 4159,
      "thous": 4160,
      "educ": 4161,
      "unexpected": 4162,
      "soap": 4163,
      "commentary": 4164,
      "hadn": 4165,
      "finding": 4166,
      "ALL": 4167,
      "pilot": 4168,
      "Ka": 4169,
      "None": 4170,
      "WH": 4171,
      "fly": 4172,
      "Andrew": 4173,
      "everybody": 4174,
      "cars": 4175,
      "calls": 4176,
      "THIS": 4177,
      "Anth": 4178,
      "Ford": 4179,
      "guns": 4180,
      "Harry": 4181,
      "Bak": 4182,
      "Jul": 4183,
      "inj": 4184,
      "ando": 4185,
      "thats": 4186,
      "sole": 4187,
      "boat": 4188,
      "partner": 4189,
      "buff": 4190,
      "desperate": 4191,
      ")<": 4192,
      "jer": 4193,
      "kn": 4194,
      "mob": 4195,
      "flesh": 4196,
      "technical": 4197,
      "superior": 4198,
      "Cass": 4199,
      "Gary": 4200,
      "park": 4201,
      "sis": 4202,
      "/>-": 4203,
      "Those": 4204,
      "Chinese": 4205,
      "grapher": 4206,
      "relev": 4207,
      "continue": 4208,
      "European": 4209,
      "brutal": 4210,
      "Free": 4211,
      "Lin": 4212,
      "ben": 4213,
      "gers": 4214,
      "irt": 4215,
      "shing": 4216,
      "depart": 4217,
      "tect": 4218,
      "anybody": 4219,
      "oppos": 4220,
      "ugs": 4221,
      "compare": 4222,
      "passed": 4223,
      "Space": 4224,
      "treated": 4225,
      "Harris": 4226,
      "coherent": 4227,
      "Anthony": 4228,
      "Jess": 4229,
      "Law": 4230,
      "Naz": 4231,
      "Tor": 4232,
      "fle": 4233,
      "tho": 4234,
      "imal": 4235,
      "epic": 4236,
      "oph": 4237,
      "hopes": 4238,
      "appealing": 4239,
      "saved": 4240,
      "Capt": 4241,
      "Sur": 4242,
      "tour": 4243,
      "explic": 4244,
      "ademy": 4245,
      "crappy": 4246,
      "fault": 4247,
      "gags": 4248,
      "Spanish": 4249,
      "VH": 4250,
      "hurt": 4251,
      "magn": 4252,
      "somebody": 4253,
      "ption": 4254,
      "interpret": 4255,
      "understanding": 4256,
      "block": 4257,
      "intellect": 4258,
      "streng": 4259,
      "Sor": 4260,
      "fare": 4261,
      "below": 4262,
      "sons": 4263,
      "related": 4264,
      "invent": 4265,
      "lacking": 4266,
      "Everyone": 4267,
      "BO": 4268,
      "iac": 4269,
      "ram": 4270,
      "erous": 4271,
      "ato": 4272,
      "chan": 4273,
      "debut": 4274,
      "fold": 4275,
      "Chan": 4276,
      "smile": 4277,
      "breaking": 4278,
      "constant": 4279,
      "competent": 4280,
      "Lar": 4281,
      "Patr": 4282,
      "bid": 4283,
      "bird": 4284,
      "cab": 4285,
      "junk": 4286,
      "nal": 4287,
      "paper": 4288,
      "edited": 4289,
      "acqu": 4290,
      "suicide": 4291,
      "proceed": 4292,
      "object": 4293,
      "chore": 4294,
      "saur": 4295,
      "Moon": 4296,
      "deeply": 4297,
      "hidden": 4298,
      "favourite": 4299,
      "Sinatra": 4300,
      "empty": 4301,
      "Far": 4302,
      "Kate": 4303,
      "Kevin": 4304,
      "Te": 4305,
      "thro": 4306,
      "sey": 4307,
      "fet": 4308,
      "wanting": 4309,
      "Anne": 4310,
      "spective": 4311,
      "murdered": 4312,
      "freak": 4313,
      "sympathetic": 4314,
      "radio": 4315,
      "floor": 4316,
      "Victoria": 4317,
      "Rod": 4318,
      "Und": 4319,
      "cash": 4320,
      "ache": 4321,
      "icr": 4322,
      "lied": 4323,
      "unknown": 4324,
      "erella": 4325,
      "prove": 4326,
      "players": 4327,
      "crash": 4328,
      "talents": 4329,
      "impact": 4330,
      "personally": 4331,
      "surprising": 4332,
      "Hallo": 4333,
      ");": 4334,
      "Dor": 4335,
      "HE": 4336,
      "RI": 4337,
      "games": 4338,
      "toward": 4339,
      "forts": 4340,
      "irk": 4341,
      "context": 4342,
      "Leon": 4343,
      ".\"<": 4344,
      "creating": 4345,
      "included": 4346,
      "Davis": 4347,
      "villains": 4348,
      "symbol": 4349,
      "Mike": 4350,
      "bow": 4351,
      "cul": 4352,
      "hall": 4353,
      "nomin": 4354,
      "tight": 4355,
      "church": 4356,
      "apes": 4357,
      "plaus": 4358,
      "inept": 4359,
      "grave": 4360,
      "memory": 4361,
      "shoo": 4362,
      "market": 4363,
      "Really": 4364,
      "pulled": 4365,
      "???": 4366,
      "Jimmy": 4367,
      "screaming": 4368,
      "martial": 4369,
      "Cinderella": 4370,
      "flying": 4371,
      "kin": 4372,
      "organ": 4373,
      "accompl": 4374,
      "deb": 4375,
      "extr": 4376,
      "ummer": 4377,
      "speed": 4378,
      "Moore": 4379,
      "spoof": 4380,
      "humanity": 4381,
      "advice": 4382,
      "holds": 4383,
      "sucked": 4384,
      "judge": 4385,
      "Austral": 4386,
      "dimensional": 4387,
      "Lind": 4388,
      "hack": 4389,
      "pin": 4390,
      "sake": 4391,
      "vit": 4392,
      "atory": 4393,
      "pless": 4394,
      "community": 4395,
      "warning": 4396,
      "twenty": 4397,
      "reviewers": 4398,
      "driving": 4399,
      "summer": 4400,
      "irritating": 4401,
      "independent": 4402,
      "Lam": 4403,
      "powers": 4404,
      "parody": 4405,
      "Anna": 4406,
      "circum": 4407,
      "amateurish": 4408,
      "theatre": 4409,
      "intriguing": 4410,
      "RO": 4411,
      "represent": 4412,
      "served": 4413,
      "painfully": 4414,
      "reminds": 4415,
      "soldier": 4416,
      "iloso": 4417,
      "dreadful": 4418,
      "gal": 4419,
      "udo": 4420,
      "atroc": 4421,
      "beth": 4422,
      "iring": 4423,
      "prep": 4424,
      "ears": 4425,
      "assist": 4426,
      "belong": 4427,
      "mature": 4428,
      "failure": 4429,
      "frequ": 4430,
      "grown": 4431,
      "struct": 4432,
      "concerned": 4433,
      "Eric": 4434,
      "Nancy": 4435,
      "aid": 4436,
      "fal": 4437,
      "hur": 4438,
      "vive": 4439,
      "zero": 4440,
      "shop": 4441,
      "blue": 4442,
      "unders": 4443,
      "Halloween": 4444,
      "Gl": 4445,
      "Ty": 4446,
      "hill": 4447,
      "pup": 4448,
      "send": 4449,
      "separ": 4450,
      "thern": 4451,
      "manipul": 4452,
      "wear": 4453,
      "Thank": 4454,
      "serve": 4455,
      "philoso": 4456,
      "visit": 4457,
      "Grant": 4458,
      "memories": 4459,
      "Freddy": 4460,
      "Brian": 4461,
      "Are": 4462,
      "Cas": 4463,
      "Rus": 4464,
      "Tony": 4465,
      "vin": 4466,
      "returns": 4467,
      "tears": 4468,
      "angle": 4469,
      "bigger": 4470,
      "kinda": 4471,
      "England": 4472,
      "stereotypes": 4473,
      "Street": 4474,
      "SPOILERS": 4475,
      "Hell": 4476,
      "ilst": 4477,
      "preh": 4478,
      "charis": 4479,
      "umbo": 4480,
      "ounds": 4481,
      "miser": 4482,
      "months": 4483,
      "frame": 4484,
      "Broad": 4485,
      "machine": 4486,
      "discovered": 4487,
      "travel": 4488,
      "revealed": 4489,
      "officer": 4490,
      "Pri": 4491,
      "hits": 4492,
      "rul": 4493,
      "incre": 4494,
      "itter": 4495,
      "brok": 4496,
      "nold": 4497,
      "lovers": 4498,
      "complic": 4499,
      "indic": 4500,
      "........": 4501,
      "cameo": 4502,
      "paced": 4503,
      "behavior": 4504,
      "green": 4505,
      "lud": 4506,
      "mary": 4507,
      "uitous": 4508,
      "inct": 4509,
      "repor": 4510,
      "seven": 4511,
      "iding": 4512,
      "consc": 4513,
      "affect": 4514,
      "desire": 4515,
      "Alan": 4516,
      "bloody": 4517,
      "types": 4518,
      "segment": 4519,
      "Russian": 4520,
      "YOU": 4521,
      "cil": 4522,
      "advert": 4523,
      "wash": 4524,
      "amer": 4525,
      "goof": 4526,
      "weight": 4527,
      "reets": 4528,
      "monsters": 4529,
      "frank": 4530,
      "regular": 4531,
      "humorous": 4532,
      "Kid": 4533,
      "lousy": 4534,
      "skills": 4535,
      "unusual": 4536,
      "abandon": 4537,
      "insane": 4538,
      "rence": 4539,
      "ivity": 4540,
      "breaks": 4541,
      "REAL": 4542,
      "mixed": 4543,
      "experiment": 4544,
      "wedding": 4545,
      "comparison": 4546,
      "Mir": 4547,
      "San": 4548,
      "loses": 4549,
      "therefore": 4550,
      "viewed": 4551,
      "opens": 4552,
      "courage": 4553,
      "media": 4554,
      "locations": 4555,
      "results": 4556,
      "embarrassing": 4557,
      "Karl": 4558,
      "VHS": 4559,
      "Again": 4560,
      "Lady": 4561,
      "Sal": 4562,
      "Sho": 4563,
      "Vin": 4564,
      "Viet": 4565,
      "uel": 4566,
      "reaction": 4567,
      "ching": 4568,
      "pers": 4569,
      "viv": 4570,
      "animal": 4571,
      "techni": 4572,
      "graphed": 4573,
      "existence": 4574,
      "Barbar": 4575,
      "costs": 4576,
      "satisfying": 4577,
      "lucky": 4578,
      "dangerous": 4579,
      "circumst": 4580,
      "16": 4581,
      "Up": 4582,
      "da": 4583,
      "eating": 4584,
      "nox": 4585,
      "weal": 4586,
      "arded": 4587,
      "offensive": 4588,
      "efforts": 4589,
      "Stone": 4590,
      "wonderfully": 4591,
      "glass": 4592,
      "allows": 4593,
      "!).": 4594,
      "Bon": 4595,
      "Jose": 4596,
      "Lord": 4597,
      "Nich": 4598,
      "Sto": 4599,
      "Wars": 4600,
      "bag": 4601,
      "formed": 4602,
      "handed": 4603,
      "tedious": 4604,
      "logic": 4605,
      "claims": 4606,
      "assume": 4607,
      "Pac": 4608,
      "Rose": 4609,
      "grew": 4610,
      "erts": 4611,
      "anch": 4612,
      "ambit": 4613,
      "ift": 4614,
      "distr": 4615,
      "Andy": 4616,
      "curious": 4617,
      "contrived": 4618,
      "Cine": 4619,
      "Mer": 4620,
      "Pat": 4621,
      "Ry": 4622,
      "Tru": 4623,
      "mate": 4624,
      "site": 4625,
      "received": 4626,
      "account": 4627,
      "icts": 4628,
      "forces": 4629,
      "endless": 4630,
      "ette": 4631,
      "strict": 4632,
      "singer": 4633,
      "Clark": 4634,
      "Jackie": 4635,
      "expert": 4636,
      "revolution": 4637,
      "intentionally": 4638,
      "App": 4639,
      "Plan": 4640,
      "nation": 4641,
      "isa": 4642,
      "associ": 4643,
      "---": 4644,
      "built": 4645,
      "corny": 4646,
      "THAT": 4647,
      "fortunate": 4648,
      "covered": 4649,
      "ONE": 4650,
      "contribut": 4651,
      "Thomas": 4652,
      "gratuitous": 4653,
      "princi": 4654,
      "cis": 4655,
      "nia": 4656,
      "erotic": 4657,
      "asking": 4658,
      "unable": 4659,
      "sport": 4660,
      "lower": 4661,
      "owner": 4662,
      "foreign": 4663,
      "Albert": 4664,
      "tribut": 4665,
      "produce": 4666,
      "court": 4667,
      "ruined": 4668,
      "nicely": 4669,
      "Donald": 4670,
      "Queen": 4671,
      "Bud": 4672,
      "Brown": 4673,
      "Dol": 4674,
      "Hun": 4675,
      "cro": 4676,
      "vul": 4677,
      "anal": 4678,
      "atives": 4679,
      "scr": 4680,
      "blonde": 4681,
      "mini": 4682,
      "originally": 4683,
      "Asian": 4684,
      "excited": 4685,
      "marry": 4686,
      "Before": 4687,
      "keeping": 4688,
      "satire": 4689,
      "finale": 4690,
      "growing": 4691,
      "religion": 4692,
      "target": 4693,
      "Sadly": 4694,
      "Fer": 4695,
      "Kill": 4696,
      "Much": 4697,
      "UT": 4698,
      "ka": 4699,
      "/>*": 4700,
      "deals": 4701,
      "sche": 4702,
      "usive": 4703,
      "specially": 4704,
      "corpor": 4705,
      "Lewis": 4706,
      "continues": 4707,
      "insult": 4708,
      "ladies": 4709,
      "comfortable": 4710,
      "Cast": 4711,
      "Wr": 4712,
      "ators": 4713,
      "altern": 4714,
      "ulous": 4715,
      "compreh": 4716,
      "versal": 4717,
      "insight": 4718,
      "relief": 4719,
      "apping": 4720,
      "executed": 4721,
      "delivered": 4722,
      "references": 4723,
      "Im": 4724,
      "ctr": 4725,
      "fict": 4726,
      "gross": 4727,
      "gonna": 4728,
      "thod": 4729,
      "shr": 4730,
      "proved": 4731,
      "Anderson": 4732,
      "corn": 4733,
      "anned": 4734,
      "dressed": 4735,
      "featuring": 4736,
      "opposite": 4737,
      "Gene": 4738,
      "Gener": 4739,
      "Washing": 4740,
      "anced": 4741,
      "brid": 4742,
      "starting": 4743,
      "arently": 4744,
      "numerous": 4745,
      "existent": 4746,
      "suffering": 4747,
      "demonstr": 4748,
      "substance": 4749,
      "contrast": 4750,
      "broken": 4751,
      "Washington": 4752,
      "17": 4753,
      "AA": 4754,
      "Carr": 4755,
      "SO": 4756,
      "gs": 4757,
      "gam": 4758,
      "theatr": 4759,
      "aining": 4760,
      "authen": 4761,
      "scenario": 4762,
      "overly": 4763,
      "stopped": 4764,
      "ANY": 4765,
      "majority": 4766,
      "treatment": 4767,
      "propag": 4768,
      "Bes": 4769,
      "Time": 4770,
      "ds": 4771,
      "emer": 4772,
      "pile": 4773,
      "witty": 4774,
      "asleep": 4775,
      "ita": 4776,
      "lip": 4777,
      "shine": 4778,
      "cares": 4779,
      "involves": 4780,
      "Does": 4781,
      "dealing": 4782,
      "statement": 4783,
      "Watching": 4784,
      "captured": 4785,
      "service": 4786,
      "festival": 4787,
      "ludicr": 4788,
      "Back": 4789,
      "Ha": 4790,
      "mented": 4791,
      "sheer": 4792,
      "print": 4793,
      "ached": 4794,
      "angers": 4795,
      "colour": 4796,
      "convent": 4797,
      "study": 4798,
      "essentially": 4799,
      "Dian": 4800,
      "Tri": 4801,
      "ube": 4802,
      "unrealistic": 4803,
      "gosi": 4804,
      "agers": 4805,
      "stein": 4806,
      "entertained": 4807,
      "regret": 4808,
      "remembered": 4809,
      "Lugosi": 4810,
      "priest": 4811,
      "bringing": 4812,
      "disgusting": 4813,
      "vehicle": 4814,
      "Apparently": 4815,
      "Get": 4816,
      "Greg": 4817,
      "Tex": 4818,
      "bon": 4819,
      "bound": 4820,
      "pit": 4821,
      "saving": 4822,
      "tes": 4823,
      "envir": 4824,
      "format": 4825,
      "sher": 4826,
      "ender": 4827,
      "perspective": 4828,
      "anged": 4829,
      "hearted": 4830,
      "rifying": 4831,
      "Anyone": 4832,
      "semi": 4833,
      "Actually": 4834,
      "Parker": 4835,
      "Nichol": 4836,
      "25": 4837,
      "Baby": 4838,
      "Cur": 4839,
      "LI": 4840,
      "gie": 4841,
      "anic": 4842,
      "omen": 4843,
      "liber": 4844,
      "uninteresting": 4845,
      "pregn": 4846,
      "Brad": 4847,
      "stume": 4848,
      "normally": 4849,
      "facts": 4850,
      "blown": 4851,
      "flashbacks": 4852,
      "magnific": 4853,
      "Bourne": 4854,
      "Camp": 4855,
      "Matt": 4856,
      "Old": 4857,
      "ked": 4858,
      "wy": 4859,
      "anci": 4860,
      "tood": 4861,
      "ilies": 4862,
      "chair": 4863,
      "irm": 4864,
      "peace": 4865,
      "fection": 4866,
      "ifer": 4867,
      "udes": 4868,
      "evidence": 4869,
      "product": 4870,
      "porary": 4871,
      "walks": 4872,
      "learned": 4873,
      "necessarily": 4874,
      "ville": 4875,
      "psychological": 4876,
      "traditional": 4877,
      "genuinely": 4878,
      "technology": 4879,
      "Yeah": 4880,
      "Hall": 4881,
      "Jan": 4882,
      "ease": 4883,
      "reput": 4884,
      "veter": 4885,
      "alling": 4886,
      "poster": 4887,
      "sco": 4888,
      "spin": 4889,
      "clue": 4890,
      "higher": 4891,
      "THING": 4892,
      "reviewer": 4893,
      "ski": 4894,
      "promising": 4895,
      "rolling": 4896,
      "spoilers": 4897,
      "About": 4898,
      "dubbed": 4899,
      "understood": 4900,
      "authentic": 4901,
      "Dem": 4902,
      "fate": 4903,
      "slo": 4904,
      "incident": 4905,
      "stone": 4906,
      "secur": 4907,
      "forms": 4908,
      "torm": 4909,
      "mail": 4910,
      "horribly": 4911,
      "urns": 4912,
      "versions": 4913,
      "ignor": 4914,
      "paint": 4915,
      "identity": 4916,
      "skip": 4917,
      "Mrs": 4918,
      "connection": 4919,
      "Phil": 4920,
      "Oliver": 4921,
      "protagonist": 4922,
      "decision": 4923,
      "bodies": 4924,
      "Gordon": 4925,
      "Captain": 4926,
      "environ": 4927,
      "Def": 4928,
      "Hu": 4929,
      "MST": 4930,
      "Max": 4931,
      "Ret": 4932,
      "TER": 4933,
      "pity": 4934,
      "stated": 4935,
      "shar": 4936,
      "elled": 4937,
      "partic": 4938,
      "talks": 4939,
      "choose": 4940,
      "decade": 4941,
      "Being": 4942,
      "visuals": 4943,
      "discovers": 4944,
      "routine": 4945,
      "BI": 4946,
      "Cat": 4947,
      "End": 4948,
      "Had": 4949,
      "Sk": 4950,
      "Ted": 4951,
      "cel": 4952,
      "isher": 4953,
      "stum": 4954,
      "pot": 4955,
      "aka": 4956,
      "cohol": 4957,
      "sports": 4958,
      "Grand": 4959,
      "meeting": 4960,
      "practically": 4961,
      "Ali": 4962,
      "Caine": 4963,
      "Die": 4964,
      "Hon": 4965,
      "Mil": 4966,
      "Ul": 4967,
      "ric": 4968,
      "ration": 4969,
      "range": 4970,
      "ende": 4971,
      "supp": 4972,
      "shel": 4973,
      "relate": 4974,
      "excite": 4975,
      "refle": 4976,
      "naive": 4977,
      "figured": 4978,
      "harsh": 4979,
      "switch": 4980,
      "theaters": 4981,
      "idiot": 4982,
      "remotely": 4983,
      "relevant": 4984,
      "Sky": 4985,
      "rise": 4986,
      "rix": 4987,
      "blah": 4988,
      "rave": 4989,
      "speech": 4990,
      "sett": 4991,
      "capital": 4992,
      "holding": 4993,
      "suffer": 4994,
      "anagh": 4995,
      "continuity": 4996,
      "Wilson": 4997,
      "obsessed": 4998,
      "atrocious": 4999,
      "Broadway": 5000,
      "LD": 5001,
      "Long": 5002,
      "Page": 5003,
      "ador": 5004,
      "neck": 5005,
      "umps": 5006,
      "focused": 5007,
      "serves": 5008,
      "Look": 5009,
      "rental": 5010,
      "experienced": 5011,
      "Anton": 5012,
      "craft": 5013,
      "Ak": 5014,
      "Full": 5015,
      "Satur": 5016,
      "Wat": 5017,
      "hint": 5018,
      "phe": 5019,
      "zo": 5020,
      "stit": 5021,
      "seat": 5022,
      "mates": 5023,
      "believes": 5024,
      "sequels": 5025,
      "ultimate": 5026,
      "Victor": 5027,
      "Come": 5028,
      "Fl": 5029,
      "Fair": 5030,
      "MA": 5031,
      "Rain": 5032,
      "whel": 5033,
      "oman": 5034,
      "achel": 5035,
      "owell": 5036,
      "convey": 5037,
      "lesson": 5038,
      "angles": 5039,
      "attitude": 5040,
      "fron": 5041,
      "corrupt": 5042,
      "caused": 5043,
      "descript": 5044,
      "Barry": 5045,
      "delightful": 5046,
      "Saturday": 5047,
      "Cage": 5048,
      "East": 5049,
      "zy": 5050,
      "bra": 5051,
      "rail": 5052,
      "chosen": 5053,
      "cutting": 5054,
      "distri": 5055,
      "morning": 5056,
      "faced": 5057,
      "village": 5058,
      "Germany": 5059,
      "accents": 5060,
      "largely": 5061,
      "combination": 5062,
      "described": 5063,
      "tape": 5064,
      "depressing": 5065,
      "false": 5066,
      "Ve": 5067,
      "fame": 5068,
      "vague": 5069,
      "ww": 5070,
      "ench": 5071,
      "determin": 5072,
      "feet": 5073,
      "oky": 5074,
      "survive": 5075,
      "Roberts": 5076,
      "Without": 5077,
      "inosaur": 5078,
      "Hope": 5079,
      "Plus": 5080,
      "Basically": 5081,
      "MOV": 5082,
      "African": 5083,
      "occasionally": 5084,
      "circumstances": 5085,
      "propaganda": 5086,
      "lake": 5087,
      "udi": 5088,
      "vies": 5089,
      "wid": 5090,
      "hearing": 5091,
      "conc": 5092,
      "conce": 5093,
      "Through": 5094,
      "hyster": 5095,
      "Marie": 5096,
      "fairy": 5097,
      "promise": 5098,
      "convinced": 5099,
      "Academy": 5100,
      "Hitch": 5101,
      "Kim": 5102,
      "Ob": 5103,
      "Sa": 5104,
      "glo": 5105,
      "gard": 5106,
      "gree": 5107,
      "ws": 5108,
      "inch": 5109,
      "alcohol": 5110,
      "heav": 5111,
      "ading": 5112,
      "forth": 5113,
      "riff": 5114,
      "scale": 5115,
      "costume": 5116,
      "porno": 5117,
      "syn": 5118,
      "transl": 5119,
      "vampires": 5120,
      "Francis": 5121,
      "imaginative": 5122,
      "category": 5123,
      "ancient": 5124,
      "Evil": 5125,
      "Jen": 5126,
      "Sat": 5127,
      "UK": 5128,
      "athan": 5129,
      "fing": 5130,
      "nine": 5131,
      "rain": 5132,
      "vac": 5133,
      "los": 5134,
      "ament": 5135,
      "boo": 5136,
      "whenever": 5137,
      "highlight": 5138,
      "handled": 5139,
      "ruin": 5140,
      "generation": 5141,
      "cruel": 5142,
      "emotionally": 5143,
      "qualities": 5144,
      "rescue": 5145,
      "theatrical": 5146,
      "BS": 5147,
      "Dream": 5148,
      "LL": 5149,
      "Mol": 5150,
      "cant": 5151,
      "factor": 5152,
      "rant": 5153,
      "inte": 5154,
      "reun": 5155,
      "encounter": 5156,
      "section": 5157,
      "fee": 5158,
      "plor": 5159,
      "inevit": 5160,
      "ummy": 5161,
      "friendship": 5162,
      "finest": 5163,
      "lesbian": 5164,
      "vote": 5165,
      "involve": 5166,
      "Island": 5167,
      "Mean": 5168,
      "expression": 5169,
      "Simon": 5170,
      "hanging": 5171,
      "initial": 5172,
      "During": 5173,
      "Frid": 5174,
      "Killer": 5175,
      "fix": 5176,
      "sou": 5177,
      "cha": 5178,
      "cris": 5179,
      "Beaut": 5180,
      "Someone": 5181,
      "convince": 5182,
      "mistakes": 5183,
      "Murphy": 5184,
      "accidentally": 5185,
      "virtually": 5186,
      "Zombie": 5187,
      "IGH": 5188,
      "spectacular": 5189,
      "latest": 5190,
      "strength": 5191,
      "Vietnam": 5192,
      "Sol": 5193,
      "gri": 5194,
      "lone": 5195,
      "ads": 5196,
      "unconvincing": 5197,
      "unfold": 5198,
      "decl": 5199,
      "marvel": 5200,
      "creates": 5201,
      "teenager": 5202,
      "exploitation": 5203,
      "shocked": 5204,
      "seasons": 5205,
      "execution": 5206,
      "challeng": 5207,
      "intellectual": 5208,
      "security": 5209,
      "CI": 5210,
      "Cra": 5211,
      "Dun": 5212,
      "vs": 5213,
      "brick": 5214,
      "chose": 5215,
      "Inter": 5216,
      "commit": 5217,
      "driven": 5218,
      "credible": 5219,
      "North": 5220,
      "besides": 5221,
      "thusi": 5222,
      "Canadian": 5223,
      "frankly": 5224,
      "Besides": 5225,
      "Mid": 5226,
      "lum": 5227,
      "skill": 5228,
      "heaven": 5229,
      "chy": 5230,
      "icious": 5231,
      "maid": 5232,
      "exagger": 5233,
      "makeup": 5234,
      "matters": 5235,
      "Atl": 5236,
      "France": 5237,
      "portrays": 5238,
      "sorts": 5239,
      "walked": 5240,
      "ilogy": 5241,
      "sharp": 5242,
      "1st": 5243,
      "Kore": 5244,
      "Wid": 5245,
      "link": 5246,
      "femin": 5247,
      "illing": 5248,
      "trade": 5249,
      "ideo": 5250,
      "display": 5251,
      "thoughts": 5252,
      "excess": 5253,
      "Dean": 5254,
      "voices": 5255,
      "deaths": 5256,
      "portraying": 5257,
      "suffers": 5258,
      "Enter": 5259,
      "faithful": 5260,
      "multiple": 5261,
      "Trek": 5262,
      "conscious": 5263,
      "Barbara": 5264,
      "ludicrous": 5265,
      "Kong": 5266,
      "Master": 5267,
      "Take": 5268,
      "nail": 5269,
      "ued": 5270,
      "strip": 5271,
      "icate": 5272,
      "whilst": 5273,
      "uted": 5274,
      "losing": 5275,
      "aming": 5276,
      "amor": 5277,
      "cring": 5278,
      "function": 5279,
      "center": 5280,
      "steals": 5281,
      "Movies": 5282,
      "clichéd": 5283,
      "claimed": 5284,
      "connected": 5285,
      "source": 5286,
      "fictional": 5287,
      "Power": 5288,
      "Scre": 5289,
      "sword": 5290,
      "enthusi": 5291,
      "sea": 5292,
      "Three": 5293,
      "bore": 5294,
      "funn": 5295,
      "believed": 5296,
      "families": 5297,
      "Branagh": 5298,
      "classics": 5299,
      "directly": 5300,
      "onda": 5301,
      "Boy": 5302,
      "politics": 5303,
      "ENT": 5304,
      "liners": 5305,
      "bothered": 5306,
      "Under": 5307,
      "excitement": 5308,
      "Curt": 5309,
      "Fre": 5310,
      "Wonder": 5311,
      "Your": 5312,
      "gor": 5313,
      "rival": 5314,
      "degree": 5315,
      "olic": 5316,
      "teens": 5317,
      "pted": 5318,
      "hole": 5319,
      "coln": 5320,
      "creatures": 5321,
      "curi": 5322,
      "Sometimes": 5323,
      "cases": 5324,
      "designed": 5325,
      "crowd": 5326,
      "Lincoln": 5327,
      "plausible": 5328,
      "particip": 5329,
      "Bu": 5330,
      "CK": 5331,
      "bat": 5332,
      "bond": 5333,
      "dirty": 5334,
      "eld": 5335,
      "sne": 5336,
      "oting": 5337,
      "obnox": 5338,
      "assass": 5339,
      "Child": 5340,
      "contest": 5341,
      "bitter": 5342,
      "unlikely": 5343,
      "Bond": 5344,
      "Drew": 5345,
      "Sco": 5346,
      "buster": 5347,
      "sink": 5348,
      "rep": 5349,
      "mock": 5350,
      "idio": 5351,
      "unfortunate": 5352,
      "agal": 5353,
      "downright": 5354,
      "ashamed": 5355,
      "warned": 5356,
      "headed": 5357,
      "strongly": 5358,
      "Edward": 5359,
      "critical": 5360,
      "cartoons": 5361,
      "private": 5362,
      "Freeman": 5363,
      "Texas": 5364,
      "Cru": 5365,
      "Fest": 5366,
      "bility": 5367,
      "revel": 5368,
      "chased": 5369,
      "abuse": 5370,
      "quir": 5371,
      "guar": 5372,
      "udd": 5373,
      "truck": 5374,
      "Leg": 5375,
      "passing": 5376,
      "learns": 5377,
      "Walter": 5378,
      "dollars": 5379,
      "contemporary": 5380,
      "Joseph": 5381,
      "):": 5382,
      "Jenn": 5383,
      "Later": 5384,
      "MAN": 5385,
      "Our": 5386,
      "bin": 5387,
      "jail": 5388,
      "mous": 5389,
      "sno": 5390,
      "inher": 5391,
      "streets": 5392,
      "shut": 5393,
      "icked": 5394,
      "crude": 5395,
      "proud": 5396,
      "surprises": 5397,
      "confess": 5398,
      "speaks": 5399,
      "Columbo": 5400,
      "spoiler": 5401,
      "Bettie": 5402,
      "baseball": 5403,
      "required": 5404,
      "depicted": 5405,
      "dozen": 5406,
      "Eliza": 5407,
      "Mont": 5408,
      "Off": 5409,
      "fish": 5410,
      "gro": 5411,
      "gles": 5412,
      "lberg": 5413,
      "tire": 5414,
      "wrest": 5415,
      "recall": 5416,
      "toler": 5417,
      "according": 5418,
      "guil": 5419,
      "crying": 5420,
      "destru": 5421,
      "icted": 5422,
      "poses": 5423,
      "sitcom": 5424,
      "electr": 5425,
      "levels": 5426,
      "changing": 5427,
      "Comm": 5428,
      "previously": 5429,
      "controvers": 5430,
      "demand": 5431,
      "Patrick": 5432,
      "reputation": 5433,
      "Cus": 5434,
      "Vampire": 5435,
      "moon": 5436,
      "acle": 5437,
      "une": 5438,
      "aret": 5439,
      "trap": 5440,
      "umph": 5441,
      "evening": 5442,
      "blat": 5443,
      "Hey": 5444,
      "ighter": 5445,
      "Alice": 5446,
      "stolen": 5447,
      "mainstream": 5448,
      "prior": 5449,
      "admir": 5450,
      "resist": 5451,
      "Seriously": 5452,
      "Add": 5453,
      "occasional": 5454,
      "improve": 5455,
      "Music": 5456,
      "habit": 5457,
      "Jay": 5458,
      "Ned": 5459,
      "Niro": 5460,
      "Wall": 5461,
      "hip": 5462,
      "wand": 5463,
      "rece": 5464,
      "reminis": 5465,
      "arms": 5466,
      "maint": 5467,
      "agre": 5468,
      "underrated": 5469,
      "buying": 5470,
      "handsome": 5471,
      "lands": 5472,
      "Roger": 5473,
      "gangster": 5474,
      "steps": 5475,
      "device": 5476,
      "Susan": 5477,
      "Sorry": 5478,
      "nominated": 5479,
      "Friday": 5480,
      "\"),": 5481,
      "Air": 5482,
      "Have": 5483,
      "Ku": 5484,
      "dinosaur": 5485,
      "eer": 5486,
      "hes": 5487,
      "oth": 5488,
      "tro": 5489,
      "wil": 5490,
      "ara": 5491,
      "werewolf": 5492,
      "spite": 5493,
      "minds": 5494,
      "Reed": 5495,
      "Carol": 5496,
      "push": 5497,
      "teenagers": 5498,
      "freed": 5499,
      "stayed": 5500,
      "touches": 5501,
      "document": 5502,
      "struggling": 5503,
      "Cent": 5504,
      "Vo": 5505,
      "gather": 5506,
      "rat": 5507,
      "till": 5508,
      "protect": 5509,
      "preach": 5510,
      "indul": 5511,
      "adding": 5512,
      "voc": 5513,
      "Myster": 5514,
      "Beat": 5515,
      "Holmes": 5516,
      "fortune": 5517,
      "refre": 5518,
      "ggy": 5519,
      "appearing": 5520,
      "Blue": 5521,
      "structure": 5522,
      "magnificent": 5523,
      "Cath": 5524,
      "Fay": 5525,
      "Lion": 5526,
      "NY": 5527,
      "aust": 5528,
      "gate": 5529,
      "ium": 5530,
      "pic": 5531,
      "spre": 5532,
      "wound": 5533,
      "heck": 5534,
      "outrage": 5535,
      "ella": 5536,
      "spends": 5537,
      "versity": 5538,
      "originality": 5539,
      "training": 5540,
      "Otherwise": 5541,
      "mildly": 5542,
      "Brothers": 5543,
      "MST3": 5544,
      "Hitchcock": 5545,
      ",'": 5546,
      "Del": 5547,
      "bab": 5548,
      "batt": 5549,
      "phis": 5550,
      "thed": 5551,
      "iled": 5552,
      "brave": 5553,
      "river": 5554,
      "plans": 5555,
      "price": 5556,
      "----": 5557,
      "friendly": 5558,
      "caring": 5559,
      "Howard": 5560,
      "closer": 5561,
      "Army": 5562,
      "Something": 5563,
      "brilliantly": 5564,
      "naturally": 5565,
      "pati": 5566,
      "Roman": 5567,
      "integr": 5568,
      "Widmark": 5569,
      "Festival": 5570,
      "AW": 5571,
      "Care": 5572,
      "Cap": 5573,
      "Hy": 5574,
      "Hay": 5575,
      "gig": 5576,
      "lust": 5577,
      "snow": 5578,
      "anity": 5579,
      "ripped": 5580,
      "cann": 5581,
      "guard": 5582,
      "surface": 5583,
      "believ": 5584,
      "worthwhile": 5585,
      "sounded": 5586,
      "folk": 5587,
      "renting": 5588,
      "paying": 5589,
      "VERY": 5590,
      "Play": 5591,
      "racist": 5592,
      "sensitive": 5593,
      "recognize": 5594,
      "weeks": 5595,
      "relatively": 5596,
      "Tit": 5597,
      "fed": 5598,
      "xual": 5599,
      "outing": 5600,
      "esty": 5601,
      "prevent": 5602,
      "aken": 5603,
      "grab": 5604,
      "offered": 5605,
      "civil": 5606,
      "spector": 5607,
      "surreal": 5608,
      "ashed": 5609,
      "landsc": 5610,
      "buddy": 5611,
      "murderer": 5612,
      "Cole": 5613,
      "severe": 5614,
      "clips": 5615,
      "throws": 5616,
      "football": 5617,
      "lawyer": 5618,
      "narration": 5619,
      "Acting": 5620,
      "essential": 5621,
      "mirror": 5622,
      "Michel": 5623,
      "frightening": 5624,
      "Ryan": 5625,
      "Defin": 5626,
      "Jennifer": 5627,
      "99": 5628,
      "Cle": 5629,
      "Cons": 5630,
      "Fu": 5631,
      "pitch": 5632,
      "error": 5633,
      "arrest": 5634,
      "omed": 5635,
      "chuck": 5636,
      "chief": 5637,
      "otes": 5638,
      "crush": 5639,
      "killers": 5640,
      "cheese": 5641,
      "ibal": 5642,
      "!!!!!!!!": 5643,
      "tta": 5644,
      "pregnant": 5645,
      "MOVIE": 5646,
      "obnoxious": 5647,
      "!),": 5648,
      "Fam": 5649,
      "Hop": 5650,
      "Vir": 5651,
      "nut": 5652,
      "wreck": 5653,
      "spell": 5654,
      "overwhel": 5655,
      "spects": 5656,
      "Channel": 5657,
      "osexual": 5658,
      "starred": 5659,
      "handle": 5660,
      "supernatural": 5661,
      "facial": 5662,
      "legal": 5663,
      "provided": 5664,
      "torious": 5665,
      "chester": 5666,
      "Louis": 5667,
      "Wayne": 5668,
      "slapstick": 5669,
      "emphas": 5670,
      "Especially": 5671,
      "Mill": 5672,
      "NE": 5673,
      "Person": 5674,
      "bust": 5675,
      "vy": 5676,
      "icated": 5677,
      "ader": 5678,
      "mentally": 5679,
      "obsc": 5680,
      "gia": 5681,
      "evident": 5682,
      "castle": 5683,
      "jobs": 5684,
      "spoken": 5685,
      "stupidity": 5686,
      "Gray": 5687,
      "Peck": 5688,
      "throwing": 5689,
      "explains": 5690,
      "appreciated": 5691,
      "repetit": 5692,
      "trem": 5693,
      "Raj": 5694,
      "sisters": 5695,
      "benef": 5696,
      "Russell": 5697,
      "funnier": 5698,
      "Ast": 5699,
      "Spr": 5700,
      "domin": 5701,
      "tast": 5702,
      "zan": 5703,
      "iling": 5704,
      "kets": 5705,
      "outs": 5706,
      "shall": 5707,
      "neat": 5708,
      "trilogy": 5709,
      "ideal": 5710,
      "calling": 5711,
      "sides": 5712,
      "Seagal": 5713,
      "retarded": 5714,
      "experiences": 5715,
      "honor": 5716,
      "figures": 5717,
      "movement": 5718,
      "swim": 5719,
      "embarrassed": 5720,
      "60s": 5721,
      "BBC": 5722,
      "Cub": 5723,
      "Fun": 5724,
      "Lat": 5725,
      "Next": 5726,
      "hired": 5727,
      "penter": 5728,
      "keys": 5729,
      "ros": 5730,
      "sophis": 5731,
      "dude": 5732,
      "States": 5733,
      "committed": 5734,
      "Brando": 5735,
      "painting": 5736,
      "pursu": 5737,
      "hopeless": 5738,
      "massive": 5739,
      "intentional": 5740,
      "Jessica": 5741,
      "sheriff": 5742,
      "Meanwhile": 5743,
      "Ash": 5744,
      "GM": 5745,
      "Nat": 5746,
      "Nol": 5747,
      "Spie": 5748,
      "ez": 5749,
      "lazy": 5750,
      "mic": 5751,
      "nude": 5752,
      "lear": 5753,
      "ada": 5754,
      "shark": 5755,
      "method": 5756,
      "dign": 5757,
      "borrow": 5758,
      "halfway": 5759,
      "Grade": 5760,
      "Poor": 5761,
      "consistent": 5762,
      "sympathy": 5763,
      "significant": 5764,
      "BAD": 5765,
      "Da": 5766,
      "Dere": 5767,
      "KE": 5768,
      "Pu": 5769,
      "TA": 5770,
      "page": 5771,
      "yard": 5772,
      "noon": 5773,
      "iday": 5774,
      "wasting": 5775,
      "libr": 5776,
      "trapped": 5777,
      "explor": 5778,
      "eston": 5779,
      "concent": 5780,
      "realizes": 5781,
      "everywhere": 5782,
      "visually": 5783,
      "kinds": 5784,
      "camer": 5785,
      "magical": 5786,
      "ILL": 5787,
      "combined": 5788,
      "sedu": 5789,
      "Police": 5790,
      "Stanley": 5791,
      "Sunday": 5792,
      "escapes": 5793,
      "destroyed": 5794,
      "influence": 5795,
      "prepared": 5796,
      "reporter": 5797,
      "Karloff": 5798,
      "sophistic": 5799,
      "Ama": 5800,
      "Ba": 5801,
      "Devil": 5802,
      "GO": 5803,
      "Hugh": 5804,
      "Pict": 5805,
      "Son": 5806,
      "Whe": 5807,
      "jack": 5808,
      "iner": 5809,
      "isol": 5810,
      "stunt": 5811,
      "forgot": 5812,
      "adequ": 5813,
      "stomach": 5814,
      "glor": 5815,
      "featured": 5816,
      "listening": 5817,
      "delivery": 5818,
      "anticip": 5819,
      ".)<": 5820,
      "USA": 5821,
      "install": 5822,
      "campy": 5823,
      "introduction": 5824,
      "regarding": 5825,
      "properly": 5826,
      "Burton": 5827,
      "Sarah": 5828,
      "legendary": 5829,
      "haunted": 5830,
      "loyal": 5831,
      "\"?": 5832,
      "Ap": 5833,
      "Hill": 5834,
      "cand": 5835,
      "fab": 5836,
      "theory": 5837,
      "stab": 5838,
      "lean": 5839,
      "scares": 5840,
      "teeth": 5841,
      "upt": 5842,
      "gues": 5843,
      "spark": 5844,
      "interview": 5845,
      "United": 5846,
      "Lost": 5847,
      "summary": 5848,
      "rolled": 5849,
      "harm": 5850,
      "connect": 5851,
      "stereotypical": 5852,
      "rules": 5853,
      "heavily": 5854,
      "\").": 5855,
      "Each": 5856,
      "Gre": 5857,
      "Give": 5858,
      "Produ": 5859,
      "isto": 5860,
      "redu": 5861,
      "alle": 5862,
      "term": 5863,
      "comical": 5864,
      "urban": 5865,
      "plant": 5866,
      "disbelief": 5867,
      "blance": 5868,
      "1950": 5869,
      "mont": 5870,
      "minded": 5871,
      "mindless": 5872,
      "jeal": 5873,
      "address": 5874,
      "closing": 5875,
      "basis": 5876,
      "advant": 5877,
      "amazed": 5878,
      "factory": 5879,
      "India": 5880,
      "captures": 5881,
      "weekend": 5882,
      "insulting": 5883,
      "Hardy": 5884,
      "MST3K": 5885,
      "Definitely": 5886,
      "Derek": 5887,
      "Dy": 5888,
      "Gand": 5889,
      "Ow": 5890,
      "PG": 5891,
      "Swed": 5892,
      "native": 5893,
      "tain": 5894,
      "intr": 5895,
      "instru": 5896,
      "report": 5897,
      "alike": 5898,
      "itiz": 5899,
      "stair": 5900,
      "aded": 5901,
      "nostal": 5902,
      "uncle": 5903,
      "notch": 5904,
      "pool": 5905,
      "nett": 5906,
      "awards": 5907,
      "horrend": 5908,
      "Heaven": 5909,
      "Character": 5910,
      "laid": 5911,
      "atherine": 5912,
      "pulls": 5913,
      "desperately": 5914,
      "turkey": 5915,
      "welcome": 5916,
      "Boll": 5917,
      "Andrews": 5918,
      "Elizabeth": 5919,
      "Amaz": 5920,
      "SS": 5921,
      "nom": 5922,
      "tons": 5923,
      "aces": 5924,
      "sham": 5925,
      "torn": 5926,
      "metal": 5927,
      "prostit": 5928,
      "Whatever": 5929,
      "international": 5930,
      "Chuck": 5931,
      "performed": 5932,
      "screenwriter": 5933,
      "Soon": 5934,
      "franch": 5935,
      "Rogers": 5936,
      "Shar": 5937,
      "successfully": 5938,
      "2000": 5939,
      "effectively": 5940,
      "alifor": 5941,
      "description": 5942,
      "freedom": 5943,
      "Spielberg": 5944,
      "Actor": 5945,
      "Ca": 5946,
      "Gun": 5947,
      "Ghost": 5948,
      "Sir": 5949,
      "UR": 5950,
      "bone": 5951,
      "pher": 5952,
      "tong": 5953,
      "yl": 5954,
      "erc": 5955,
      "alright": 5956,
      "amie": 5957,
      "oder": 5958,
      "poign": 5959,
      "lowing": 5960,
      "warn": 5961,
      "titled": 5962,
      "stays": 5963,
      "locked": 5964,
      "status": 5965,
      "General": 5966,
      "guilty": 5967,
      "FBI": 5968,
      "Home": 5969,
      "ION": 5970,
      "fond": 5971,
      "kh": 5972,
      "ari": 5973,
      "adap": 5974,
      "feed": 5975,
      "seek": 5976,
      "earn": 5977,
      "raised": 5978,
      "imagery": 5979,
      "Carl": 5980,
      "Brooks": 5981,
      "burst": 5982,
      "Woody": 5983,
      "department": 5984,
      "Australian": 5985,
      "abandoned": 5986,
      "veteran": 5987,
      "Cusack": 5988,
      "Cal": 5989,
      "Len": 5990,
      "PLE": 5991,
      "kins": 5992,
      "nar": 5993,
      "py": 5994,
      "task": 5995,
      "brow": 5996,
      "/>(": 5997,
      "plastic": 5998,
      "proof": 5999,
      "ums": 6000,
      "aki": 6001,
      "assign": 6002,
      "struck": 6003,
      "subtitles": 6004,
      "screening": 6005,
      "pressed": 6006,
      "ibilities": 6007,
      "twisted": 6008,
      "purely": 6009,
      "sleeping": 6010,
      "Hamlet": 6011,
      "President": 6012,
      "bearable": 6013,
      "idiotic": 6014,
      "weapons": 6015,
      "Nazi": 6016,
      "wyck": 6017,
      "Return": 6018,
      "alifornia": 6019,
      "24": 6020,
      "Burt": 6021,
      "Candy": 6022,
      "Ever": 6023,
      "Fri": 6024,
      "Kirk": 6025,
      "MGM": 6026,
      "Sw": 6027,
      "Witch": 6028,
      "WOR": 6029,
      "tha": 6030,
      "ani": 6031,
      "rebel": 6032,
      "ieve": 6033,
      "mechan": 6034,
      "conspir": 6035,
      "worry": 6036,
      "miscast": 6037,
      "mono": 6038,
      "Brid": 6039,
      "viously": 6040,
      "decades": 6041,
      "mask": 6042,
      "Arnold": 6043,
      "causes": 6044,
      "winner": 6045,
      "cultural": 6046,
      "touched": 6047,
      "picks": 6048,
      "1980": 6049,
      "suspenseful": 6050,
      "attacked": 6051,
      "Laura": 6052,
      "criminals": 6053,
      "praise": 6054,
      "Julie": 6055,
      "extras": 6056,
      "goofy": 6057,
      "Bre": 6058,
      "BLE": 6059,
      "Daw": 6060,
      "Eve": 6061,
      "Pitt": 6062,
      "Rol": 6063,
      "Rick": 6064,
      "Such": 6065,
      "Ur": 6066,
      "cous": 6067,
      "cure": 6068,
      "Think": 6069,
      "afternoon": 6070,
      "caric": 6071,
      "command": 6072,
      "dramat": 6073,
      "Unlike": 6074,
      "Unless": 6075,
      "Cooper": 6076,
      "Jewish": 6077,
      "tradition": 6078,
      "neighborhood": 6079,
      "Gi": 6080,
      "Pret": 6081,
      "Ritter": 6082,
      "Wes": 6083,
      "cence": 6084,
      "cave": 6085,
      "enge": 6086,
      "orter": 6087,
      "sele": 6088,
      "acing": 6089,
      "access": 6090,
      "iche": 6091,
      "pets": 6092,
      "upset": 6093,
      "indie": 6094,
      "disgu": 6095,
      "prime": 6096,
      "comedian": 6097,
      "Ros": 6098,
      "driver": 6099,
      "confusion": 6100,
      "attempting": 6101,
      "dynam": 6102,
      "True": 6103,
      "explos": 6104,
      "aliens": 6105,
      "*****": 6106,
      "Stanwyck": 6107,
      "drinking": 6108,
      "conversation": 6109,
      "complicated": 6110,
      "Vincent": 6111,
      "Vi": 6112,
      "Wend": 6113,
      "jumps": 6114,
      "tiny": 6115,
      "orn": 6116,
      "chasing": 6117,
      "utch": 6118,
      "scrip": 6119,
      "trite": 6120,
      "Things": 6121,
      "...\"": 6122,
      "angel": 6123,
      "choices": 6124,
      "simpl": 6125,
      "Bog": 6126,
      "examples": 6127,
      "Carpenter": 6128,
      "queen": 6129,
      "listed": 6130,
      "occup": 6131,
      "deliber": 6132,
      "Shaw": 6133,
      "destro": 6134,
      "Irish": 6135,
      "gentle": 6136,
      "Africa": 6137,
      "Bollywood": 6138,
      "melodrama": 6139,
      "Ultim": 6140,
      "Braz": 6141,
      "Griff": 6142,
      "PE": 6143,
      "Tal": 6144,
      "ners": 6145,
      "vast": 6146,
      "ware": 6147,
      "replaced": 6148,
      "imit": 6149,
      "rig": 6150,
      "devil": 6151,
      "exerc": 6152,
      "pled": 6153,
      "indu": 6154,
      "oblig": 6155,
      "minimal": 6156,
      "join": 6157,
      "forest": 6158,
      "reek": 6159,
      "extent": 6160,
      "Ree": 6161,
      "announ": 6162,
      "credibility": 6163,
      "miles": 6164,
      "adventures": 6165,
      "ghosts": 6166,
      "criticism": 6167,
      "Atlant": 6168,
      "Mystery": 6169,
      "tremend": 6170,
      "California": 6171,
      "Ten": 6172,
      "aur": 6173,
      "rank": 6174,
      "intim": 6175,
      "incoherent": 6176,
      "ensu": 6177,
      "upper": 6178,
      "posing": 6179,
      "solve": 6180,
      "condition": 6181,
      "Lucas": 6182,
      "presentation": 6183,
      "Blair": 6184,
      "virus": 6185,
      "enemy": 6186,
      "balance": 6187,
      "arrives": 6188,
      "Mexican": 6189,
      "Universal": 6190,
      "birds": 6191,
      "REALLY": 6192,
      "caricature": 6193,
      "45": 6194,
      "Der": 6195,
      "Miller": 6196,
      "Sn": 6197,
      "Sup": 6198,
      "Simp": 6199,
      "Were": 6200,
      "gic": 6201,
      "kiss": 6202,
      "lord": 6203,
      "eness": 6204,
      "icia": 6205,
      "nose": 6206,
      "rights": 6207,
      "exists": 6208,
      "myst": 6209,
      "shell": 6210,
      "assion": 6211,
      "Art": 6212,
      "cyn": 6213,
      "Isra": 6214,
      "variety": 6215,
      "risk": 6216,
      "settings": 6217,
      "boredom": 6218,
      "reveals": 6219,
      "WWII": 6220,
      "environment": 6221,
      "Scoo": 6222,
      "refreshing": 6223,
      "Cam": 6224,
      "Fort": 6225,
      "Final": 6226,
      "IR": 6227,
      "Kurt": 6228,
      "Mann": 6229,
      "Nel": 6230,
      "hous": 6231,
      "raw": 6232,
      "usc": 6233,
      "west": 6234,
      "timing": 6235,
      "okie": 6236,
      "charge": 6237,
      "storytelling": 6238,
      "awa": 6239,
      "grues": 6240,
      "greater": 6241,
      "favorites": 6242,
      "Guy": 6243,
      "focuses": 6244,
      "metap": 6245,
      "interpretation": 6246,
      "distribut": 6247,
      "determined": 6248,
      "Virgin": 6249,
      "franchise": 6250,
      "Down": 6251,
      "Gen": 6252,
      "Lisa": 6253,
      "Sid": 6254,
      "ec": 6255,
      "fic": 6256,
      "nur": 6257,
      "tag": 6258,
      "alleg": 6259,
      "arrog": 6260,
      "betray": 6261,
      "beloved": 6262,
      "ental": 6263,
      "idly": 6264,
      "deeper": 6265,
      "plin": 6266,
      "plague": 6267,
      "conven": 6268,
      "quar": 6269,
      "craz": 6270,
      "carried": 6271,
      "phan": 6272,
      "logist": 6273,
      "Doctor": 6274,
      "novels": 6275,
      "Prince": 6276,
      "meaningful": 6277,
      "dollar": 6278,
      "captiv": 6279,
      "ignore": 6280,
      "Spoil": 6281,
      "Pacino": 6282,
      "guarante": 6283,
      "Astaire": 6284,
      "scripts": 6285,
      "Brazil": 6286,
      "Scooby": 6287,
      "?),": 6288,
      "Cann": 6289,
      "aired": 6290,
      "bie": 6291,
      "dump": 6292,
      "hh": 6293,
      "hr": 6294,
      "uncomfortable": 6295,
      "neth": 6296,
      "gritty": 6297,
      "interviews": 6298,
      "ensity": 6299,
      "joint": 6300,
      "enjoying": 6301,
      "vised": 6302,
      "helping": 6303,
      "Need": 6304,
      "productions": 6305,
      "marks": 6306,
      "universe": 6307,
      "dialogs": 6308,
      "dubbing": 6309,
      "Obviously": 6310,
      "Ball": 6311,
      "Kay": 6312,
      "Lake": 6313,
      "Min": 6314,
      "Nic": 6315,
      "National": 6316,
      "TR": 6317,
      "Tech": 6318,
      "Vis": 6319,
      "Wild": 6320,
      "bare": 6321,
      "stiff": 6322,
      "scars": 6323,
      "dol": 6324,
      "Along": 6325,
      "topic": 6326,
      "anime": 6327,
      "drives": 6328,
      "legs": 6329,
      "drops": 6330,
      "ennis": 6331,
      "Mexico": 6332,
      "sentimental": 6333,
      "IGHT": 6334,
      "gruesome": 6335,
      "IV": 6336,
      "Rep": 6337,
      "Rachel": 6338,
      "Sav": 6339,
      "Turn": 6340,
      "Win": 6341,
      "bull": 6342,
      "iatr": 6343,
      "ping": 6344,
      "ti": 6345,
      "zed": 6346,
      "inexplic": 6347,
      "icy": 6348,
      "ques": 6349,
      "raise": 6350,
      "tooth": 6351,
      "medical": 6352,
      "rule": 6353,
      "elev": 6354,
      "cinemato": 6355,
      "osity": 6356,
      "1970": 6357,
      "Matrix": 6358,
      "striking": 6359,
      "Julia": 6360,
      "carrying": 6361,
      "established": 6362,
      "answers": 6363,
      "assistant": 6364,
      "reminiscent": 6365,
      "learning": 6366,
      "Dennis": 6367,
      "Mother": 6368,
      "Navy": 6369,
      "UP": 6370,
      "Would": 6371,
      "bast": 6372,
      "cies": 6373,
      "ja": 6374,
      "useless": 6375,
      "wins": 6376,
      "err": 6377,
      "isms": 6378,
      "astr": 6379,
      "lem": 6380,
      "shay": 6381,
      "tear": 6382,
      "wears": 6383,
      "disagree": 6384,
      "triumph": 6385,
      "stops": 6386,
      "sequent": 6387,
      "colors": 6388,
      "opened": 6389,
      "drivel": 6390,
      "ratings": 6391,
      "innov": 6392,
      "consists": 6393,
      "Philli": 6394,
      "Probably": 6395,
      "dragged": 6396,
      "incere": 6397,
      "performers": 6398,
      "shoots": 6399,
      "Curtis": 6400,
      "Dawson": 6401,
      "Pretty": 6402,
      "Flor": 6403,
      "Falk": 6404,
      "SN": 6405,
      "Ti": 6406,
      "cere": 6407,
      "lit": 6408,
      "sket": 6409,
      "wave": 6410,
      "isand": 6411,
      "attr": 6412,
      "toil": 6413,
      "shorts": 6414,
      "tors": 6415,
      "shower": 6416,
      "creation": 6417,
      "Doo": 6418,
      "refuses": 6419,
      "deadly": 6420,
      "develo": 6421,
      "Claire": 6422,
      "sleazy": 6423,
      "profound": 6424,
      "sticks": 6425,
      "ungle": 6426,
      "III": 6427,
      "suggests": 6428,
      "Check": 6429,
      "packed": 6430,
      "succeeds": 6431,
      "expensive": 6432,
      "inspiring": 6433,
      "haunting": 6434,
      "knife": 6435,
      "Larry": 6436,
      "widow": 6437,
      "Kubrick": 6438,
      "Family": 6439,
      "fabulous": 6440,
      "Az": 6441,
      "Ell": 6442,
      "Has": 6443,
      "Heston": 6444,
      "Kat": 6445,
      "Scor": 6446,
      "dish": 6447,
      "ee": 6448,
      "lam": 6449,
      "lab": 6450,
      "parent": 6451,
      "tense": 6452,
      "incess": 6453,
      "alter": 6454,
      "icing": 6455,
      "unintentionally": 6456,
      "abilities": 6457,
      "ultra": 6458,
      "horrific": 6459,
      "Alt": 6460,
      "addy": 6461,
      "riding": 6462,
      "annoyed": 6463,
      "daughters": 6464,
      "hoped": 6465,
      "torial": 6466,
      "homosexual": 6467,
      "Nightmare": 6468,
      "Italy": 6469,
      "reference": 6470,
      "splend": 6471,
      "Franco": 6472,
      "specific": 6473,
      "challenge": 6474,
      "weapon": 6475,
      "hundreds": 6476,
      "frequently": 6477,
      "Cinema": 6478,
      "Satan": 6479,
      "horrendous": 6480,
      "CA": 6481,
      "Dev": 6482,
      "Father": 6483,
      "Lor": 6484,
      "Plot": 6485,
      "Pier": 6486,
      "TW": 6487,
      "pian": 6488,
      "rings": 6489,
      "tied": 6490,
      "von": 6491,
      "vous": 6492,
      "invisible": 6493,
      "esque": 6494,
      "states": 6495,
      "beating": 6496,
      "urb": 6497,
      "trau": 6498,
      "meat": 6499,
      "confront": 6500,
      "iger": 6501,
      "everyday": 6502,
      "lesser": 6503,
      "happily": 6504,
      "contain": 6505,
      "worthless": 6506,
      "wishes": 6507,
      "Geor": 6508,
      "magaz": 6509,
      "equal": 6510,
      "provoking": 6511,
      "Bern": 6512,
      "revolves": 6513,
      "basement": 6514,
      "depiction": 6515,
      "Streisand": 6516,
      "inspiration": 6517,
      "scratch": 6518,
      "quirky": 6519,
      "advantage": 6520,
      "exercise": 6521,
      "Domin": 6522,
      "Four": 6523,
      "Hong": 6524,
      "ME": 6525,
      "Res": 6526,
      "thic": 6527,
      "thumb": 6528,
      "thel": 6529,
      "reward": 6530,
      "hears": 6531,
      "chases": 6532,
      "dislike": 6533,
      "reads": 6534,
      "ception": 6535,
      "Marg": 6536,
      "Brosn": 6537,
      "musicals": 6538,
      "dogs": 6539,
      "treasure": 6540,
      "Juli": 6541,
      "tune": 6542,
      "Verho": 6543,
      "thousands": 6544,
      "concert": 6545,
      "Brosnan": 6546,
      "Gal": 6547,
      "Made": 6548,
      "Od": 6549,
      "Rand": 6550,
      "Shel": 6551,
      "bik": 6552,
      "ego": 6553,
      "mund": 6554,
      "eral": 6555,
      "enor": 6556,
      "adget": 6557,
      "loid": 6558,
      "amond": 6559,
      "irony": 6560,
      "illust": 6561,
      "overcome": 6562,
      "cheek": 6563,
      "farm": 6564,
      "letter": 6565,
      "letting": 6566,
      "warming": 6567,
      "Class": 6568,
      "puzz": 6569,
      "amazingly": 6570,
      "2006": 6571,
      "Warner": 6572,
      "expressions": 6573,
      "acceptable": 6574,
      "competit": 6575,
      "loyd": 6576,
      "Honest": 6577,
      "Akshay": 6578,
      "lonely": 6579,
      "Michelle": 6580,
      ":)": 6581,
      "Bac": 6582,
      "Burns": 6583,
      "CE": 6584,
      "Cher": 6585,
      "PS": 6586,
      "Sis": 6587,
      "Winter": 6588,
      "tree": 6589,
      "rely": 6590,
      "enstein": 6591,
      "itar": 6592,
      "robo": 6593,
      "actic": 6594,
      "grim": 6595,
      "afore": 6596,
      "pointed": 6597,
      "cheer": 6598,
      "month": 6599,
      "appalling": 6600,
      "Johnson": 6601,
      "cameos": 6602,
      "Davies": 6603,
      "Worst": 6604,
      "struggles": 6605,
      "Korean": 6606,
      "believably": 6607,
      "Ira": 6608,
      "Jamie": 6609,
      "Sou": 6610,
      "School": 6611,
      "guts": 6612,
      "slaughter": 6613,
      "vig": 6614,
      "ilton": 6615,
      "loser": 6616,
      "iments": 6617,
      "robot": 6618,
      "elabor": 6619,
      "poon": 6620,
      "China": 6621,
      "contact": 6622,
      "enjoyment": 6623,
      "hype": 6624,
      "fallen": 6625,
      "ixon": 6626,
      "graphics": 6627,
      "shape": 6628,
      "kicks": 6629,
      "homeless": 6630,
      "immense": 6631,
      "segments": 6632,
      "Tarzan": 6633,
      "mountain": 6634,
      "bridge": 6635,
      "tongue": 6636,
      "Verhoeven": 6637,
      "Could": 6638,
      "Ginger": 6639,
      "Wa": 6640,
      "cket": 6641,
      "fired": 6642,
      "gren": 6643,
      "rates": 6644,
      "tto": 6645,
      "adays": 6646,
      "ambig": 6647,
      "ironic": 6648,
      "notable": 6649,
      "demo": 6650,
      "aston": 6651,
      "happiness": 6652,
      "carries": 6653,
      "vier": 6654,
      "counters": 6655,
      "attempted": 6656,
      "balls": 6657,
      "trait": 6658,
      "dropped": 6659,
      "amongst": 6660,
      "Emily": 6661,
      "divor": 6662,
      "physically": 6663,
      "thrilling": 6664,
      "spiritual": 6665,
      "pseudo": 6666,
      "Chaplin": 6667,
      "thousand": 6668,
      "Baker": 6669,
      "tribute": 6670,
      "conventional": 6671,
      "Nelson": 6672,
      "toilet": 6673,
      "Bach": 6674,
      "CO": 6675,
      "Eva": 6676,
      "Gil": 6677,
      "Imag": 6678,
      "Mom": 6679,
      "Ze": 6680,
      "ae": 6681,
      "dut": 6682,
      "hire": 6683,
      "ique": 6684,
      "wake": 6685,
      "isha": 6686,
      "replace": 6687,
      "toss": 6688,
      "stress": 6689,
      "omer": 6690,
      "rial": 6691,
      "shines": 6692,
      "appl": 6693,
      "conceived": 6694,
      "coach": 6695,
      "icker": 6696,
      "udge": 6697,
      "insist": 6698,
      "paralle": 6699,
      "rushed": 6700,
      "Dog": 6701,
      "guessing": 6702,
      "ification": 6703,
      "weakness": 6704,
      "millions": 6705,
      "broke": 6706,
      "concerns": 6707,
      "ittedly": 6708,
      "hiding": 6709,
      "obsession": 6710,
      "crafted": 6711,
      "protagonists": 6712,
      "Hunter": 6713,
      "marvelous": 6714,
      "elder": 6715,
      "?).": 6716,
      "ABC": 6717,
      "Luck": 6718,
      "Rating": 6719,
      "Yu": 6720,
      "fitting": 6721,
      "uth": 6722,
      "thirty": 6723,
      "chain": 6724,
      "beit": 6725,
      "imum": 6726,
      "terri": 6727,
      "idy": 6728,
      "absor": 6729,
      "pover": 6730,
      "artists": 6731,
      "ourselves": 6732,
      "intensity": 6733,
      "lessons": 6734,
      "Josh": 6735,
      "Neil": 6736,
      "exceptional": 6737,
      "2001": 6738,
      "ushing": 6739,
      "END": 6740,
      "sexuality": 6741,
      "repeat": 6742,
      "personalities": 6743,
      "accepted": 6744,
      "racism": 6745,
      "Murray": 6746,
      "Golden": 6747,
      "surrounded": 6748,
      "Gandhi": 6749,
      "cynical": 6750,
      "Catherine": 6751,
      "FE": 6752,
      "Fall": 6753,
      "Ko": 6754,
      "Kath": 6755,
      "Ral": 6756,
      "Rather": 6757,
      "Summer": 6758,
      "nel": 6759,
      "asingly": 6760,
      "sus": 6761,
      "Thunder": 6762,
      "bott": 6763,
      "workers": 6764,
      "horrid": 6765,
      "horses": 6766,
      "ensible": 6767,
      "believing": 6768,
      "mond": 6769,
      "mons": 6770,
      "phr": 6771,
      "relax": 6772,
      "Bron": 6773,
      "sexually": 6774,
      "breasts": 6775,
      "generous": 6776,
      "Lucy": 6777,
      "advance": 6778,
      "Spike": 6779,
      "darkness": 6780,
      "Comp": 6781,
      "Exc": 6782,
      "Elvis": 6783,
      "raped": 6784,
      "drags": 6785,
      "technique": 6786,
      "Personally": 6787,
      "FOR": 6788,
      "Tur": 6789,
      "dinner": 6790,
      "saves": 6791,
      "sincere": 6792,
      "infamous": 6793,
      "beast": 6794,
      "acula": 6795,
      "entry": 6796,
      "shy": 6797,
      "active": 6798,
      "aude": 6799,
      "presum": 6800,
      "quis": 6801,
      "bucks": 6802,
      "childish": 6803,
      "nightmare": 6804,
      "superfic": 6805,
      "videos": 6806,
      "ampion": 6807,
      "Club": 6808,
      "pushed": 6809,
      "rooms": 6810,
      "countries": 6811,
      "atmospher": 6812,
      "madness": 6813,
      "stunts": 6814,
      "satisfied": 6815,
      "official": 6816,
      "Palma": 6817,
      "Goldberg": 6818,
      "sinister": 6819,
      "cardboard": 6820,
      "fifteen": 6821,
      "stretch": 6822,
      "choreo": 6823,
      "belongs": 6824,
      "wealthy": 6825,
      "Planet": 6826,
      "controversial": 6827,
      "Catholic": 6828,
      "Cry": 6829,
      "Fire": 6830,
      "Fisher": 6831,
      "Hot": 6832,
      "Pie": 6833,
      "Rome": 6834,
      "Von": 6835,
      "__": 6836,
      "hunt": 6837,
      "oke": 6838,
      "patch": 6839,
      "vice": 6840,
      "ingen": 6841,
      "chilling": 6842,
      "beach": 6843,
      "lips": 6844,
      "rive": 6845,
      "usions": 6846,
      "spy": 6847,
      "ishment": 6848,
      "pray": 6849,
      "underground": 6850,
      "Stiller": 6851,
      "finan": 6852,
      "sings": 6853,
      "border": 6854,
      "ERE": 6855,
      "elsewhere": 6856,
      "passes": 6857,
      "counts": 6858,
      "unky": 6859,
      "picking": 6860,
      "attacks": 6861,
      "homage": 6862,
      "portion": 6863,
      "journal": 6864,
      "intentions": 6865,
      "wannabe": 6866,
      "jerk": 6867,
      "increasingly": 6868,
      "poignant": 6869,
      "FX": 6870,
      "Mu": 6871,
      "Mas": 6872,
      "Pam": 6873,
      "Ren": 6874,
      "SH": 6875,
      "Water": 6876,
      "bour": 6877,
      "ramp": 6878,
      "sar": 6879,
      "incar": 6880,
      "resort": 6881,
      "lovable": 6882,
      "ida": 6883,
      "uninspired": 6884,
      "uristic": 6885,
      "mansion": 6886,
      "contract": 6887,
      "oked": 6888,
      "weet": 6889,
      "hase": 6890,
      "spending": 6891,
      "ishes": 6892,
      "greatly": 6893,
      "worker": 6894,
      "opath": 6895,
      "Almost": 6896,
      "trial": 6897,
      "impse": 6898,
      "glimpse": 6899,
      "Boo": 6900,
      "convol": 6901,
      "jected": 6902,
      "transfer": 6903,
      "virgin": 6904,
      "countless": 6905,
      "males": 6906,
      "slightest": 6907,
      "Murder": 6908,
      "briefly": 6909,
      "split": 6910,
      "abrupt": 6911,
      "initially": 6912,
      "surrounding": 6913,
      "discuss": 6914,
      "miserably": 6915,
      "daily": 6916,
      "endearing": 6917,
      "sophisticated": 6918,
      "Atlantis": 6919,
      "develops": 6920,
      "Altman": 6921,
      "22": 6922,
      "Fonda": 6923,
      "Lane": 6924,
      "Powell": 6925,
      "bang": 6926,
      "rhy": 6927,
      "sque": 6928,
      "wow": 6929,
      "albeit": 6930,
      "noted": 6931,
      "excl": 6932,
      "seeking": 6933,
      "afford": 6934,
      "selfish": 6935,
      "pses": 6936,
      "chell": 6937,
      "attend": 6938,
      "Aside": 6939,
      "scripted": 6940,
      "buck": 6941,
      "Maria": 6942,
      "hopefully": 6943,
      "Dracula": 6944,
      "resour": 6945,
      "suffered": 6946,
      "selling": 6947,
      "psychiatr": 6948,
      "HOW": 6949,
      "Science": 6950,
      "motivation": 6951,
      "cabin": 6952,
      "separate": 6953,
      "charisma": 6954,
      "CIA": 6955,
      "\"...": 6956,
      "Award": 6957,
      "Code": 6958,
      "Ful": 6959,
      "Net": 6960,
      "Sex": 6961,
      "Set": 6962,
      "Usu": 6963,
      "cé": 6964,
      "clow": 6965,
      "cake": 6966,
      "firm": 6967,
      "tick": 6968,
      "tax": 6969,
      "onically": 6970,
      "alas": 6971,
      "chap": 6972,
      "unning": 6973,
      "goal": 6974,
      "conserv": 6975,
      "umber": 6976,
      "covers": 6977,
      "....<": 6978,
      "direc": 6979,
      "string": 6980,
      "attached": 6981,
      "relent": 6982,
      "appearances": 6983,
      "2005": 6984,
      "checking": 6985,
      "Comedy": 6986,
      "scientists": 6987,
      "stealing": 6988,
      "Laurel": 6989,
      "associated": 6990,
      "destruction": 6991,
      "Honestly": 6992,
      "Coun": 6993,
      "Haw": 6994,
      "Kaz": 6995,
      "Live": 6996,
      "Med": 6997,
      "NEVER": 6998,
      "UL": 6999,
      "dust": 7000,
      "nause": 7001,
      "sends": 7002,
      "vest": 7003,
      "zel": 7004,
      "inser": 7005,
      "reactions": 7006,
      "tool": 7007,
      "ila": 7008,
      "brand": 7009,
      "riot": 7010,
      "aga": 7011,
      "anski": 7012,
      "reasonable": 7013,
      "handful": 7014,
      "corner": 7015,
      "cycl": 7016,
      "River": 7017,
      "Dragon": 7018,
      "dealt": 7019,
      "Perry": 7020,
      "population": 7021,
      "narrator": 7022,
      "Indians": 7023,
      "hammer": 7024,
      "Except": 7025,
      "Berg": 7026,
      "hipp": 7027,
      "network": 7028,
      "Ruth": 7029,
      "fashioned": 7030,
      "Helen": 7031,
      "nuclear": 7032,
      "curiosity": 7033,
      "battles": 7034,
      "repetitive": 7035,
      "metaphor": 7036,
      "aforementioned": 7037,
      "2nd": 7038,
      "Fol": 7039,
      "Grey": 7040,
      "Ian": 7041,
      "MY": 7042,
      "Sold": 7043,
      "Try": 7044,
      "Woman": 7045,
      "eager": 7046,
      "iation": 7047,
      "lly": 7048,
      "labor": 7049,
      "mit": 7050,
      "pion": 7051,
      "tap": 7052,
      "ux": 7053,
      "onse": 7054,
      "ata": 7055,
      "asm": 7056,
      "noise": 7057,
      "quel": 7058,
      "istan": 7059,
      "overdone": 7060,
      "killings": 7061,
      "ensem": 7062,
      "warri": 7063,
      "Real": 7064,
      "Season": 7065,
      "messages": 7066,
      "launch": 7067,
      "hibit": 7068,
      "Matthe": 7069,
      "requires": 7070,
      "extraordinary": 7071,
      "hunting": 7072,
      "Muslim": 7073,
      "remaining": 7074,
      "resolution": 7075,
      "library": 7076,
      "adequate": 7077,
      "Cy": 7078,
      "Further": 7079,
      "Land": 7080,
      "Mit": 7081,
      "Natur": 7082,
      "Oscars": 7083,
      "WAY": 7084,
      "croc": 7085,
      "dating": 7086,
      "etern": 7087,
      "fian": 7088,
      "finger": 7089,
      "gift": 7090,
      "size": 7091,
      "storm": 7092,
      "trend": 7093,
      "zer": 7094,
      "reel": 7095,
      "aced": 7096,
      "suspects": 7097,
      "shirt": 7098,
      "dear": 7099,
      "president": 7100,
      "quote": 7101,
      "inda": 7102,
      "coinc": 7103,
      "clues": 7104,
      "attan": 7105,
      "nery": 7106,
      "lacked": 7107,
      "restaur": 7108,
      "dramas": 7109,
      "rified": 7110,
      "2003": 7111,
      "ridiculously": 7112,
      "larger": 7113,
      "Morris": 7114,
      "strangely": 7115,
      "Walken": 7116,
      "troubled": 7117,
      "flawed": 7118,
      "Rambo": 7119,
      "argument": 7120,
      "affected": 7121,
      "Nicholson": 7122,
      "Beautiful": 7123,
      "dignity": 7124,
      "Gadget": 7125,
      "Nice": 7126,
      "SC": 7127,
      "candy": 7128,
      "dare": 7129,
      "ji": 7130,
      "mi": 7131,
      "rever": 7132,
      "encounters": 7133,
      "editor": 7134,
      "chr": 7135,
      "chest": 7136,
      "ication": 7137,
      "noble": 7138,
      "forgive": 7139,
      "terrifying": 7140,
      "unwatchable": 7141,
      "doors": 7142,
      "manager": 7143,
      "enda": 7144,
      "watches": 7145,
      "assa": 7146,
      "Inspector": 7147,
      "subplot": 7148,
      "cared": 7149,
      "Annie": 7150,
      "Roth": 7151,
      "slam": 7152,
      "stylish": 7153,
      "identify": 7154,
      "engage": 7155,
      "closely": 7156,
      "rifice": 7157,
      "vices": 7158,
      "ketball": 7159,
      "Blake": 7160,
      "busy": 7161,
      "holiday": 7162,
      "beaten": 7163,
      "strike": 7164,
      "smoking": 7165,
      "surviv": 7166,
      "ACT": 7167,
      "Valent": 7168,
      "breathtaking": 7169,
      "kidnapped": 7170,
      "throat": 7171,
      "charismatic": 7172,
      "Skip": 7173,
      "cannibal": 7174,
      "stairs": 7175,
      "adapted": 7176,
      "ensemble": 7177,
      "fiancé": 7178,
      "''": 7179,
      "Age": 7180,
      "Hack": 7181,
      "Jake": 7182,
      "Make": 7183,
      "boun": 7184,
      "gimm": 7185,
      "lur": 7186,
      "ellow": 7187,
      "poet": 7188,
      "activ": 7189,
      "mann": 7190,
      "oles": 7191,
      "condu": 7192,
      "agan": 7193,
      "opposed": 7194,
      "farce": 7195,
      "misses": 7196,
      "distance": 7197,
      "stronger": 7198,
      "2002": 7199,
      "uniform": 7200,
      "Point": 7201,
      "1980s": 7202,
      "********": 7203,
      "1970s": 7204,
      "respond": 7205,
      "crimes": 7206,
      "psychotic": 7207,
      "Olivier": 7208,
      "Maggie": 7209,
      "stinker": 7210,
      "explicit": 7211,
      "reduced": 7212,
      "Griffith": 7213,
      "Ralph": 7214,
      "convoluted": 7215,
      "gimmick": 7216,
      "Bey": 7217,
      "EX": 7218,
      "Event": 7219,
      "FO": 7220,
      "Glover": 7221,
      "Isa": 7222,
      "Kum": 7223,
      "Pot": 7224,
      "fro": 7225,
      "lest": 7226,
      "oe": 7227,
      "rab": 7228,
      "ingu": 7229,
      "orient": 7230,
      "nops": 7231,
      "unpleasant": 7232,
      "filling": 7233,
      "butt": 7234,
      "whoever": 7235,
      "nowadays": 7236,
      "ciating": 7237,
      "distract": 7238,
      "Indeed": 7239,
      "screw": 7240,
      "reasonably": 7241,
      "wondered": 7242,
      "fancy": 7243,
      "Hero": 7244,
      "Britain": 7245,
      "fourth": 7246,
      "photographer": 7247,
      "abysm": 7248,
      "medium": 7249,
      "professor": 7250,
      "thrillers": 7251,
      "1950s": 7252,
      "threatening": 7253,
      "Bobby": 7254,
      "commercials": 7255,
      "melodramatic": 7256,
      "Canada": 7257,
      "Miike": 7258,
      "evolution": 7259,
      "inevitable": 7260,
      "cringe": 7261,
      "conspiracy": 7262,
      "Aw": 7263,
      "Bush": 7264,
      "BUT": 7265,
      "Cel": 7266,
      "Gra": 7267,
      "Gabr": 7268,
      "MU": 7269,
      "Pan": 7270,
      "Sing": 7271,
      "hitting": 7272,
      "oil": 7273,
      "sam": 7274,
      "restr": 7275,
      "encing": 7276,
      "beer": 7277,
      "acre": 7278,
      "enters": 7279,
      "unbearable": 7280,
      "essence": 7281,
      "pleased": 7282,
      "ellar": 7283,
      "characterization": 7284,
      "serving": 7285,
      "Church": 7286,
      "mato": 7287,
      "surfing": 7288,
      "parano": 7289,
      "illian": 7290,
      "marke": 7291,
      "Secret": 7292,
      "rush": 7293,
      "creators": 7294,
      "easier": 7295,
      "ANT": 7296,
      "Carter": 7297,
      "Shir": 7298,
      "aimed": 7299,
      "Tracy": 7300,
      "grows": 7301,
      "senseless": 7302,
      "Foster": 7303,
      "searching": 7304,
      "redem": 7305,
      "cruciating": 7306,
      "grandmother": 7307,
      "continued": 7308,
      "Living": 7309,
      "OME": 7310,
      "complaint": 7311,
      "sacrifice": 7312,
      "hooked": 7313,
      "philosoph": 7314,
      "strictly": 7315,
      "crisis": 7316,
      "exaggerated": 7317,
      "sneak": 7318,
      "idiots": 7319,
      "errors": 7320,
      "superficial": 7321,
      "atmospheric": 7322,
      "Bal": 7323,
      "Certain": 7324,
      "Dad": 7325,
      "Port": 7326,
      "Scar": 7327,
      "WAR": 7328,
      "bury": 7329,
      "wig": 7330,
      "indi": 7331,
      "lyr": 7332,
      "terior": 7333,
      "pred": 7334,
      "Thanks": 7335,
      "bold": 7336,
      "aws": 7337,
      "aft": 7338,
      "hoo": 7339,
      "shoes": 7340,
      "Brady": 7341,
      "spots": 7342,
      "Los": 7343,
      "itchen": 7344,
      "morality": 7345,
      "Brook": 7346,
      "importantly": 7347,
      "politic": 7348,
      "oddly": 7349,
      "futuristic": 7350,
      "pleasantly": 7351,
      "1990": 7352,
      "meaningless": 7353,
      "bullets": 7354,
      "thrills": 7355,
      "returning": 7356,
      "technically": 7357,
      "Kenneth": 7358,
      "Hartley": 7359,
      "nopsis": 7360,
      "'.<": 7361,
      "Cli": 7362,
      "Cary": 7363,
      "Cold": 7364,
      "Cop": 7365,
      "Macy": 7366,
      "Psy": 7367,
      "Right": 7368,
      "Uwe": 7369,
      "foul": 7370,
      "wack": 7371,
      "infect": 7372,
      "iser": 7373,
      "reli": 7374,
      "aser": 7375,
      "staged": 7376,
      "icop": 7377,
      "root": 7378,
      "odge": 7379,
      "ifies": 7380,
      "ashes": 7381,
      "buried": 7382,
      "eyed": 7383,
      "slave": 7384,
      "......": 7385,
      "Grace": 7386,
      "failing": 7387,
      "allowing": 7388,
      "spoiled": 7389,
      "limit": 7390,
      "innocence": 7391,
      "demons": 7392,
      "colorful": 7393,
      "Nevertheless": 7394,
      "corporate": 7395,
      "Diana": 7396,
      "hysterical": 7397,
      "Consid": 7398,
      "Cuba": 7399,
      "installment": 7400,
      "AB": 7401,
      "Apart": 7402,
      "Buck": 7403,
      "Dur": 7404,
      "Given": 7405,
      "Jer": 7406,
      "Lloyd": 7407,
      "Todd": 7408,
      "Terry": 7409,
      "Video": 7410,
      "wicked": 7411,
      "zilla": 7412,
      "represents": 7413,
      "toy": 7414,
      "tery": 7415,
      "excruciating": 7416,
      "antics": 7417,
      "webs": 7418,
      "akin": 7419,
      "guest": 7420,
      "overrated": 7421,
      "aze": 7422,
      "kidding": 7423,
      "carefully": 7424,
      "audio": 7425,
      "brea": 7426,
      "Uncle": 7427,
      "superhero": 7428,
      "Spir": 7429,
      "Scroo": 7430,
      "nonetheless": 7431,
      "secretary": 7432,
      "matched": 7433,
      "occurs": 7434,
      "Strange": 7435,
      "hideous": 7436,
      "juven": 7437,
      "precious": 7438,
      "sloppy": 7439,
      "shelf": 7440,
      "outrageous": 7441,
      "cousin": 7442,
      "Mitchell": 7443,
      "35": 7444,
      "Cre": 7445,
      "Five": 7446,
      "Gam": 7447,
      "Mars": 7448,
      "Row": 7449,
      "Sell": 7450,
      "Saw": 7451,
      "Stoo": 7452,
      "Save": 7453,
      "Tot": 7454,
      "Top": 7455,
      "Wel": 7456,
      "WAT": 7457,
      "flight": 7458,
      "flop": 7459,
      "jazz": 7460,
      "rd": 7461,
      "uate": 7462,
      "uloid": 7463,
      "thick": 7464,
      "returned": 7465,
      "leans": 7466,
      "logue": 7467,
      "unintentional": 7468,
      "confron": 7469,
      "aux": 7470,
      "aker": 7471,
      "foc": 7472,
      "disc": 7473,
      "realise": 7474,
      "merit": 7475,
      "tales": 7476,
      "centric": 7477,
      "performing": 7478,
      "pretend": 7479,
      "helicop": 7480,
      "extended": 7481,
      "menacing": 7482,
      "ticket": 7483,
      "Christy": 7484,
      "Cook": 7485,
      "distinct": 7486,
      "talked": 7487,
      "laws": 7488,
      "defend": 7489,
      "achieved": 7490,
      "westerns": 7491,
      "require": 7492,
      "hunter": 7493,
      "resemblance": 7494,
      "frustrated": 7495,
      "Miy": 7496,
      "precise": 7497,
      "udos": 7498,
      "vulgar": 7499,
      "analy": 7500,
      "obscure": 7501,
      "Fle": 7502,
      "Fear": 7503,
      "Gore": 7504,
      "Lan": 7505,
      "dre": 7506,
      "gger": 7507,
      "jam": 7508,
      "pig": 7509,
      "rational": 7510,
      "som": 7511,
      "redi": 7512,
      "ils": 7513,
      "chor": 7514,
      "adoles": 7515,
      "terday": 7516,
      "unforgettable": 7517,
      "ables": 7518,
      "estate": 7519,
      "perfection": 7520,
      "boot": 7521,
      "spring": 7522,
      "aval": 7523,
      "wonders": 7524,
      "empath": 7525,
      "gotta": 7526,
      "sounding": 7527,
      "Remember": 7528,
      "spooky": 7529,
      "Grinch": 7530,
      "engine": 7531,
      "cliff": 7532,
      "orders": 7533,
      "bargain": 7534,
      "movements": 7535,
      "Timon": 7536,
      "pulling": 7537,
      "Polanski": 7538,
      "Special": 7539,
      "tricks": 7540,
      "cowboy": 7541,
      "absence": 7542,
      "Lawrence": 7543,
      "ambitious": 7544,
      "wilder": 7545,
      "cameras": 7546,
      "competition": 7547,
      "presumably": 7548,
      "directorial": 7549,
      "!.": 7550,
      "Bus": 7551,
      "Bart": 7552,
      "CD": 7553,
      "Call": 7554,
      "Dow": 7555,
      "GRE": 7556,
      "PR": 7557,
      "mouse": 7558,
      "pir": 7559,
      "uct": 7560,
      "inane": 7561,
      "oub": 7562,
      "ingredi": 7563,
      "staff": 7564,
      "hem": 7565,
      "defe": 7566,
      "devoid": 7567,
      "peror": 7568,
      "aggress": 7569,
      "artific": 7570,
      "web": 7571,
      "guilt": 7572,
      "fox": 7573,
      "uded": 7574,
      "blast": 7575,
      "beings": 7576,
      "stranger": 7577,
      "harder": 7578,
      "highlights": 7579,
      "sentence": 7580,
      "sadistic": 7581,
      "NOTHING": 7582,
      "2004": 7583,
      "Godzilla": 7584,
      "dancer": 7585,
      "wheel": 7586,
      "response": 7587,
      "scientific": 7588,
      "studios": 7589,
      "jumping": 7590,
      "fatal": 7591,
      "improved": 7592,
      "popcorn": 7593,
      "drunken": 7594,
      "intrigued": 7595,
      "ignored": 7596,
      "Kapoor": 7597,
      "thology": 7598,
      "Leonard": 7599,
      "revelation": 7600,
      "blatant": 7601,
      "jealous": 7602,
      "jointed": 7603,
      "splendid": 7604,
      "poverty": 7605,
      "\";": 7606,
      "Bot": 7607,
      "Brend": 7608,
      "Cour": 7609,
      "Din": 7610,
      "Dra": 7611,
      "Dress": 7612,
      "Eyes": 7613,
      "Hick": 7614,
      "Know": 7615,
      "drow": 7616,
      "fist": 7617,
      "gif": 7618,
      "hence": 7619,
      "pes": 7620,
      "tame": 7621,
      "ule": 7622,
      "infer": 7623,
      "resur": 7624,
      "removed": 7625,
      "argue": 7626,
      "accused": 7627,
      "idel": 7628,
      "ami": 7629,
      "unbelievably": 7630,
      "geon": 7631,
      "maniac": 7632,
      "tea": 7633,
      "avor": 7634,
      "offended": 7635,
      "duo": 7636,
      "backs": 7637,
      "lifetime": 7638,
      "centered": 7639,
      "persona": 7640,
      "Arab": 7641,
      "sidekick": 7642,
      "Lots": 7643,
      "Gothic": 7644,
      "ONG": 7645,
      "2007": 7646,
      "Whoop": 7647,
      "label": 7648,
      "hearts": 7649,
      "swing": 7650,
      "Films": 7651,
      "rocks": 7652,
      "Amanda": 7653,
      "patient": 7654,
      "attracted": 7655,
      "reached": 7656,
      "walls": 7657,
      "succeeded": 7658,
      "sales": 7659,
      "loosely": 7660,
      "digital": 7661,
      "construction": 7662,
      "biography": 7663,
      "techniques": 7664,
      "wealth": 7665,
      "gripping": 7666,
      "Craig": 7667,
      "SNL": 7668,
      "attraction": 7669,
      "Iraq": 7670,
      "Imagine": 7671,
      "AV": 7672,
      "Fa": 7673,
      "Knight": 7674,
      "Py": 7675,
      "Say": 7676,
      "Song": 7677,
      "Tro": 7678,
      "Viv": 7679,
      "fighter": 7680,
      "lav": 7681,
      "mum": 7682,
      "ole": 7683,
      "uity": 7684,
      "threw": 7685,
      "inhabit": 7686,
      "relies": 7687,
      "armed": 7688,
      "chess": 7689,
      "implausible": 7690,
      "abh": 7691,
      "ela": 7692,
      "ira": 7693,
      "dece": 7694,
      "therland": 7695,
      "exposed": 7696,
      "conom": 7697,
      "projects": 7698,
      "disease": 7699,
      "ortal": 7700,
      "afterwards": 7701,
      "strang": 7702,
      "Alf": 7703,
      "newsp": 7704,
      "enjoys": 7705,
      "temper": 7706,
      "credited": 7707,
      "brilliance": 7708,
      "admire": 7709,
      "planning": 7710,
      "importance": 7711,
      "Tommy": 7712,
      "photographed": 7713,
      "detailed": 7714,
      "Price": 7715,
      "combat": 7716,
      "MacArthur": 7717,
      "Romero": 7718,
      "smooth": 7719,
      "loaded": 7720,
      "repeatedly": 7721,
      "collabor": 7722,
      "involvement": 7723,
      "assassin": 7724,
      "deliberately": 7725,
      "Fortun": 7726,
      "houses": 7727,
      "elaborate": 7728,
      "Fulci": 7729,
      "Ce": 7730,
      "Eu": 7731,
      "Khan": 7732,
      "Met": 7733,
      "Mass": 7734,
      "Pick": 7735,
      "Rex": 7736,
      "Rey": 7737,
      "Seven": 7738,
      "cali": 7739,
      "jungle": 7740,
      "lap": 7741,
      "wan": 7742,
      "illogical": 7743,
      "beats": 7744,
      "amuse": 7745,
      "abre": 7746,
      "astro": 7747,
      "umsy": 7748,
      "guided": 7749,
      "Studi": 7750,
      "stood": 7751,
      "portrait": 7752,
      "clothing": 7753,
      "arring": 7754,
      "possibility": 7755,
      "Leo": 7756,
      "valu": 7757,
      "synopsis": 7758,
      "Neither": 7759,
      "eleg": 7760,
      "Donna": 7761,
      "distant": 7762,
      "Scary": 7763,
      "typically": 7764,
      "explored": 7765,
      "mistaken": 7766,
      "!!!!!": 7767,
      "Sutherland": 7768,
      "dancers": 7769,
      "oooo": 7770,
      "attered": 7771,
      "Fool": 7772,
      "Quite": 7773,
      "blows": 7774,
      "LOVE": 7775,
      "embarrassment": 7776,
      "Absolute": 7777,
      "Bela": 7778,
      "celluloid": 7779,
      "resembles": 7780,
      "robber": 7781,
      "companion": 7782,
      "conversations": 7783,
      "accomplished": 7784,
      "distracting": 7785,
      "comprehensible": 7786,
      "Century": 7787,
      "tremendous": 7788,
      "territory": 7789,
      "clown": 7790,
      "Matthew": 7791,
      "Eventually": 7792,
      "Considering": 7793,
      "Scrooge": 7794,
      "Bow": 7795,
      "Cow": 7796,
      "Cont": 7797,
      "Dixon": 7798,
      "Han": 7799,
      "Ice": 7800,
      "Lily": 7801,
      "Lund": 7802,
      "SU": 7803,
      "Soder": 7804,
      "bene": 7805,
      "dent": 7806,
      "iently": 7807,
      "offee": 7808,
      "stro": 7809,
      "sevent": 7810,
      "bears": 7811,
      "unit": 7812,
      "ulate": 7813,
      "decess": 7814,
      "fears": 7815,
      "comics": 7816,
      "urai": 7817,
      "predecess": 7818,
      "grasp": 7819,
      "disjointed": 7820,
      "internet": 7821,
      "whereas": 7822,
      "phony": 7823,
      "Myers": 7824,
      "annah": 7825,
      "humili": 7826,
      "Granted": 7827,
      "wallow": 7828,
      "Clint": 7829,
      "gged": 7830,
      "satir": 7831,
      "damage": 7832,
      "swear": 7833,
      "arrell": 7834,
      "ASE": 7835,
      "screams": 7836,
      "investigation": 7837,
      "occurred": 7838,
      "Dickens": 7839,
      "shadows": 7840,
      "individuals": 7841,
      "possessed": 7842,
      "Spock": 7843,
      "sacrific": 7844,
      "proceedings": 7845,
      "fetched": 7846,
      "philosophy": 7847,
      "Campbell": 7848,
      "scope": 7849,
      "Francisco": 7850,
      "Legend": 7851,
      "receive": 7852,
      "eerie": 7853,
      "documentaries": 7854,
      "Whether": 7855,
      "Margaret": 7856,
      "Bergman": 7857,
      "abysmal": 7858,
      "redemption": 7859,
      ",,": 7860,
      "3rd": 7861,
      "CT": 7862,
      "Days": 7863,
      "Eas": 7864,
      "Fin": 7865,
      "Lena": 7866,
      "code": 7867,
      "dud": 7868,
      "ona": 7869,
      "ala": 7870,
      "itabh": 7871,
      "league": 7872,
      "adul": 7873,
      "utes": 7874,
      "lifel": 7875,
      "uneven": 7876,
      "rian": 7877,
      "endure": 7878,
      "myth": 7879,
      "Third": 7880,
      "bleak": 7881,
      "affl": 7882,
      "viet": 7883,
      "Heart": 7884,
      "gene": 7885,
      "ipes": 7886,
      "settle": 7887,
      "contained": 7888,
      "Beck": 7889,
      "annon": 7890,
      "breed": 7891,
      "generic": 7892,
      "silver": 7893,
      "guessed": 7894,
      "oses": 7895,
      "explosion": 7896,
      "politically": 7897,
      "Richards": 7898,
      "Connery": 7899,
      "Prof": 7900,
      "Norman": 7901,
      "Berlin": 7902,
      "Emma": 7903,
      "Matth": 7904,
      "revealing": 7905,
      "rubber": 7906,
      "Duke": 7907,
      "opportun": 7908,
      "OOD": 7909,
      "ovich": 7910,
      "escaped": 7911,
      "tender": 7912,
      "Jonathan": 7913,
      "answered": 7914,
      "vulner": 7915,
      "Throughout": 7916,
      "reunion": 7917,
      "magazine": 7918,
      "Excellent": 7919,
      "Sellers": 7920,
      "Civ": 7921,
      "Dawn": 7922,
      "IF": 7923,
      "Jed": 7924,
      "Ring": 7925,
      "Sally": 7926,
      "Stra": 7927,
      "Town": 7928,
      "WAS": 7929,
      "Years": 7930,
      "daring": 7931,
      "flies": 7932,
      "kitchen": 7933,
      "nes": 7934,
      "wret": 7935,
      "assem": 7936,
      "ilted": 7937,
      "height": 7938,
      "motor": 7939,
      "icient": 7940,
      "forgiven": 7941,
      "ligh": 7942,
      "liking": 7943,
      "suits": 7944,
      "suited": 7945,
      "ifying": 7946,
      "grain": 7947,
      "clumsy": 7948,
      "...)": 7949,
      "thru": 7950,
      "writes": 7951,
      "leton": 7952,
      "frag": 7953,
      "useum": 7954,
      "hyp": 7955,
      "Myr": 7956,
      "slim": 7957,
      "curse": 7958,
      "murderous": 7959,
      "engaged": 7960,
      "causing": 7961,
      "staying": 7962,
      "instantly": 7963,
      "Series": 7964,
      "racial": 7965,
      "historic": 7966,
      "Alexand": 7967,
      "smoke": 7968,
      "captain": 7969,
      "birthday": 7970,
      "health": 7971,
      "iveness": 7972,
      "bathroom": 7973,
      "settling": 7974,
      "electric": 7975,
      "Wallace": 7976,
      "eccentric": 7977,
      "piano": 7978,
      "oubted": 7979,
      "Abr": 7980,
      "Bun": 7981,
      "Dep": 7982,
      "Dutch": 7983,
      "Es": 7984,
      "Fish": 7985,
      "Face": 7986,
      "Kin": 7987,
      "Var": 7988,
      "econom": 7989,
      "gut": 7990,
      "musc": 7991,
      "tte": 7992,
      "tones": 7993,
      "wives": 7994,
      "/>'": 7995,
      "kemon": 7996,
      "shif": 7997,
      "conve": 7998,
      "observ": 7999,
      "blur": 8000,
      "partly": 8001,
      "bergh": 8002,
      "azaki": 8003,
      "phob": 8004,
      "horrors": 8005,
      "clock": 8006,
      "Loren": 8007,
      "aham": 8008,
      "Coy": 8009,
      "????": 8010,
      "Scot": 8011,
      "explore": 8012,
      "odds": 8013,
      "20th": 8014,
      "Hood": 8015,
      "Princess": 8016,
      "Elli": 8017,
      "Amitabh": 8018,
      "Germans": 8019,
      "intrigue": 8020,
      "arrive": 8021,
      "investigate": 8022,
      "Denzel": 8023,
      "thankfully": 8024,
      "tortured": 8025,
      "Stevens": 8026,
      "broadcast": 8027,
      "Leslie": 8028,
      "uddled": 8029,
      "Grayson": 8030,
      "Latin": 8031,
      "Picture": 8032,
      "Turner": 8033,
      "innovative": 8034,
      "Civil": 8035,
      "50s": 8036,
      "Amy": 8037,
      "Dill": 8038,
      "Fant": 8039,
      "Mey": 8040,
      "WE": 8041,
      "Year": 8042,
      "Zize": 8043,
      "faster": 8044,
      "hates": 8045,
      "mares": 8046,
      "oples": 8047,
      "pants": 8048,
      "rum": 8049,
      "tall": 8050,
      "anx": 8051,
      "topless": 8052,
      "acid": 8053,
      "adine": 8054,
      "elic": 8055,
      "rier": 8056,
      "button": 8057,
      "user": 8058,
      "worn": 8059,
      "istically": 8060,
      "goodness": 8061,
      "awake": 8062,
      "lowest": 8063,
      "disappear": 8064,
      "Intern": 8065,
      "trio": 8066,
      "downhill": 8067,
      "monkey": 8068,
      "subsequent": 8069,
      "bub": 8070,
      "careers": 8071,
      "corpse": 8072,
      "closed": 8073,
      "Reid": 8074,
      "heroic": 8075,
      "Danes": 8076,
      "instit": 8077,
      "existed": 8078,
      "Willis": 8079,
      "executive": 8080,
      "blowing": 8081,
      "reaches": 8082,
      "disturbed": 8083,
      "1930s": 8084,
      "burned": 8085,
      "specif": 8086,
      "EVERY": 8087,
      "discussion": 8088,
      "primarily": 8089,
      "blockbuster": 8090,
      "symbolism": 8091,
      "liberal": 8092,
      "Alien": 8093,
      "tiresome": 8094,
      "landscape": 8095,
      "Swedish": 8096,
      "Wendy": 8097,
      "Ellen": 8098,
      "Julian": 8099,
      "Usually": 8100,
      "Fortunately": 8101,
      "wretched": 8102,
      "Zizek": 8103,
      "Dom": 8104,
      "DON": 8105,
      "Fat": 8106,
      "Greek": 8107,
      "Hills": 8108,
      "Kane": 8109,
      "Low": 8110,
      "Rid": 8111,
      "banned": 8112,
      "cig": 8113,
      "cats": 8114,
      "mou": 8115,
      "othy": 8116,
      "sadd": 8117,
      "tly": 8118,
      "wone": 8119,
      "erk": 8120,
      "oni": 8121,
      "acies": 8122,
      "accompan": 8123,
      "forty": 8124,
      "ids": 8125,
      "outcome": 8126,
      "odile": 8127,
      "cting": 8128,
      "consequences": 8129,
      "props": 8130,
      "preview": 8131,
      "umi": 8132,
      "grav": 8133,
      "overlooked": 8134,
      "offs": 8135,
      "offering": 8136,
      "displays": 8137,
      "backdrop": 8138,
      "izable": 8139,
      "smug": 8140,
      "nervous": 8141,
      "classes": 8142,
      "Note": 8143,
      "Forget": 8144,
      "differences": 8145,
      "Carla": 8146,
      "publ": 8147,
      "Cox": 8148,
      "NOW": 8149,
      "inov": 8150,
      "scores": 8151,
      "kicked": 8152,
      "suitable": 8153,
      "devoted": 8154,
      "souls": 8155,
      "burning": 8156,
      "Antwone": 8157,
      "apolog": 8158,
      "phenomen": 8159,
      "According": 8160,
      "discovery": 8161,
      "employed": 8162,
      "achievement": 8163,
      "Secondly": 8164,
      "Silver": 8165,
      "choreography": 8166,
      "Dorothy": 8167,
      "Glenn": 8168,
      "Kids": 8169,
      "Diane": 8170,
      "vacation": 8171,
      "overwhelming": 8172,
      "Characters": 8173,
      "Simpson": 8174,
      "captivating": 8175,
      "website": 8176,
      "Soderbergh": 8177,
      "Block": 8178,
      "Mod": 8179,
      "Nob": 8180,
      "Pen": 8181,
      "Prom": 8182,
      "Side": 8183,
      "cards": 8184,
      "citiz": 8185,
      "coffee": 8186,
      "hen": 8187,
      "ko": 8188,
      "luster": 8189,
      "mall": 8190,
      "ranks": 8191
    },
    "merges": [
      [
        "t",
        "h"
      ],
      [
        "i",
        "n"
      ],
      [
        "e",
        "r"
      ],
      [
        "a",
        "n"
      ],
      [
        "th",
        "e"
      ],
      [
        "i",
        "s"
      ],
      [
        "r",
        "e"
      ],
      [
        "o",
        "n"
      ],
      [
        "a",
        "t"
      ],
      [
        "e",
        "n"
      ],
      [
        "t",
        "o"
      ],
      [
        "o",
        "u"
      ],
      [
        "in",
        "g"
      ],
      [
        "e",
        "s"
      ],
      [
        "a",
        "l"
      ],
      [
        "a",
        "s"
      ],
      [
        "o",
        "r"
      ],
      [
        "an",
        "d"
      ],
      [
        "i",
        "t"
      ],
      [
        "o",
        "f"
      ],
      [
        "a",
        "r"
      ],
      [
        "e",
        "d"
      ],
      [
        "i",
        "l"
      ],
      [
        "s",
        "t"
      ],
      [
        "l",
        "y"
      ],
      [
        "b",
        "r"
      ],
      [
        "h",
        "e"
      ],
      [
        "o",
        "m"
      ],
      [
        "l",
        "e"
      ],
      [
        "s",
        "e"
      ],
      [
        "c",
        "h"
      ],
      [
        "/",
        ">"
      ],
      [
        "b",
        "e"
      ],
      [
        "m",
        "o"
      ],
      [
        "a",
        "c"
      ],
      [
        "i",
        "c"
      ],
      [
        "w",
        "h"
      ],
      [
        "v",
        "e"
      ],
      [
        "i",
        "e"
      ],
      [
        "a",
        "d"
      ],
      [
        "th",
        "at"
      ],
      [
        "n",
        "o"
      ],
      [
        "u",
        "t"
      ],
      [
        "v",
        "er"
      ],
      [
        "l",
        "o"
      ],
      [
        "en",
        "t"
      ],
      [
        "th",
        "is"
      ],
      [
        "f",
        "or"
      ],
      [
        "i",
        "on"
      ],
      [
        "i",
        "m"
      ],
      [
        "a",
        "y"
      ],
      [
        "t",
        "er"
      ],
      [
        "g",
        "h"
      ],
      [
        "i",
        "d"
      ],
      [
        "w",
        "as"
      ],
      [
        "mo",
        "v"
      ],
      [
        "l",
        "i"
      ],
      [
        "a",
        "m"
      ],
      [
        "i",
        "th"
      ],
      [
        "/>",
        "<"
      ],
      [
        "u",
        "n"
      ],
      [
        "f",
        "il"
      ],
      [
        "er",
        "e"
      ],
      [
        "T",
        "he"
      ],
      [
        "k",
        "e"
      ],
      [
        "fil",
        "m"
      ],
      [
        "a",
        "b"
      ],
      [
        "l",
        "d"
      ],
      [
        "r",
        "o"
      ],
      [
        "w",
        "ith"
      ],
      [
        "e",
        "l"
      ],
      [
        "mov",
        "ie"
      ],
      [
        "h",
        "is"
      ],
      [
        "a",
        "re"
      ],
      [
        "on",
        "e"
      ],
      [
        "h",
        "a"
      ],
      [
        "ou",
        "t"
      ],
      [
        "i",
        "r"
      ],
      [
        "g",
        "e"
      ],
      [
        "y",
        "ou"
      ],
      [
        "o",
        "w"
      ],
      [
        "r",
        "i"
      ],
      [
        ".",
        "<"
      ],
      [
        "s",
        "u"
      ],
      [
        "s",
        "h"
      ],
      [
        "p",
        "e"
      ],
      [
        "b",
        "ut"
      ],
      [
        "g",
        "o"
      ],
      [
        "s",
        "o"
      ],
      [
        "om",
        "e"
      ],
      [
        "c",
        "e"
      ],
      [
        "al",
        "l"
      ],
      [
        "o",
        "d"
      ],
      [
        "u",
        "l"
      ],
      [
        "al",
        "ly"
      ],
      [
        "no",
        "t"
      ],
      [
        "to",
        "r"
      ],
      [
        "t",
        "s"
      ],
      [
        "d",
        "e"
      ],
      [
        "p",
        "o"
      ],
      [
        "th",
        "er"
      ],
      [
        "f",
        "e"
      ],
      [
        "n",
        "e"
      ],
      [
        "ou",
        "ld"
      ],
      [
        "il",
        "l"
      ],
      [
        "c",
        "om"
      ],
      [
        "m",
        "a"
      ],
      [
        "s",
        "c"
      ],
      [
        "u",
        "r"
      ],
      [
        ".",
        "."
      ],
      [
        "ha",
        "ve"
      ],
      [
        "a",
        "p"
      ],
      [
        "t",
        "r"
      ],
      [
        "ac",
        "t"
      ],
      [
        "e",
        "x"
      ],
      [
        "u",
        "st"
      ],
      [
        "d",
        "o"
      ],
      [
        "m",
        "e"
      ],
      [
        "m",
        "an"
      ],
      [
        "s",
        "ome"
      ],
      [
        "c",
        "t"
      ],
      [
        "u",
        "s"
      ],
      [
        "d",
        "i"
      ],
      [
        "gh",
        "t"
      ],
      [
        "es",
        "t"
      ],
      [
        "wh",
        "o"
      ],
      [
        "p",
        "l"
      ],
      [
        "es",
        "s"
      ],
      [
        "o",
        "l"
      ],
      [
        "en",
        "d"
      ],
      [
        "th",
        "ing"
      ],
      [
        "p",
        "er"
      ],
      [
        "r",
        "om"
      ],
      [
        "h",
        "er"
      ],
      [
        "c",
        "on"
      ],
      [
        "a",
        "in"
      ],
      [
        "b",
        "y"
      ],
      [
        "a",
        "u"
      ],
      [
        "n",
        "d"
      ],
      [
        "ver",
        "y"
      ],
      [
        "t",
        "e"
      ],
      [
        "w",
        "or"
      ],
      [
        "li",
        "ke"
      ],
      [
        "se",
        "e"
      ],
      [
        "ou",
        "s"
      ],
      [
        "an",
        "t"
      ],
      [
        "the",
        "y"
      ],
      [
        "p",
        "le"
      ],
      [
        "a",
        "g"
      ],
      [
        "u",
        "p"
      ],
      [
        "v",
        "en"
      ],
      [
        "el",
        "l"
      ],
      [
        "t",
        "im"
      ],
      [
        "f",
        "rom"
      ],
      [
        "ar",
        "t"
      ],
      [
        "o",
        "k"
      ],
      [
        "w",
        "e"
      ],
      [
        "i",
        "f"
      ],
      [
        "I",
        "t"
      ],
      [
        "i",
        "es"
      ],
      [
        "p",
        "ro"
      ],
      [
        "p",
        "re"
      ],
      [
        "ac",
        "k"
      ],
      [
        "q",
        "u"
      ],
      [
        "as",
        "t"
      ],
      [
        "j",
        "ust"
      ],
      [
        "ou",
        "gh"
      ],
      [
        "at",
        "ion"
      ],
      [
        "at",
        "e"
      ],
      [
        "in",
        "d"
      ],
      [
        "ab",
        "out"
      ],
      [
        "h",
        "as"
      ],
      [
        "ch",
        "ar"
      ],
      [
        "er",
        "s"
      ],
      [
        "w",
        "ay"
      ],
      [
        "at",
        "ch"
      ],
      [
        "o",
        "ther"
      ],
      [
        "c",
        "an"
      ],
      [
        "an",
        "y"
      ],
      [
        "i",
        "g"
      ],
      [
        "i",
        "ve"
      ],
      [
        "is",
        "t"
      ],
      [
        "m",
        "ent"
      ],
      [
        "m",
        "y"
      ],
      [
        "ar",
        "d"
      ],
      [
        "T",
        "h"
      ],
      [
        "b",
        "o"
      ],
      [
        "T",
        "his"
      ],
      [
        "ge",
        "t"
      ],
      [
        "go",
        "od"
      ],
      [
        "tor",
        "y"
      ],
      [
        "mo",
        "re"
      ],
      [
        "ac",
        "ter"
      ],
      [
        "u",
        "re"
      ],
      [
        "char",
        "acter"
      ],
      [
        "wh",
        "at"
      ],
      [
        "in",
        "e"
      ],
      [
        "w",
        "atch"
      ],
      [
        "i",
        "ch"
      ],
      [
        "w",
        "ould"
      ],
      [
        "d",
        "er"
      ],
      [
        "on",
        "g"
      ],
      [
        "o",
        "t"
      ],
      [
        "th",
        "ere"
      ],
      [
        "ab",
        "le"
      ],
      [
        "it",
        "y"
      ],
      [
        "s",
        "s"
      ],
      [
        "tim",
        "e"
      ],
      [
        "no",
        "w"
      ],
      [
        "u",
        "m"
      ],
      [
        "re",
        "at"
      ],
      [
        "a",
        "k"
      ],
      [
        "ou",
        "r"
      ],
      [
        "am",
        "e"
      ],
      [
        "ou",
        "nd"
      ],
      [
        "it",
        "e"
      ],
      [
        "in",
        "t"
      ],
      [
        "s",
        "tory"
      ],
      [
        "s",
        "he"
      ],
      [
        "a",
        "w"
      ],
      [
        "c",
        "k"
      ],
      [
        "e",
        "ven"
      ],
      [
        "f",
        "ul"
      ],
      [
        "c",
        "o"
      ],
      [
        "p",
        "t"
      ],
      [
        "mo",
        "st"
      ],
      [
        "h",
        "ad"
      ],
      [
        "wh",
        "en"
      ],
      [
        "id",
        "e"
      ],
      [
        "g",
        "u"
      ],
      [
        "b",
        "le"
      ],
      [
        "g",
        "r"
      ],
      [
        "on",
        "ly"
      ],
      [
        "re",
        "ally"
      ],
      [
        "wh",
        "ich"
      ],
      [
        "i",
        "ght"
      ],
      [
        "W",
        "h"
      ],
      [
        "u",
        "ch"
      ],
      [
        "sc",
        "en"
      ],
      [
        "w",
        "ere"
      ],
      [
        "lo",
        "t"
      ],
      [
        "th",
        "an"
      ],
      [
        "be",
        "c"
      ],
      [
        "e",
        "t"
      ],
      [
        "b",
        "ad"
      ],
      [
        "ad",
        "e"
      ],
      [
        "s",
        "p"
      ],
      [
        "e",
        "ver"
      ],
      [
        "in",
        "k"
      ],
      [
        "the",
        "ir"
      ],
      [
        "sh",
        "ow"
      ],
      [
        "d",
        "id"
      ],
      [
        "i",
        "ous"
      ],
      [
        "l",
        "l"
      ],
      [
        "ic",
        "k"
      ],
      [
        "h",
        "im"
      ],
      [
        "it",
        "t"
      ],
      [
        "e",
        "ar"
      ],
      [
        "pl",
        "ay"
      ],
      [
        "a",
        "v"
      ],
      [
        "it",
        "s"
      ],
      [
        "h",
        "ow"
      ],
      [
        "c",
        "l"
      ],
      [
        "do",
        "es"
      ],
      [
        "lo",
        "ok"
      ],
      [
        "w",
        "o"
      ],
      [
        "lo",
        "w"
      ],
      [
        "a",
        "ge"
      ],
      [
        "a",
        "f"
      ],
      [
        "au",
        "se"
      ],
      [
        "se",
        "l"
      ],
      [
        "p",
        "p"
      ],
      [
        "t",
        "y"
      ],
      [
        "o",
        "ver"
      ],
      [
        "e",
        "p"
      ],
      [
        "is",
        "h"
      ],
      [
        "of",
        "f"
      ],
      [
        "c",
        "ould"
      ],
      [
        "o",
        "b"
      ],
      [
        "en",
        "ce"
      ],
      [
        "m",
        "uch"
      ],
      [
        "the",
        "m"
      ],
      [
        "f",
        "o"
      ],
      [
        "..",
        "."
      ],
      [
        "ic",
        "e"
      ],
      [
        "i",
        "re"
      ],
      [
        "be",
        "en"
      ],
      [
        "be",
        "t"
      ],
      [
        "c",
        "i"
      ],
      [
        "o",
        "ple"
      ],
      [
        "as",
        "s"
      ],
      [
        "c",
        "r"
      ],
      [
        "ir",
        "st"
      ],
      [
        "d",
        "is"
      ],
      [
        "I",
        "n"
      ],
      [
        "k",
        "now"
      ],
      [
        "in",
        "to"
      ],
      [
        "u",
        "d"
      ],
      [
        "ma",
        "ke"
      ],
      [
        "w",
        "ill"
      ],
      [
        "ma",
        "k"
      ],
      [
        "pe",
        "ople"
      ],
      [
        "w",
        "ell"
      ],
      [
        "di",
        "re"
      ],
      [
        "bec",
        "ause"
      ],
      [
        "th",
        "ink"
      ],
      [
        "or",
        "t"
      ],
      [
        "d",
        "on"
      ],
      [
        "re",
        "al"
      ],
      [
        "ow",
        "n"
      ],
      [
        "h",
        "o"
      ],
      [
        "m",
        "ade"
      ],
      [
        "w",
        "r"
      ],
      [
        "g",
        "reat"
      ],
      [
        "v",
        "es"
      ],
      [
        "f",
        "un"
      ],
      [
        "f",
        "f"
      ],
      [
        "b",
        "l"
      ],
      [
        "r",
        "a"
      ],
      [
        "s",
        "on"
      ],
      [
        "sel",
        "f"
      ],
      [
        "to",
        "o"
      ],
      [
        "f",
        "irst"
      ],
      [
        "th",
        "r"
      ],
      [
        "A",
        "nd"
      ],
      [
        "e",
        "very"
      ],
      [
        "ac",
        "e"
      ],
      [
        "s",
        "er"
      ],
      [
        "wor",
        "k"
      ],
      [
        "n",
        "y"
      ],
      [
        "in",
        "ter"
      ],
      [
        "wh",
        "ere"
      ],
      [
        "il",
        "e"
      ],
      [
        "p",
        "r"
      ],
      [
        "see",
        "m"
      ],
      [
        "v",
        "ie"
      ],
      [
        "d",
        "u"
      ],
      [
        "s",
        "ay"
      ],
      [
        "f",
        "a"
      ],
      [
        "B",
        "ut"
      ],
      [
        "mov",
        "ies"
      ],
      [
        "er",
        "t"
      ],
      [
        "ar",
        "y"
      ],
      [
        "at",
        "ed"
      ],
      [
        "p",
        "art"
      ],
      [
        "c",
        "re"
      ],
      [
        "ac",
        "tor"
      ],
      [
        "ic",
        "al"
      ],
      [
        "al",
        "so"
      ],
      [
        "the",
        "n"
      ],
      [
        "s",
        "pe"
      ],
      [
        "l",
        "ess"
      ],
      [
        "p",
        "lot"
      ],
      [
        "an",
        "s"
      ],
      [
        "p",
        "s"
      ],
      [
        "act",
        "ing"
      ],
      [
        "vie",
        "w"
      ],
      [
        "character",
        "s"
      ],
      [
        "C",
        "h"
      ],
      [
        "d",
        "r"
      ],
      [
        "b",
        "ack"
      ],
      [
        "m",
        "in"
      ],
      [
        "an",
        "ce"
      ],
      [
        "you",
        "r"
      ],
      [
        "m",
        "er"
      ],
      [
        "f",
        "l"
      ],
      [
        "th",
        "ough"
      ],
      [
        "c",
        "tor"
      ],
      [
        "se",
        "en"
      ],
      [
        "film",
        "s"
      ],
      [
        "be",
        "ing"
      ],
      [
        "af",
        "ter"
      ],
      [
        "h",
        "or"
      ],
      [
        "Th",
        "ere"
      ],
      [
        "o",
        "se"
      ],
      [
        "H",
        "e"
      ],
      [
        "v",
        "ing"
      ],
      [
        "n",
        "t"
      ],
      [
        "a",
        "ch"
      ],
      [
        "y",
        "ear"
      ],
      [
        "n",
        "g"
      ],
      [
        "po",
        "int"
      ],
      [
        "man",
        "y"
      ],
      [
        "ct",
        "ion"
      ],
      [
        ")",
        "."
      ],
      [
        "t",
        "wo"
      ],
      [
        "itt",
        "le"
      ],
      [
        "ne",
        "ver"
      ],
      [
        "thr",
        "ough"
      ],
      [
        "d",
        "es"
      ],
      [
        "in",
        "al"
      ],
      [
        ")",
        ","
      ],
      [
        "li",
        "fe"
      ],
      [
        "tr",
        "y"
      ],
      [
        "b",
        "er"
      ],
      [
        "en",
        "s"
      ],
      [
        "c",
        "es"
      ],
      [
        "ur",
        "n"
      ],
      [
        "i",
        "z"
      ],
      [
        "o",
        "ld"
      ],
      [
        "be",
        "l"
      ],
      [
        "t",
        "al"
      ],
      [
        "st",
        "r"
      ],
      [
        "o",
        "p"
      ],
      [
        "u",
        "ally"
      ],
      [
        "lo",
        "ve"
      ],
      [
        "j",
        "o"
      ],
      [
        "h",
        "ere"
      ],
      [
        "ic",
        "t"
      ],
      [
        "an",
        "g"
      ],
      [
        "l",
        "ittle"
      ],
      [
        "bet",
        "ter"
      ],
      [
        "c",
        "ent"
      ],
      [
        "i",
        "gh"
      ],
      [
        "fo",
        "re"
      ],
      [
        "a",
        "ke"
      ],
      [
        "is",
        "e"
      ],
      [
        "il",
        "y"
      ],
      [
        "u",
        "e"
      ],
      [
        "k",
        "ill"
      ],
      [
        "1",
        "9"
      ],
      [
        "!",
        "!"
      ],
      [
        "v",
        "ed"
      ],
      [
        "sh",
        "ould"
      ],
      [
        "ar",
        "k"
      ],
      [
        "au",
        "gh"
      ],
      [
        "t",
        "ing"
      ],
      [
        "-",
        "-"
      ],
      [
        "a",
        "ve"
      ],
      [
        "I",
        "f"
      ],
      [
        "d",
        "ay"
      ],
      [
        "b",
        "est"
      ],
      [
        "w",
        "ant"
      ],
      [
        "g",
        "i"
      ],
      [
        "e",
        "f"
      ],
      [
        "scen",
        "e"
      ],
      [
        "m",
        "at"
      ],
      [
        "st",
        "ar"
      ],
      [
        "r",
        "y"
      ],
      [
        "re",
        "ad"
      ],
      [
        "as",
        "e"
      ],
      [
        "il",
        "d"
      ],
      [
        "su",
        "r"
      ],
      [
        "re",
        "e"
      ],
      [
        "un",
        "der"
      ],
      [
        "e",
        "v"
      ],
      [
        "scen",
        "es"
      ],
      [
        "f",
        "ind"
      ],
      [
        "some",
        "thing"
      ],
      [
        "ou",
        "ght"
      ],
      [
        "f",
        "ri"
      ],
      [
        "A",
        "l"
      ],
      [
        "fe",
        "el"
      ],
      [
        "ir",
        "l"
      ],
      [
        "ag",
        "ain"
      ],
      [
        "inter",
        "est"
      ],
      [
        "per",
        "for"
      ],
      [
        "st",
        "and"
      ],
      [
        "c",
        "he"
      ],
      [
        "c",
        "ast"
      ],
      [
        "w",
        "on"
      ],
      [
        "1",
        "0"
      ],
      [
        "a",
        "th"
      ],
      [
        "su",
        "ch"
      ],
      [
        "n",
        "ing"
      ],
      [
        "ab",
        "ly"
      ],
      [
        "bel",
        "ie"
      ],
      [
        "ert",
        "ain"
      ],
      [
        "as",
        "on"
      ],
      [
        "ha",
        "pp"
      ],
      [
        "st",
        "ill"
      ],
      [
        "ver",
        "s"
      ],
      [
        "ch",
        "o"
      ],
      [
        "i",
        "an"
      ],
      [
        "c",
        "ou"
      ],
      [
        "m",
        "ay"
      ],
      [
        "t",
        "urn"
      ],
      [
        "g",
        "en"
      ],
      [
        "m",
        "is"
      ],
      [
        "en",
        "se"
      ],
      [
        "at",
        "ing"
      ],
      [
        "the",
        "se"
      ],
      [
        "S",
        "t"
      ],
      [
        "dire",
        "ctor"
      ],
      [
        "fun",
        "ny"
      ],
      [
        "r",
        "or"
      ],
      [
        "ion",
        "s"
      ],
      [
        "po",
        "s"
      ],
      [
        "ne",
        "w"
      ],
      [
        "e",
        "m"
      ],
      [
        "does",
        "n"
      ],
      [
        "actor",
        "s"
      ],
      [
        "go",
        "t"
      ],
      [
        "fri",
        "end"
      ],
      [
        "pre",
        "t"
      ],
      [
        "t",
        "ri"
      ],
      [
        "sc",
        "re"
      ],
      [
        "d",
        "own"
      ],
      [
        "s",
        "to"
      ],
      [
        "g",
        "irl"
      ],
      [
        "im",
        "p"
      ],
      [
        "w",
        "om"
      ],
      [
        "f",
        "am"
      ],
      [
        "watch",
        "ing"
      ],
      [
        "did",
        "n"
      ],
      [
        "i",
        "al"
      ],
      [
        "in",
        "s"
      ],
      [
        "as",
        "h"
      ],
      [
        "f",
        "in"
      ],
      [
        "i",
        "p"
      ],
      [
        "th",
        "ose"
      ],
      [
        "re",
        "d"
      ],
      [
        "at",
        "t"
      ],
      [
        "gu",
        "y"
      ],
      [
        "m",
        "on"
      ],
      [
        "a",
        "z"
      ],
      [
        "or",
        "ig"
      ],
      [
        "wh",
        "ile"
      ],
      [
        "jo",
        "y"
      ],
      [
        "perfor",
        "man"
      ],
      [
        "ent",
        "s"
      ],
      [
        "c",
        "ar"
      ],
      [
        "t",
        "ak"
      ],
      [
        "ro",
        "w"
      ],
      [
        "go",
        "ing"
      ],
      [
        "p",
        "h"
      ],
      [
        "wh",
        "y"
      ],
      [
        "J",
        "o"
      ],
      [
        "year",
        "s"
      ],
      [
        "l",
        "ong"
      ],
      [
        "l",
        "es"
      ],
      [
        "tim",
        "es"
      ],
      [
        "mak",
        "es"
      ],
      [
        "me",
        "m"
      ],
      [
        "at",
        "er"
      ],
      [
        "p",
        "ut"
      ],
      [
        "no",
        "thing"
      ],
      [
        "fe",
        "w"
      ],
      [
        "pro",
        "du"
      ],
      [
        "se",
        "t"
      ],
      [
        "act",
        "ually"
      ],
      [
        "l",
        "augh"
      ],
      [
        "min",
        "ut"
      ],
      [
        "com",
        "ed"
      ],
      [
        "s",
        "ame"
      ],
      [
        "ri",
        "ght"
      ],
      [
        "be",
        "fore"
      ],
      [
        "con",
        "t"
      ],
      [
        "u",
        "al"
      ],
      [
        "A",
        "s"
      ],
      [
        "way",
        "s"
      ],
      [
        "ic",
        "ul"
      ],
      [
        "m",
        "us"
      ],
      [
        "b",
        "it"
      ],
      [
        "*",
        "*"
      ],
      [
        "b",
        "ig"
      ],
      [
        "en",
        "joy"
      ],
      [
        "he",
        "l"
      ],
      [
        "ap",
        "pe"
      ],
      [
        "v",
        "is"
      ],
      [
        "orig",
        "inal"
      ],
      [
        "st",
        "e"
      ],
      [
        "act",
        "ion"
      ],
      [
        "ri",
        "pt"
      ],
      [
        "com",
        "es"
      ],
      [
        "sh",
        "o"
      ],
      [
        "c",
        "ts"
      ],
      [
        "pe",
        "ct"
      ],
      [
        "Y",
        "ou"
      ],
      [
        "com",
        "ple"
      ],
      [
        "re",
        "l"
      ],
      [
        "an",
        "other"
      ],
      [
        "i",
        "a"
      ],
      [
        "s",
        "ing"
      ],
      [
        "wr",
        "it"
      ],
      [
        "re",
        "n"
      ],
      [
        "fe",
        "ct"
      ],
      [
        "su",
        "b"
      ],
      [
        "you",
        "ng"
      ],
      [
        "re",
        "ss"
      ],
      [
        "f",
        "act"
      ],
      [
        "seem",
        "s"
      ],
      [
        "di",
        "ff"
      ],
      [
        "scre",
        "en"
      ],
      [
        "ex",
        "c"
      ],
      [
        "com",
        "m"
      ],
      [
        "th",
        "ought"
      ],
      [
        "ar",
        "ound"
      ],
      [
        "sc",
        "ript"
      ],
      [
        "b",
        "u"
      ],
      [
        "S",
        "o"
      ],
      [
        "h",
        "ard"
      ],
      [
        "p",
        "ar"
      ],
      [
        "en",
        "ough"
      ],
      [
        "c",
        "ome"
      ],
      [
        "h",
        "igh"
      ],
      [
        "pret",
        "ty"
      ],
      [
        "H",
        "ow"
      ],
      [
        "we",
        "en"
      ],
      [
        "ne",
        "ed"
      ],
      [
        "od",
        "y"
      ],
      [
        "li",
        "ght"
      ],
      [
        "ce",
        "pt"
      ],
      [
        "b",
        "or"
      ],
      [
        "h",
        "u"
      ],
      [
        "ci",
        "al"
      ],
      [
        "B",
        "r"
      ],
      [
        "ic",
        "ally"
      ],
      [
        "s",
        "a"
      ],
      [
        "k",
        "ind"
      ],
      [
        "in",
        "v"
      ],
      [
        "p",
        "or"
      ],
      [
        "m",
        "ind"
      ],
      [
        "qu",
        "ite"
      ],
      [
        "hor",
        "ror"
      ],
      [
        "c",
        "le"
      ],
      [
        "Wh",
        "at"
      ],
      [
        "thing",
        "s"
      ],
      [
        "be",
        "g"
      ],
      [
        "ate",
        "ly"
      ],
      [
        "f",
        "ar"
      ],
      [
        "in",
        "ce"
      ],
      [
        "re",
        "ason"
      ],
      [
        "for",
        "t"
      ],
      [
        "t",
        "en"
      ],
      [
        "g",
        "ive"
      ],
      [
        "le",
        "t"
      ],
      [
        "k",
        "id"
      ],
      [
        "ge",
        "ts"
      ],
      [
        "s",
        "m"
      ],
      [
        "t",
        "ell"
      ],
      [
        "per",
        "son"
      ],
      [
        "wor",
        "ld"
      ],
      [
        "st",
        "er"
      ],
      [
        "n",
        "er"
      ],
      [
        "w",
        "ar"
      ],
      [
        "interest",
        "ing"
      ],
      [
        "ing",
        "s"
      ],
      [
        "c",
        "are"
      ],
      [
        "w",
        "ard"
      ],
      [
        "se",
        "x"
      ],
      [
        "le",
        "ast"
      ],
      [
        "S",
        "he"
      ],
      [
[...]
