{
  "version": "1.0",
  "truncation": null,
  "padding": null,
  "added_tokens": [
    {
      "id": 0,
      "content": "[UNK]",
      "single_word": false,
      "lstrip": false,
      "rstrip": false,
      "normalized": false,
      "special": true
    },
    {
      "id": 1,
      "content": "[PAD]",
      "single_word": false,
      "lstrip": false,
      "rstrip": false,
      "normalized": false,
      "special": true
    }
  ],
  "normalizer": null,
  "pre_tokenizer": {
    "type": "Whitespace"
  },
  "post_processor": null,
  "decoder": null,
  "model": {
    "type": "BPE",
    "dropout": null,
    "unk_token": "[UNK]",
    "continuing_subword_prefix": null,
    "end_of_word_suffix": null,
    "fuse_unk": false,
    "byte_fallback": false,
    "ignore_merges": false,
    "vocab": {
      "[UNK]": 0,
      "[PAD]": 1,
      "!": 2,
      "\"": 3,
      "$": 4,
      "&": 5,
      "'": 6,
      "(": 7,
      ")": 8,
      "*": 9,
      "+": 10,
      ",": 11,
      "-": 12,
      ".": 13,
      "/": 14,
      "0": 15,
      "1": 16,
      "2": 17,
      "3": 18,
      "4": 19,
      "5": 20,
      "6": 21,
      "7": 22,
      "8": 23,
      "9": 24,
      ":": 25,
      ";": 26,
      "?": 27,
      "A": 28,
      "B": 29,
      "C": 30,
      "D": 31,
      "E": 32,
      "F": 33,
      "G": 34,
      "H": 35,
      "I": 36,
      "J": 37,
      "K": 38,
      "L": 39,
      "M": 40,
      "N": 41,
      "O": 42,
      "P": 43,
      "Q": 44,
      "R": 45,
      "S": 46,
      "T": 47,
      "U": 48,
      "V": 49,
      "W": 50,
      "X": 51,
      "Y": 52,
      "Z": 53,
      "a": 54,
      "b": 55,
      "c": 56,
      "d": 57,
      "e": 58,
      "f": 59,
      "g": 60,
      "h": 61,
      "i": 62,
      "j": 63,
      "k": 64,
      "l": 65,
      "m": 66,
      "n": 67,
      "o": 68,
      "p": 69,
      "q": 70,
      "r": 71,
      "s": 72,
      "t": 73,
      "u": 74,
      "v": 75,
      "w": 76,
      "x": 77,
      "y": 78,
      "z": 79,
      "¡": 80,
      "¦": 81,
      "©": 82,
      "«": 83,
      "±": 84,
      "³": 85,
      "»": 86,
      "Â": 87,
      "Ã": 88,
      "â": 89,
      "œ": 90,
      "˜": 91,
      "“": 92,
      "”": 93,
      "€": 94,
      "™": 95,
      "he": 96,
      "an": 97,
      "the": 98,
      "ed": 99,
      "and": 100,
      "to": 101,
      "in": 102,
      "re": 103,
      "ou": 104,
      "wa": 105,
      "it": 106,
      "ha": 107,
      "er": 108,
      "was": 109,
      "om": 110,
      "en": 111,
      "on": 112,
      "ar": 113,
      "The": 114,
      "is": 115,
      "il": 116,
      "ing": 117,
      "sa": 118,
      "id": 119,
      "ay": 120,
      "le": 121,
      "im": 122,
      "lo": 123,
      "al": 124,
      "st": 125,
      "or": 126,
      "her": 127,
      "He": 128,
      "She": 129,
      "ir": 130,
      "They": 131,
      "th": 132,
      "be": 133,
      "ne": 134,
      "hat": 135,
      "ver": 136,
      "ut": 137,
      "se": 138,
      "ke": 139,
      "at": 140,
      "no": 141,
      "ily": 142,
      "ck": 143,
      "ld": 144,
      "am": 145,
      "ce": 146,
      "said": 147,
      "ve": 148,
      "ig": 149,
      "she": 150,
      "pl": 151,
      "Lily": 152,
      "ith": 153,
      "with": 154,
      "pp": 155,
      "ri": 156,
      "his": 157,
      "of": 158,
      "ad": 159,
      "you": 160,
      "un": 161,
      "ked": 162,
      "day": 163,
      "so": 164,
      "ly": 165,
      "we": 166,
      "very": 167,
      "ome": 168,
      "li": 169,
      "my": 170,
      "that": 171,
      "up": 172,
      "ow": 173,
      "go": 174,
      "ant": 175,
      "play": 176,
      "es": 177,
      "as": 178,
      "ch": 179,
      "had": 180,
      "mom": 181,
      "they": 182,
      "for": 183,
      "el": 184,
      "nd": 185,
      "end": 186,
      "all": 187,
      "ould": 188,
      "bo": 189,
      "happ": 190,
      "ent": 191,
      "itt": 192,
      "want": 193,
      "are": 194,
      "ge": 195,
      "ok": 196,
      "tim": 197,
      "do": 198,
      "It": 199,
      "out": 200,
      "not": 201,
      "ro": 202,
      "ther": 203,
      "ound": 204,
      "ittle": 205,
      "time": 206,
      "little": 207,
      "there": 208,
      "big": 209,
      "happy": 210,
      "ry": 211,
      "sh": 212,
      "ht": 213,
      "ra": 214,
      "sm": 215,
      "riend": 216,
      "friend": 217,
      "ys": 218,
      "Tim": 219,
      "saw": 220,
      "but": 221,
      "ake": 222,
      ".\"": 223,
      "ter": 224,
      "One": 225,
      "ack": 226,
      "ul": 227,
      "thing": 228,
      "ide": 229,
      "some": 230,
      "ved": 231,
      "!\"": 232,
      "On": 233,
      "one": 234,
      "ug": 235,
      "Once": 236,
      "were": 237,
      "ho": 238,
      "car": 239,
      "him": 240,
      "fe": 241,
      "Ben": 242,
      "upon": 243,
      "irl": 244,
      "wanted": 245,
      "them": 246,
      "Tom": 247,
      "pe": 248,
      "girl": 249,
      "ful": 250,
      "their": 251,
      "ill": 252,
      "ag": 253,
      "ind": 254,
      "ur": 255,
      "did": 256,
      "co": 257,
      "me": 258,
      "smil": 259,
      "could": 260,
      "have": 261,
      "mo": 262,
      "hen": 263,
      "hel": 264,
      "ex": 265,
      "can": 266,
      "nam": 267,
      "went": 268,
      "But": 269,
      "rom": 270,
      "ted": 271,
      "?\"": 272,
      "od": 273,
      "new": 274,
      "help": 275,
      "friends": 276,
      "fel": 277,
      "Timmy": 278,
      "de": 279,
      "ight": 280,
      "um": 281,
      "hed": 282,
      "ab": 283,
      "fun": 284,
      "way": 285,
      "back": 286,
      "You": 287,
      "like": 288,
      "named": 289,
      "ain": 290,
      "ic": 291,
      "par": 292,
      "too": 293,
      "side": 294,
      "fo": 295,
      "man": 296,
      "ran": 297,
      "loved": 298,
      "po": 299,
      "oug": 300,
      "low": 301,
      "felt": 302,
      "smiled": 303,
      "loo": 304,
      "star": 305,
      "asked": 306,
      "see": 307,
      "et": 308,
      "looked": 309,
      "la": 310,
      "bir": 311,
      "ick": 312,
      "ame": 313,
      "sto": 314,
      "ard": 315,
      "own": 316,
      "around": 317,
      "make": 318,
      "pr": 319,
      "ure": 320,
      "Mom": 321,
      "bird": 322,
      "now": 323,
      "wor": 324,
      "ong": 325,
      "boy": 326,
      "would": 327,
      "gr": 328,
      "fa": 329,
      "ll": 330,
      "other": 331,
      "park": 332,
      "tre": 333,
      ",\"": 334,
      "gether": 335,
      "ca": 336,
      "ade": 337,
      "op": 338,
      "what": 339,
      "ice": 340,
      "away": 341,
      "together": 342,
      "dd": 343,
      "says": 344,
      "came": 345,
      "oud": 346,
      "started": 347,
      "ss": 348,
      "made": 349,
      "ts": 350,
      "put": 351,
      "sad": 352,
      "something": 353,
      "ited": 354,
      "na": 355,
      "look": 356,
      "got": 357,
      "get": 358,
      "ue": 359,
      "from": 360,
      "again": 361,
      "home": 362,
      "us": 363,
      "good": 364,
      "scar": 365,
      "exc": 366,
      "if": 367,
      "ried": 368,
      "ach": 369,
      "found": 370,
      "who": 371,
      "wal": 372,
      "ie": 373,
      "pped": 374,
      "ought": 375,
      "br": 376,
      "playing": 377,
      "more": 378,
      "then": 379,
      "hug": 380,
      "when": 381,
      "dec": 382,
      "ep": 383,
      "uch": 384,
      "ave": 385,
      "ust": 386,
      "king": 387,
      "ci": 388,
      "things": 389,
      "ally": 390,
      "by": 391,
      "ous": 392,
      "liked": 393,
      "ny": 394,
      "dog": 395,
      "use": 396,
      "der": 397,
      "excited": 398,
      "care": 399,
      "your": 400,
      "every": 401,
      "ouse": 402,
      "decid": 403,
      "ara": 404,
      "Sam": 405,
      "down": 406,
      "An": 407,
      "decided": 408,
      "ax": 409,
      "We": 410,
      "find": 411,
      "dad": 412,
      "uck": 413,
      "pre": 414,
      "take": 415,
      "jo": 416,
      "than": 417,
      "feel": 418,
      "scared": 419,
      "ways": 420,
      "ang": 421,
      "Max": 422,
      "ate": 423,
      "arn": 424,
      "ac": 425,
      "sha": 426,
      "udd": 427,
      "tree": 428,
      "will": 429,
      "spe": 430,
      "toys": 431,
      "our": 432,
      "Sara": 433,
      "didn": 434,
      "clo": 435,
      "took": 436,
      "ite": 437,
      "Anna": 438,
      "always": 439,
      "about": 440,
      "wo": 441,
      "ers": 442,
      "know": 443,
      "mommy": 444,
      "ma": 445,
      "thought": 446,
      "here": 447,
      "bed": 448,
      "te": 449,
      "outside": 450,
      "learn": 451,
      "So": 452,
      "ise": 453,
      "sor": 454,
      "room": 455,
      "ty": 456,
      "cat": 457,
      "ive": 458,
      "old": 459,
      "wh": 460,
      "qu": 461,
      "ened": 462,
      "laug": 463,
      "ball": 464,
      "ged": 465,
      "Her": 466,
      "When": 467,
      "fore": 468,
      "any": 469,
      "pa": 470,
      "red": 471,
      "fter": 472,
      "ol": 473,
      "house": 474,
      "run": 475,
      "Jo": 476,
      "toy": 477,
      "bu": 478,
      "come": 479,
      "knew": 480,
      "udden": 481,
      "ish": 482,
      "how": 483,
      "cial": 484,
      "special": 485,
      "bl": 486,
      "never": 487,
      "sw": 488,
      "show": 489,
      "ist": 490,
      "ia": 491,
      "sorry": 492,
      "tr": 493,
      "uddenly": 494,
      "much": 495,
      "Jack": 496,
      "careful": 497,
      "rd": 498,
      "sun": 499,
      "cre": 500,
      "dre": 501,
      "ink": 502,
      "gave": 503,
      "told": 504,
      "lf": 505,
      "cle": 506,
      "ven": 507,
      "hand": 508,
      "able": 509,
      "long": 510,
      "box": 511,
      "sk": 512,
      "played": 513,
      "ta": 514,
      "into": 515,
      "water": 516,
      "love": 517,
      "tter": 518,
      "Every": 519,
      "tried": 520,
      "eat": 521,
      "proud": 522,
      "cl": 523,
      "inside": 524,
      "over": 525,
      "gre": 526,
      "sp": 527,
      "rab": 528,
      "Let": 529,
      "Mia": 530,
      "couldn": 531,
      "cause": 532,
      "dy": 533,
      "uc": 534,
      "pick": 535,
      "From": 536,
      "heard": 537,
      "hugged": 538,
      "fly": 539,
      "ear": 540,
      "ion": 541,
      "Suddenly": 542,
      "pret": 543,
      "need": 544,
      "each": 545,
      "ump": 546,
      "wat": 547,
      "led": 548,
      "this": 549,
      "because": 550,
      "just": 551,
      "And": 552,
      "flow": 553,
      "many": 554,
      "His": 555,
      "che": 556,
      "nice": 557,
      "ile": 558,
      "Then": 559,
      "small": 560,
      "unt": 561,
      "com": 562,
      "try": 563,
      "iz": 564,
      "exp": 565,
      "imal": 566,
      "shin": 567,
      "ct": 568,
      "ber": 569,
      "lad": 570,
      "animal": 571,
      "That": 572,
      "ving": 573,
      "off": 574,
      "pot": 575,
      "ble": 576,
      "learned": 577,
      "read": 578,
      "ket": 579,
      "bear": 580,
      "ough": 581,
      "better": 582,
      "its": 583,
      "per": 584,
      "self": 585,
      "hur": 586,
      "call": 587,
      "until": 588,
      "Yes": 589,
      "fast": 590,
      "kind": 591,
      "bea": 592,
      "bit": 593,
      "fi": 594,
      "don": 595,
      "What": 596,
      "best": 597,
      "urn": 598,
      "say": 599,
      "fle": 600,
      "ass": 601,
      "ank": 602,
      "bra": 603,
      "vent": 604,
      "thanked": 605,
      "explo": 606,
      "where": 607,
      "laughed": 608,
      "let": 609,
      "even": 610,
      "sky": 611,
      "beaut": 612,
      "rong": 613,
      "jump": 614,
      "yes": 615,
      "Can": 616,
      "list": 617,
      "rain": 618,
      "under": 619,
      "gard": 620,
      "garden": 621,
      "safe": 622,
      "ace": 623,
      "ell": 624,
      "still": 625,
      "loud": 626,
      "ob": 627,
      "pt": 628,
      "fin": 629,
      "nt": 630,
      "iful": 631,
      "Mommy": 632,
      "lots": 633,
      "beautiful": 634,
      "sur": 635,
      "ched": 636,
      "joy": 637,
      "animals": 638,
      "Th": 639,
      "give": 640,
      "lived": 641,
      "fam": 642,
      "pu": 643,
      "As": 644,
      "ama": 645,
      "book": 646,
      "hn": 647,
      "John": 648,
      "igh": 649,
      "Thank": 650,
      "ning": 651,
      "won": 652,
      "ground": 653,
      "both": 654,
      "hurt": 655,
      "turn": 656,
      "ree": 657,
      "cks": 658,
      "After": 659,
      "brave": 660,
      "stay": 661,
      "has": 662,
      "flew": 663,
      "hard": 664,
      "No": 665,
      "Luc": 666,
      "bad": 667,
      "doll": 668,
      "should": 669,
      "Lucy": 670,
      "ine": 671,
      "ook": 672,
      "ople": 673,
      "angry": 674,
      "called": 675,
      "two": 676,
      "app": 677,
      "ished": 678,
      "con": 679,
      "ru": 680,
      "sl": 681,
      "lea": 682,
      "pic": 683,
      "clean": 684,
      "walked": 685,
      "keep": 686,
      "rm": 687,
      "ting": 688,
      "share": 689,
      "ort": 690,
      "family": 691,
      "people": 692,
      "dra": 693,
      "surpr": 694,
      "far": 695,
      "Bob": 696,
      "clos": 697,
      "illy": 698,
      "soon": 699,
      "pretty": 700,
      "shiny": 701,
      "place": 702,
      "ane": 703,
      "ummy": 704,
      "kept": 705,
      "wind": 706,
      "bro": 707,
      "going": 708,
      "door": 709,
      "real": 710,
      "cu": 711,
      "imp": 712,
      "ture": 713,
      "nodd": 714,
      "ised": 715,
      "noise": 716,
      "ild": 717,
      "mor": 718,
      "ask": 719,
      "lot": 720,
      "ste": 721,
      "nodded": 722,
      "opened": 723,
      "explore": 724,
      "feeling": 725,
      "advent": 726,
      "truck": 727,
      "cry": 728,
      "colo": 729,
      "while": 730,
      "Sue": 731,
      "before": 732,
      "ied": 733,
      "tal": 734,
      "color": 735,
      "fish": 736,
      "aybe": 737,
      "clim": 738,
      "hear": 739,
      "set": 740,
      "nex": 741,
      "also": 742,
      "picked": 743,
      "weet": 744,
      "idea": 745,
      "Dad": 746,
      "thr": 747,
      "picture": 748,
      "face": 749,
      "next": 750,
      "mber": 751,
      "ess": 752,
      "right": 753,
      "walk": 754,
      "€™": 755,
      "listen": 756,
      "blo": 757,
      "Do": 758,
      "walking": 759,
      "smile": 760,
      "iced": 761,
      "work": 762,
      "less": 763,
      "member": 764,
      "ak": 765,
      "night": 766,
      "being": 767,
      "adventure": 768,
      "ark": 769,
      "looking": 770,
      "stopped": 771,
      "head": 772,
      "slide": 773,
      "eyes": 774,
      "used": 775,
      "ies": 776,
      "after": 777,
      "wait": 778,
      "flowers": 779,
      "Look": 780,
      "ught": 781,
      "blue": 782,
      "ever": 783,
      "hair": 784,
      "food": 785,
      "great": 786,
      "hands": 787,
      "watch": 788,
      "dif": 789,
      "remember": 790,
      "enjoy": 791,
      "think": 792,
      "dis": 793,
      "swing": 794,
      "This": 795,
      "grab": 796,
      "repl": 797,
      "strong": 798,
      "wonder": 799,
      "vo": 800,
      "lie": 801,
      "Spot": 802,
      "amaz": 803,
      "okay": 804,
      "noticed": 805,
      "stick": 806,
      "sound": 807,
      "boat": 808,
      "mon": 809,
      "llow": 810,
      "irst": 811,
      "Maybe": 812,
      "sing": 813,
      "cho": 814,
      "shout": 815,
      "cook": 816,
      "bye": 817,
      "ized": 818,
      "replied": 819,
      "near": 820,
      "forest": 821,
      "year": 822,
      "showed": 823,
      "ring": 824,
      "les": 825,
      "cake": 826,
      "mean": 827,
      "quick": 828,
      "ner": 829,
      "ff": 830,
      "follow": 831,
      "lease": 832,
      "dan": 833,
      "tell": 834,
      "ph": 835,
      "high": 836,
      "sho": 837,
      "tor": 838,
      "bow": 839,
      "gan": 840,
      "leave": 841,
      "became": 842,
      "cou": 843,
      "import": 844,
      "rest": 845,
      "ip": 846,
      "ries": 847,
      "everyone": 848,
      "important": 849,
      "andma": 850,
      "Jane": 851,
      "oft": 852,
      "curi": 853,
      "fere": 854,
      "ila": 855,
      "fl": 856,
      "store": 857,
      "laugh": 858,
      "differe": 859,
      "voice": 860,
      "top": 861,
      "pul": 862,
      "does": 863,
      "mag": 864,
      "watched": 865,
      "bright": 866,
      "Lila": 867,
      "stand": 868,
      "closer": 869,
      "pain": 870,
      "curious": 871,
      "ward": 872,
      "anymore": 873,
      "been": 874,
      "quickly": 875,
      "flower": 876,
      "open": 877,
      "bre": 878,
      "tin": 879,
      "ung": 880,
      "cream": 881,
      "leep": 882,
      "goodbye": 883,
      "sure": 884,
      "fire": 885,
      "sn": 886,
      "different": 887,
      "ond": 888,
      "cket": 889,
      "warm": 890,
      "rabbit": 891,
      "bor": 892,
      "dress": 893,
      "ired": 894,
      "yel": 895,
      "story": 896,
      "ached": 897,
      "mis": 898,
      "draw": 899,
      "ready": 900,
      "Hel": 901,
      "first": 902,
      "tow": 903,
      "fav": 904,
      "tw": 905,
      "helped": 906,
      "fell": 907,
      "Don": 908,
      "bal": 909,
      "butter": 910,
      "flo": 911,
      "ash": 912,
      "kit": 913,
      "table": 914,
      "cut": 915,
      "isy": 916,
      "three": 917,
      "ft": 918,
      "sees": 919,
      "Sarah": 920,
      "light": 921,
      "times": 922,
      "cr": 923,
      "brother": 924,
      "ered": 925,
      "uff": 926,
      "chen": 927,
      "jumped": 928,
      "kitchen": 929,
      "Joe": 930,
      "air": 931,
      "In": 932,
      "pare": 933,
      "dro": 934,
      "kid": 935,
      "prin": 936,
      "only": 937,
      "stop": 938,
      "happened": 939,
      "din": 940,
      "game": 941,
      "birds": 942,
      "zy": 943,
      "soft": 944,
      "glad": 945,
      "ster": 946,
      "pie": 947,
      "sweet": 948,
      "Wh": 949,
      "med": 950,
      "Everyone": 951,
      "unny": 952,
      "olly": 953,
      "deli": 954,
      "sand": 955,
      "having": 956,
      "squ": 957,
      "ins": 958,
      "world": 959,
      "blocks": 960,
      "grass": 961,
      "reached": 962,
      "fr": 963,
      "Wow": 964,
      "key": 965,
      "lady": 966,
      "grabbed": 967,
      "shed": 968,
      "shouted": 969,
      "que": 970,
      "yummy": 971,
      "wel": 972,
      "rock": 973,
      "mer": 974,
      "through": 975,
      "fro": 976,
      "ater": 977,
      "cold": 978,
      "Now": 979,
      "name": 980,
      "done": 981,
      "realized": 982,
      "favor": 983,
      "coming": 984,
      "cried": 985,
      "favorite": 986,
      "ped": 987,
      "col": 988,
      "worry": 989,
      "tired": 990,
      "really": 991,
      "magic": 992,
      "ds": 993,
      "pond": 994,
      "green": 995,
      "ba": 996,
      "waved": 997,
      "mum": 998,
      "began": 999,
      "funny": 1000,
      "Benny": 1001,
      "ike": 1002,
      "looks": 1003,
      "fill": 1004,
      "aisy": 1005,
      "catch": 1006,
      "kids": 1007,
      "seen": 1008,
      "ary": 1009,
      "move": 1010,
      "another": 1011,
      "pretend": 1012,
      "mess": 1013,
      "fix": 1014,
      "There": 1015,
      "hole": 1016,
      "himself": 1017,
      "making": 1018,
      "Sally": 1019,
      "touch": 1020,
      "nts": 1021,
      "age": 1022,
      "hind": 1023,
      "bag": 1024,
      "cked": 1025,
      "cool": 1026,
      "parents": 1027,
      "Fin": 1028,
      "tra": 1029,
      "paper": 1030,
      "climb": 1031,
      "prom": 1032,
      "bunny": 1033,
      "pet": 1034,
      "swim": 1035,
      "behind": 1036,
      "ppy": 1037,
      "yellow": 1038,
      "piece": 1039,
      "frog": 1040,
      "ons": 1041,
      "cast": 1042,
      "bar": 1043,
      "cor": 1044,
      "surprise": 1045,
      "dark": 1046,
      "mar": 1047,
      "running": 1048,
      "trees": 1049,
      "yard": 1050,
      "wished": 1051,
      "To": 1052,
      "hopped": 1053,
      "why": 1054,
      "sleep": 1055,
      "hold": 1056,
      "wood": 1057,
      "pro": 1058,
      "happily": 1059,
      "oney": 1060,
      "dri": 1061,
      "likes": 1062,
      "cars": 1063,
      "worked": 1064,
      "full": 1065,
      "thank": 1066,
      "Daisy": 1067,
      "remembered": 1068,
      "lost": 1069,
      "sat": 1070,
      "rel": 1071,
      "turned": 1072,
      "ation": 1073,
      "ued": 1074,
      "close": 1075,
      "Tommy": 1076,
      "Hello": 1077,
      "slow": 1078,
      "mouse": 1079,
      "ple": 1080,
      "Em": 1081,
      "ger": 1082,
      "dream": 1083,
      "floor": 1084,
      "bug": 1085,
      "ign": 1086,
      "wear": 1087,
      "buy": 1088,
      "Billy": 1089,
      "years": 1090,
      "duck": 1091,
      "butterfly": 1092,
      "bot": 1093,
      "snow": 1094,
      "needed": 1095,
      "enjoyed": 1096,
      "ens": 1097,
      "cla": 1098,
      "At": 1099,
      "oo": 1100,
      "hill": 1101,
      "arm": 1102,
      "stre": 1103,
      "spo": 1104,
      "build": 1105,
      "left": 1106,
      "lesson": 1107,
      "hid": 1108,
      "tle": 1109,
      "carefully": 1110,
      "andy": 1111,
      "window": 1112,
      "Molly": 1113,
      "doing": 1114,
      "\".": 1115,
      "anything": 1116,
      "tall": 1117,
      "held": 1118,
      "fair": 1119,
      "followed": 1120,
      "gu": 1121,
      "uffy": 1122,
      "mou": 1123,
      "contin": 1124,
      "herself": 1125,
      "stran": 1126,
      "cious": 1127,
      "please": 1128,
      "hung": 1129,
      "finished": 1130,
      "wrong": 1131,
      "friendly": 1132,
      "asure": 1133,
      "arri": 1134,
      "vis": 1135,
      "Jen": 1136,
      "reed": 1137,
      "surprised": 1138,
      "cess": 1139,
      "ient": 1140,
      "Jim": 1141,
      "race": 1142,
      "lion": 1143,
      "cra": 1144,
      "Finally": 1145,
      "gent": 1146,
      "ings": 1147,
      "castle": 1148,
      "dir": 1149,
      "ield": 1150,
      "song": 1151,
      "agreed": 1152,
      "grandma": 1153,
      "understand": 1154,
      "delicious": 1155,
      "chil": 1156,
      "oken": 1157,
      "mother": 1158,
      "wonderful": 1159,
      "tail": 1160,
      "Why": 1161,
      "wants": 1162,
      "continued": 1163,
      "land": 1164,
      "dren": 1165,
      "wards": 1166,
      "might": 1167,
      "tight": 1168,
      "gon": 1169,
      "spot": 1170,
      "ross": 1171,
      "colors": 1172,
      "books": 1173,
      "children": 1174,
      "hot": 1175,
      "OK": 1176,
      "erous": 1177,
      "arrived": 1178,
      "dinner": 1179,
      "makes": 1180,
      "broken": 1181,
      "av": 1182,
      "em": 1183,
      "mat": 1184,
      "ined": 1185,
      "mus": 1186,
      "gone": 1187,
      "leaves": 1188,
      "filled": 1189,
      "most": 1190,
      "aby": 1191,
      "Go": 1192,
      "ather": 1193,
      "forgot": 1194,
      "creat": 1195,
      "tri": 1196,
      "sit": 1197,
      "poin": 1198,
      "scary": 1199,
      "Come": 1200,
      "someone": 1201,
      "train": 1202,
      "moment": 1203,
      "art": 1204,
      "Amy": 1205,
      "asks": 1206,
      "fall": 1207,
      "pat": 1208,
      "ballo": 1209,
      "cha": 1210,
      "ced": 1211,
      "getting": 1212,
      "pictures": 1213,
      "icy": 1214,
      "fight": 1215,
      "others": 1216,
      "wet": 1217,
      "Jill": 1218,
      "row": 1219,
      "tast": 1220,
      "else": 1221,
      "roll": 1222,
      "cookies": 1223,
      "gl": 1224,
      "ze": 1225,
      "smiles": 1226,
      "break": 1227,
      "white": 1228,
      "whe": 1229,
      "ves": 1230,
      "cover": 1231,
      "morning": 1232,
      "hungry": 1233,
      "pink": 1234,
      "oup": 1235,
      "enough": 1236,
      "met": 1237,
      "Gr": 1238,
      "talk": 1239,
      "dr": 1240,
      "daddy": 1241,
      "kay": 1242,
      "thes": 1243,
      "ious": 1244,
      "ub": 1245,
      "trying": 1246,
      "amazing": 1247,
      "music": 1248,
      "bike": 1249,
      "sail": 1250,
      "clothes": 1251,
      "climbed": 1252,
      "fect": 1253,
      "ot": 1254,
      "few": 1255,
      "squir": 1256,
      "brought": 1257,
      "listened": 1258,
      "Some": 1259,
      "ose": 1260,
      "Be": 1261,
      "ton": 1262,
      "spl": 1263,
      "ud": 1264,
      "sometimes": 1265,
      "perfect": 1266,
      "finally": 1267,
      "puppy": 1268,
      "silly": 1269,
      "squirrel": 1270,
      "pack": 1271,
      "beach": 1272,
      "mi": 1273,
      "waited": 1274,
      "ps": 1275,
      "Oh": 1276,
      "je": 1277,
      "everything": 1278,
      "fur": 1279,
      "ride": 1280,
      "teddy": 1281,
      "ucky": 1282,
      "dang": 1283,
      "hide": 1284,
      "wall": 1285,
      "pes": 1286,
      "alone": 1287,
      "gg": 1288,
      "ence": 1289,
      "grow": 1290,
      "zz": 1291,
      "stayed": 1292,
      "ange": 1293,
      "wasn": 1294,
      "strange": 1295,
      "lake": 1296,
      "ctor": 1297,
      "plain": 1298,
      "woods": 1299,
      "ated": 1300,
      "baby": 1301,
      "flying": 1302,
      "amazed": 1303,
      "pen": 1304,
      "ance": 1305,
      "deep": 1306,
      "fox": 1307,
      "sear": 1308,
      "towards": 1309,
      "thy": 1310,
      "pping": 1311,
      "bath": 1312,
      "Fl": 1313,
      "bus": 1314,
      "sis": 1315,
      "pulled": 1316,
      "cloud": 1317,
      "spark": 1318,
      "board": 1319,
      "appear": 1320,
      "whis": 1321,
      "dance": 1322,
      "moral": 1323,
      "Fluffy": 1324,
      "af": 1325,
      "Soon": 1326,
      "pur": 1327,
      "All": 1328,
      "bran": 1329,
      "gi": 1330,
      "cup": 1331,
      "ises": 1332,
      "doctor": 1333,
      "job": 1334,
      "thinks": 1335,
      "Okay": 1336,
      "sister": 1337,
      "ames": 1338,
      "bigger": 1339,
      "visit": 1340,
      "treasure": 1341,
      "wr": 1342,
      "grate": 1343,
      "living": 1344,
      "grateful": 1345,
      "field": 1346,
      "party": 1347,
      "promised": 1348,
      "heav": 1349,
      "ses": 1350,
      "mouth": 1351,
      "worried": 1352,
      "runs": 1353,
      "shared": 1354,
      "balloon": 1355,
      "candy": 1356,
      "ju": 1357,
      "dolls": 1358,
      "hor": 1359,
      "pers": 1360,
      "blan": 1361,
      "gif": 1362,
      "money": 1363,
      "helping": 1364,
      "farmer": 1365,
      "pass": 1366,
      "lice": 1367,
      "ment": 1368,
      "slowly": 1369,
      "dragon": 1370,
      "dry": 1371,
      "igg": 1372,
      "hes": 1373,
      "belie": 1374,
      "Hi": 1375,
      "Sure": 1376,
      "black": 1377,
      "tower": 1378,
      "miss": 1379,
      "owner": 1380,
      "everywhere": 1381,
      "join": 1382,
      "treat": 1383,
      "dangerous": 1384,
      "Mama": 1385,
      "carro": 1386,
      "pull": 1387,
      "mix": 1388,
      "heavy": 1389,
      "leph": 1390,
      "faster": 1391,
      "crying": 1392,
      "pieces": 1393,
      "bowl": 1394,
      "princess": 1395,
      "swa": 1396,
      "twins": 1397,
      "Just": 1398,
      "reach": 1399,
      "magical": 1400,
      "mind": 1401,
      "nap": 1402,
      "iss": 1403,
      "ually": 1404,
      "swam": 1405,
      "sign": 1406,
      "words": 1407,
      "ants": 1408,
      "iet": 1409,
      "ap": 1410,
      "smel": 1411,
      "Emma": 1412,
      "plan": 1413,
      "colorful": 1414,
      "explain": 1415,
      "stepped": 1416,
      "thre": 1417,
      "Jimmy": 1418,
      "cy": 1419,
      "answ": 1420,
      "dirty": 1421,
      "Grandma": 1422,
      "Mr": 1423,
      "closed": 1424,
      "quiet": 1425,
      "scream": 1426,
      "sy": 1427,
      "such": 1428,
      "unch": 1429,
      "ek": 1430,
      "hig": 1431,
      "ident": 1432,
      "smart": 1433,
      "ourse": 1434,
      "broke": 1435,
      "snack": 1436,
      "chair": 1437,
      "pow": 1438,
      "across": 1439,
      "hoped": 1440,
      "Daddy": 1441,
      "chool": 1442,
      "paint": 1443,
      "school": 1444,
      "heal": 1445,
      "stuck": 1446,
      "cray": 1447,
      "ich": 1448,
      "bee": 1449,
      "neigh": 1450,
      "eating": 1451,
      "takes": 1452,
      "threw": 1453,
      "sea": 1454,
      "monster": 1455,
      "teac": 1456,
      "win": 1457,
      "secre": 1458,
      "must": 1459,
      "same": 1460,
      "feels": 1461,
      "river": 1462,
      "blanket": 1463,
      "sent": 1464,
      "brown": 1465,
      "lone": 1466,
      "ng": 1467,
      "lonely": 1468,
      "start": 1469,
      "Tweet": 1470,
      "nee": 1471,
      "Mary": 1472,
      "welcome": 1473,
      "band": 1474,
      "sc": 1475,
      "without": 1476,
      "press": 1477,
      "iting": 1478,
      "pray": 1479,
      "higher": 1480,
      "free": 1481,
      "kno": 1482,
      "har": 1483,
      "throw": 1484,
      "pushed": 1485,
      "Please": 1486,
      "tent": 1487,
      "town": 1488,
      "well": 1489,
      "shine": 1490,
      "shoes": 1491,
      "course": 1492,
      "Mum": 1493,
      "bite": 1494,
      "noises": 1495,
      "button": 1496,
      "fru": 1497,
      "Their": 1498,
      "gentle": 1499,
      "clapped": 1500,
      "min": 1501,
      "acc": 1502,
      "swings": 1503,
      "bble": 1504,
      "today": 1505,
      "stood": 1506,
      "appeared": 1507,
      "believe": 1508,
      "owl": 1509,
      "ches": 1510,
      "teacher": 1511,
      "round": 1512,
      "comfor": 1513,
      "accident": 1514,
      "shop": 1515,
      "games": 1516,
      "lunch": 1517,
      "ney": 1518,
      "wings": 1519,
      "cheered": 1520,
      "pol": 1521,
      "pper": 1522,
      "stead": 1523,
      "sang": 1524,
      "moved": 1525,
      "ire": 1526,
      "bring": 1527,
      "rocks": 1528,
      "shar": 1529,
      "Inside": 1530,
      "drove": 1531,
      "oun": 1532,
      "leg": 1533,
      "fairy": 1534,
      "soup": 1535,
      "longer": 1536,
      "ventually": 1537,
      "apple": 1538,
      "dropped": 1539,
      "del": 1540,
      "bas": 1541,
      "kiss": 1542,
      "plane": 1543,
      "jour": 1544,
      "hugs": 1545,
      "rainbow": 1546,
      "secret": 1547,
      "upset": 1548,
      "explained": 1549,
      "ben": 1550,
      "orange": 1551,
      "caught": 1552,
      "Pe": 1553,
      "rub": 1554,
      "Later": 1555,
      "da": 1556,
      "eleph": 1557,
      "pig": 1558,
      "wish": 1559,
      "happen": 1560,
      "ull": 1561,
      "ible": 1562,
      "My": 1563,
      "wise": 1564,
      "itting": 1565,
      "ship": 1566,
      "mine": 1567,
      "adventures": 1568,
      "heart": 1569,
      "idge": 1570,
      "though": 1571,
      "naught": 1572,
      "kite": 1573,
      "wouldn": 1574,
      "turns": 1575,
      "along": 1576,
      "neck": 1577,
      "fused": 1578,
      "nose": 1579,
      "child": 1580,
      "naughty": 1581,
      "fence": 1582,
      "pra": 1583,
      "itty": 1584,
      "exploring": 1585,
      "seemed": 1586,
      "des": 1587,
      "ours": 1588,
      "basket": 1589,
      "belong": 1590,
      "branch": 1591,
      "past": 1592,
      "woke": 1593,
      "cer": 1594,
      "suddenly": 1595,
      "pocket": 1596,
      "str": 1597,
      "comes": 1598,
      "juice": 1599,
      "late": 1600,
      "stars": 1601,
      "cave": 1602,
      "ming": 1603,
      "backyard": 1604,
      "monkey": 1605,
      "cing": 1606,
      "sick": 1607,
      "ars": 1608,
      "singing": 1609,
      "hit": 1610,
      "smell": 1611,
      "shook": 1612,
      "push": 1613,
      "phone": 1614,
      "pil": 1615,
      "add": 1616,
      "ittens": 1617,
      "taking": 1618,
      "stone": 1619,
      "dist": 1620,
      "driver": 1621,
      "net": 1622,
      "bucket": 1623,
      "trou": 1624,
      "carry": 1625,
      "Good": 1626,
      "young": 1627,
      "nearby": 1628,
      "brea": 1629,
      "su": 1630,
      "amp": 1631,
      "Jenny": 1632,
      "mil": 1633,
      "oom": 1634,
      "erful": 1635,
      "sounds": 1636,
      "mail": 1637,
      "loves": 1638,
      "wondered": 1639,
      "arms": 1640,
      "ser": 1641,
      "nest": 1642,
      "forget": 1643,
      "busy": 1644,
      "laughing": 1645,
      "drink": 1646,
      "hello": 1647,
      "ions": 1648,
      "present": 1649,
      "gift": 1650,
      "touc": 1651,
      "tiny": 1652,
      "sunny": 1653,
      "bench": 1654,
      "mad": 1655,
      "card": 1656,
      "cute": 1657,
      "itch": 1658,
      "count": 1659,
      "Sammy": 1660,
      "boun": 1661,
      "ese": 1662,
      "ntain": 1663,
      "sitting": 1664,
      "relie": 1665,
      "raid": 1666,
      "covered": 1667,
      "ughter": 1668,
      "How": 1669,
      "stories": 1670,
      "afraid": 1671,
      "Of": 1672,
      "cal": 1673,
      "fing": 1674,
      "jar": 1675,
      "itten": 1676,
      "ling": 1677,
      "gged": 1678,
      "days": 1679,
      "cozy": 1680,
      "purple": 1681,
      "danced": 1682,
      "patient": 1683,
      "os": 1684,
      "quest": 1685,
      "snowman": 1686,
      "daughter": 1687,
      "touched": 1688,
      "num": 1689,
      "body": 1690,
      "eas": 1691,
      "wra": 1692,
      "craw": 1693,
      "mach": 1694,
      "gives": 1695,
      "creature": 1696,
      "ier": 1697,
      "att": 1698,
      "sug": 1699,
      "ush": 1700,
      "shapes": 1701,
      "sunshine": 1702,
      "milk": 1703,
      "ase": 1704,
      "ian": 1705,
      "cir": 1706,
      "chas": 1707,
      "val": 1708,
      "letter": 1709,
      "part": 1710,
      "pudd": 1711,
      "Hey": 1712,
      "nothing": 1713,
      "roar": 1714,
      "exciting": 1715,
      "swimming": 1716,
      "life": 1717,
      "bottle": 1718,
      "spoon": 1719,
      "accidentally": 1720,
      "watching": 1721,
      "fan": 1722,
      "thday": 1723,
      "shes": 1724,
      "bush": 1725,
      "elephant": 1726,
      "egg": 1727,
      "wand": 1728,
      "fit": 1729,
      "log": 1730,
      "bled": 1731,
      "Mittens": 1732,
      "bought": 1733,
      "ye": 1734,
      "hope": 1735,
      "path": 1736,
      "holding": 1737,
      "neighbor": 1738,
      "inte": 1739,
      "instead": 1740,
      "farm": 1741,
      "coun": 1742,
      "interest": 1743,
      "sli": 1744,
      "grand": 1745,
      "relieved": 1746,
      "gigg": 1747,
      "ize": 1748,
      "ness": 1749,
      "ugg": 1750,
      "gen": 1751,
      "live": 1752,
      "street": 1753,
      "imag": 1754,
      "splash": 1755,
      "birthday": 1756,
      "respe": 1757,
      "crayons": 1758,
      "lucky": 1759,
      "tun": 1760,
      "anyone": 1761,
      "journey": 1762,
      "road": 1763,
      "cheese": 1764,
      "smelled": 1765,
      "pract": 1766,
      "vill": 1767,
      "peace": 1768,
      "tasty": 1769,
      "sco": 1770,
      "rolled": 1771,
      "Ted": 1772,
      "gest": 1773,
      "wash": 1774,
      "coat": 1775,
      "Mummy": 1776,
      "sharp": 1777,
      "Where": 1778,
      "kick": 1779,
      "vel": 1780,
      "smiling": 1781,
      "forever": 1782,
      "write": 1783,
      "Kitty": 1784,
      "hu": 1785,
      "lect": 1786,
      "promise": 1787,
      "pointed": 1788,
      "searched": 1789,
      "Le": 1790,
      "onto": 1791,
      "Are": 1792,
      "feather": 1793,
      "knee": 1794,
      "uni": 1795,
      "storm": 1796,
      "huge": 1797,
      "foot": 1798,
      "seek": 1799,
      "talked": 1800,
      "wave": 1801,
      "irt": 1802,
      "puzz": 1803,
      "comfortable": 1804,
      "coin": 1805,
      "healthy": 1806,
      "organ": 1807,
      "act": 1808,
      "blem": 1809,
      "With": 1810,
      "di": 1811,
      "later": 1812,
      "problem": 1813,
      "respect": 1814,
      "word": 1815,
      "couch": 1816,
      "war": 1817,
      "dest": 1818,
      "Together": 1819,
      "Sometimes": 1820,
      "person": 1821,
      "fron": 1822,
      "El": 1823,
      "ned": 1824,
      "sack": 1825,
      "zoom": 1826,
      "puts": 1827,
      "apples": 1828,
      "tasted": 1829,
      "front": 1830,
      "teach": 1831,
      "clouds": 1832,
      "gather": 1833,
      "rope": 1834,
      "eag": 1835,
      "interesting": 1836,
      "Re": 1837,
      "gently": 1838,
      "honey": 1839,
      "inv": 1840,
      "test": 1841,
      "Emily": 1842,
      "bread": 1843,
      "cow": 1844,
      "suc": 1845,
      "myster": 1846,
      "whole": 1847,
      "places": 1848,
      "sandw": 1849,
      "nic": 1850,
      "step": 1851,
      "cean": 1852,
      "ocean": 1853,
      "helpful": 1854,
      "building": 1855,
      "lay": 1856,
      "wide": 1857,
      "wild": 1858,
      "asleep": 1859,
      "hop": 1860,
      "izz": 1861,
      "snake": 1862,
      "screamed": 1863,
      "ife": 1864,
      "impress": 1865,
      "bel": 1866,
      "spicy": 1867,
      "prote": 1868,
      "res": 1869,
      "meet": 1870,
      "lovely": 1871,
      "spid": 1872,
      "finish": 1873,
      "waiting": 1874,
      "corn": 1875,
      "oven": 1876,
      "zoo": 1877,
      "pool": 1878,
      "shelf": 1879,
      "forgive": 1880,
      "joke": 1881,
      "slid": 1882,
      "pretended": 1883,
      "wheel": 1884,
      "nut": 1885,
      "cage": 1886,
      "wearing": 1887,
      "lar": 1888,
      "pill": 1889,
      "ute": 1890,
      "talking": 1891,
      "trouble": 1892,
      "shell": 1893,
      "goes": 1894,
      "worm": 1895,
      "shining": 1896,
      "pile": 1897,
      "stir": 1898,
      "thin": 1899,
      "ching": 1900,
      "ladder": 1901,
      "faces": 1902,
      "aser": 1903,
      "confused": 1904,
      "ast": 1905,
      "gun": 1906,
      "era": 1907,
      "fli": 1908,
      "mud": 1909,
      "scre": 1910,
      "wom": 1911,
      "pan": 1912,
      "isa": 1913,
      "spit": 1914,
      "barr": 1915,
      "delight": 1916,
      "last": 1917,
      "embarr": 1918,
      "Peter": 1919,
      "woman": 1920,
      "If": 1921,
      "plant": 1922,
      "which": 1923,
      "spent": 1924,
      "ducks": 1925,
      "songs": 1926,
      "robot": 1927,
      "cele": 1928,
      "chick": 1929,
      "giant": 1930,
      "horse": 1931,
      "chocol": 1932,
      "circle": 1933,
      "orm": 1934,
      "feet": 1935,
      "puddle": 1936,
      "shy": 1937,
      "trust": 1938,
      "corner": 1939,
      "village": 1940,
      "embarrass": 1941,
      "gy": 1942,
      "getable": 1943,
      "blew": 1944,
      "Lisa": 1945,
      "tur": 1946,
      "vegetable": 1947,
      "clever": 1948,
      "tomor": 1949,
      "rank": 1950,
      "carrot": 1951,
      "tomorrow": 1952,
      "lock": 1953,
      "Help": 1954,
      "den": 1955,
      "eth": 1956,
      "cop": 1957,
      "fold": 1958,
      "cloth": 1959,
      "eventually": 1960,
      "ert": 1961,
      "tool": 1962,
      "berries": 1963,
      "spotted": 1964,
      "chocolate": 1965,
      "ee": 1966,
      "kitten": 1967,
      "fixed": 1968,
      "celebr": 1969,
      "colour": 1970,
      "hiding": 1971,
      "While": 1972,
      "uce": 1973,
      "drive": 1974,
      "ipped": 1975,
      "seat": 1976,
      "shirt": 1977,
      "teeth": 1978,
      "pour": 1979,
      "lemon": 1980,
      "matter": 1981,
      "string": 1982,
      "kets": 1983,
      "taste": 1984,
      "spin": 1985,
      "stret": 1986,
      "fruit": 1987,
      "shr": 1988,
      "Ann": 1989,
      "bugs": 1990,
      "Stop": 1991,
      "remind": 1992,
      "Here": 1993,
      "sol": 1994,
      "ased": 1995,
      "cannot": 1996,
      "lace": 1997,
      "rude": 1998,
      "whenever": 1999,
      "polite": 2000,
      "calm": 2001,
      "Bo": 2002,
      "tea": 2003,
      "embarrassed": 2004,
      "tries": 2005,
      "ighed": 2006,
      "rocket": 2007,
      "pop": 2008,
      "Johnny": 2009,
      "large": 2010,
      "smoo": 2011,
      "hears": 2012,
      "dirt": 2013,
      "burn": 2014,
      "stair": 2015,
      "machine": 2016,
      "bubble": 2017,
      "picnic": 2018,
      "carrots": 2019,
      "rag": 2020,
      "paw": 2021,
      "sticks": 2022,
      "cookie": 2023,
      "furry": 2024,
      "spider": 2025,
      "bers": 2026,
      "smooth": 2027,
      "Who": 2028,
      "bell": 2029,
      "trip": 2030,
      "asha": 2031,
      "answer": 2032,
      "stu": 2033,
      "forward": 2034,
      "Pa": 2035,
      "mir": 2036,
      "blow": 2037,
      "maybe": 2038,
      "tie": 2039,
      "ugly": 2040,
      "necklace": 2041,
      "TV": 2042,
      "gas": 2043,
      "Alice": 2044,
      "Little": 2045,
      "œI": 2046,
      "pin": 2047,
      "carried": 2048,
      "meant": 2049,
      "moon": 2050,
      "tells": 2051,
      "flag": 2052,
      "fancy": 2053,
      "Jake": 2054,
      "Sus": 2055,
      "hang": 2056,
      "barked": 2057,
      "pty": 2058,
      "swe": 2059,
      "collect": 2060,
      "empty": 2061,
      "sup": 2062,
      "spray": 2063,
      "ult": 2064,
      "fighting": 2065,
      "sparkly": 2066,
      "rich": 2067,
      "protect": 2068,
      "save": 2069,
      "ird": 2070,
      "scarf": 2071,
      "clear": 2072,
      "jumping": 2073,
      "mountain": 2074,
      "knocked": 2075,
      "Ch": 2076,
      "spre": 2077,
      "tro": 2078,
      "tightly": 2079,
      "creative": 2080,
      "spread": 2081,
      "ban": 2082,
      "balls": 2083,
      "stairs": 2084,
      "pir": 2085,
      "vous": 2086,
      "shake": 2087,
      "Teddy": 2088,
      "tid": 2089,
      "landed": 2090,
      "Fred": 2091,
      "knight": 2092,
      "pizz": 2093,
      "drew": 2094,
      "umpy": 2095,
      "hidden": 2096,
      "pri": 2097,
      "nel": 2098,
      "wore": 2099,
      "eager": 2100,
      "banan": 2101,
      "oin": 2102,
      "ity": 2103,
      "sharing": 2104,
      "grew": 2105,
      "treats": 2106,
      "chased": 2107,
      "mysterious": 2108,
      "crab": 2109,
      "hum": 2110,
      "group": 2111,
      "whistle": 2112,
      "ashamed": 2113,
      "cross": 2114,
      "hospit": 2115,
      "appoin": 2116,
      "puzzle": 2117,
      "hospital": 2118,
      "Me": 2119,
      "decor": 2120,
      "block": 2121,
      "yelled": 2122,
      "vase": 2123,
      "ungle": 2124,
      "breath": 2125,
      "peaceful": 2126,
      "Susie": 2127,
      "Even": 2128,
      "lves": 2129,
      "disappoin": 2130,
      "queen": 2131,
      "jam": 2132,
      "jungle": 2133,
      "shad": 2134,
      "vie": 2135,
      "izzy": 2136,
      "selfish": 2137,
      "kn": 2138,
      "these": 2139,
      "ella": 2140,
      "nervous": 2141,
      "sleepy": 2142,
      "Rex": 2143,
      "sour": 2144,
      "form": 2145,
      "motor": 2146,
      "chest": 2147,
      "cord": 2148,
      "powerful": 2149,
      "Everywhere": 2150,
      "Today": 2151,
      "cries": 2152,
      "ten": 2153,
      "nods": 2154,
      "gray": 2155,
      "cur": 2156,
      "glow": 2157,
      "itter": 2158,
      "vegetables": 2159,
      "ail": 2160,
      "gets": 2161,
      "missed": 2162,
      "tu": 2163,
      "ending": 2164,
      "standing": 2165,
      "pillow": 2166,
      "seed": 2167,
      "chew": 2168,
      "giggled": 2169,
      "bridge": 2170,
      "bored": 2171,
      "snacks": 2172,
      "gara": 2173,
      "sque": 2174,
      "stra": 2175,
      "garage": 2176,
      "adow": 2177,
      "See": 2178,
      "sca": 2179,
      "ones": 2180,
      "gold": 2181,
      "feed": 2182,
      "lown": 2183,
      "prince": 2184,
      "tidy": 2185,
      "pizza": 2186,
      "disappointed": 2187,
      "cri": 2188,
      "sage": 2189,
      "dancing": 2190,
      "jewel": 2191,
      "hero": 2192,
      "meadow": 2193,
      "ustr": 2194,
      "drum": 2195,
      "packed": 2196,
      "Mar": 2197,
      "bul": 2198,
      "cted": 2199,
      "easy": 2200,
      "mel": 2201,
      "spla": 2202,
      "hone": 2203,
      "leaf": 2204,
      "fre": 2205,
      "towel": 2206,
      "become": 2207,
      "utes": 2208,
      "rot": 2209,
      "Your": 2210,
      "Bella": 2211,
      "bone": 2212,
      "ony": 2213,
      "orry": 2214,
      "ensive": 2215,
      "line": 2216,
      "saved": 2217,
      "knowing": 2218,
      "tears": 2219,
      "expensive": 2220,
      "bathroom": 2221,
      "minutes": 2222,
      "bark": 2223,
      "cand": 2224,
      "fear": 2225,
      "brush": 2226,
      "frustr": 2227,
      "match": 2228,
      "finger": 2229,
      "Give": 2230,
      "fil": 2231,
      "plate": 2232,
      "police": 2233,
      "sailed": 2234,
      "clown": 2235,
      "tag": 2236,
      "deter": 2237,
      "understood": 2238,
      "ruined": 2239,
      "spoil": 2240,
      "legs": 2241,
      "fu": 2242,
      "hours": 2243,
      "ete": 2244,
      "sweetie": 2245,
      "mic": 2246,
      "plants": 2247,
      "week": 2248,
      "fig": 2249,
      "rid": 2250,
      "Tweety": 2251,
      "success": 2252,
      "micro": 2253,
      "Sorry": 2254,
      "spr": 2255,
      "waves": 2256,
      "almost": 2257,
      "espe": 2258,
      "exam": 2259,
      "cially": 2260,
      "taught": 2261,
      "coura": 2262,
      "Leo": 2263,
      "frustrated": 2264,
      "Pete": 2265,
      "wagged": 2266,
      "asking": 2267,
      "messy": 2268,
      "whisper": 2269,
      "especially": 2270,
      "dle": 2271,
      "fake": 2272,
      "gate": 2273,
      "rad": 2274,
      "drawing": 2275,
      "generous": 2276,
      "ual": 2277,
      "playground": 2278,
      "measure": 2279,
      "flute": 2280,
      "excite": 2281,
      "ates": 2282,
      "hopping": 2283,
      "true": 2284,
      "fluffy": 2285,
      "ignor": 2286,
      "answered": 2287,
      "honest": 2288,
      "lead": 2289,
      "usual": 2290,
      "yourself": 2291,
      "tak": 2292,
      "berry": 2293,
      "shore": 2294,
      "mistake": 2295,
      "saur": 2296,
      "boring": 2297,
      "moving": 2298,
      "poor": 2299,
      "hurts": 2300,
      "fla": 2301,
      "mark": 2302,
      "illed": 2303,
      "known": 2304,
      "passed": 2305,
      "suit": 2306,
      "flies": 2307,
      "excitement": 2308,
      "lit": 2309,
      "tunnel": 2310,
      "ipp": 2311,
      "sighed": 2312,
      "erpill": 2313,
      "grumpy": 2314,
      "caterpill": 2315,
      "ears": 2316,
      "often": 2317,
      "fruits": 2318,
      "kissed": 2319,
      "Bobo": 2320,
      "bat": 2321,
      "allow": 2322,
      "soar": 2323,
      "weak": 2324,
      "dol": 2325,
      "Bobby": 2326,
      "Ducky": 2327,
      "mid": 2328,
      "osaur": 2329,
      "rat": 2330,
      "change": 2331,
      "note": 2332,
      "law": 2333,
      "balance": 2334,
      "fridge": 2335,
      "number": 2336,
      "Ow": 2337,
      "returned": 2338,
      "ham": 2339,
      "stuff": 2340,
      "sold": 2341,
      "working": 2342,
      "sors": 2343,
      "elly": 2344,
      "knife": 2345,
      "splashed": 2346,
      "taken": 2347,
      "gust": 2348,
      "inc": 2349,
      "issors": 2350,
      "vest": 2351,
      "check": 2352,
      "trucks": 2353,
      "caterpillar": 2354,
      "soap": 2355,
      "lazy": 2356,
      "pair": 2357,
      "walks": 2358,
      "disappeared": 2359,
      "mighty": 2360,
      "scissors": 2361,
      "sugar": 2362,
      "gathered": 2363,
      "middle": 2364,
      "pay": 2365,
      "anut": 2366,
      "nod": 2367,
      "father": 2368,
      "flash": 2369,
      "painting": 2370,
      "market": 2371,
      "pleased": 2372,
      "glue": 2373,
      "mummy": 2374,
      "rough": 2375,
      "toes": 2376,
      "jog": 2377,
      "picks": 2378,
      "dinosaur": 2379,
      "wagon": 2380,
      "stum": 2381,
      "dep": 2382,
      "closet": 2383,
      "horn": 2384,
      "sil": 2385,
      "esca": 2386,
      "mole": 2387,
      "?\".": 2388,
      "choose": 2389,
      "cient": 2390,
      "dogs": 2391,
      "famous": 2392,
      "dish": 2393,
      "pace": 2394,
      "twirl": 2395,
      "Br": 2396,
      "bake": 2397,
      "mined": 2398,
      "decide": 2399,
      "content": 2400,
      "dolph": 2401,
      "incred": 2402,
      "cher": 2403,
      "drank": 2404,
      "eye": 2405,
      "illi": 2406,
      "calling": 2407,
      "thankful": 2408,
      "Mrs": 2409,
      "crawled": 2410,
      "eggs": 2411,
      "wip": 2412,
      "lif": 2413,
      "bedroom": 2414,
      "discovered": 2415,
      "determined": 2416,
      "Ne": 2417,
      "lying": 2418,
      "angel": 2419,
      "feathers": 2420,
      "sandwich": 2421,
      "ror": 2422,
      "ating": 2423,
      "uddy": 2424,
      "swan": 2425,
      "grandpa": 2426,
      "depend": 2427,
      "End": 2428,
      "ga": 2429,
      "yarn": 2430,
      "iness": 2431,
      "case": 2432,
      "cleaned": 2433,
      "licked": 2434,
      "Letâ": 2435,
      "stones": 2436,
      "wake": 2437,
      "aged": 2438,
      "coins": 2439,
      "shows": 2440,
      "medic": 2441,
      "pointing": 2442,
      "wrapped": 2443,
      "space": 2444,
      "unusual": 2445,
      "grown": 2446,
      "needs": 2447,
      "adventur": 2448,
      "organized": 2449,
      "medicine": 2450,
      "Rose": 2451,
      "lamp": 2452,
      "mu": 2453,
      "rare": 2454,
      "rela": 2455,
      "weal": 2456,
      "peanut": 2457,
      "using": 2458,
      "relax": 2459,
      "lid": 2460,
      "tub": 2461,
      "imed": 2462,
      "lose": 2463,
      "locked": 2464,
      "boss": 2465,
      "ular": 2466,
      "wolf": 2467,
      "smelly": 2468,
      "happening": 2469,
      "colourful": 2470,
      "incredible": 2471,
      "Red": 2472,
      "Whe": 2473,
      "island": 2474,
      "abin": 2475,
      "boxes": 2476,
      "skipped": 2477,
      "adventurous": 2478,
      "Lo": 2479,
      "obed": 2480,
      "weird": 2481,
      "lift": 2482,
      "acce": 2483,
      "class": 2484,
      "distance": 2485,
      "ti": 2486,
      "fool": 2487,
      "giving": 2488,
      "chicken": 2489,
      "mirror": 2490,
      "van": 2491,
      "ilt": 2492,
      "brilli": 2493,
      "smaller": 2494,
      "borrow": 2495,
      "Brown": 2496,
      "obedient": 2497,
      "Bl": 2498,
      "dig": 2499,
      "tig": 2500,
      "thick": 2501,
      "moms": 2502,
      "walls": 2503,
      "dizzy": 2504,
      "chang": 2505,
      "picking": 2506,
      "comple": 2507,
      "falls": 2508,
      "branches": 2509,
      "dependable": 2510,
      "brilliant": 2511,
      "cro": 2512,
      "orn": 2513,
      "ature": 2514,
      "frown": 2515,
      "impressed": 2516,
      "bitter": 2517,
      "cabin": 2518,
      "kin": 2519,
      "men": 2520,
      "son": 2521,
      "sheep": 2522,
      "boys": 2523,
      "smo": 2524,
      "safely": 2525,
      "keeper": 2526,
      "Well": 2527,
      "gra": 2528,
      "cart": 2529,
      "meal": 2530,
      "skin": 2531,
      "stronger": 2532,
      "sounded": 2533,
      "study": 2534,
      "aid": 2535,
      "port": 2536,
      "sof": 2537,
      "tory": 2538,
      "rote": 2539,
      "fine": 2540,
      "mixed": 2541,
      "banana": 2542,
      "Nemo": 2543,
      "foolish": 2544,
      "Eventually": 2545,
      "Ju": 2546,
      "ipe": 2547,
      "wrote": 2548,
      "tom": 2549,
      "harm": 2550,
      "selves": 2551,
      "boo": 2552,
      "map": 2553,
      "offered": 2554,
      "bottom": 2555,
      "numbers": 2556,
      "wealthy": 2557,
      "once": 2558,
      "noisy": 2559,
      "twig": 2560,
      "lights": 2561,
      "Tweetie": 2562,
      "rubbed": 2563,
      "sight": 2564,
      "tank": 2565,
      "ina": 2566,
      "lope": 2567,
      "alous": 2568,
      "crown": 2569,
      "clap": 2570,
      "crack": 2571,
      "chase": 2572,
      "glass": 2573,
      "jealous": 2574,
      "Blue": 2575,
      "smoke": 2576,
      "sell": 2577,
      "roof": 2578,
      "cane": 2579,
      "managed": 2580,
      "kindness": 2581,
      "buttons": 2582,
      "screen": 2583,
      "edge": 2584,
      "record": 2585,
      "eng": 2586,
      "rode": 2587,
      "team": 2588,
      "uggled": 2589,
      "bubbles": 2590,
      "Polly": 2591,
      "tti": 2592,
      "hetti": 2593,
      "lean": 2594,
      "fork": 2595,
      "aghetti": 2596,
      "belonged": 2597,
      "questions": 2598,
      "suggest": 2599,
      "cone": 2600,
      "eld": 2601,
      "fic": 2602,
      "scare": 2603,
      "spaghetti": 2604,
      "painted": 2605,
      "print": 2606,
      "supp": 2607,
      "unique": 2608,
      "bb": 2609,
      "vi": 2610,
      "dove": 2611,
      "useful": 2612,
      "cheerful": 2613,
      "marble": 2614,
      "apo": 2615,
      "scr": 2616,
      "enve": 2617,
      "hats": 2618,
      "ext": 2619,
      "diffic": 2620,
      "square": 2621,
      "breakfast": 2622,
      "bounce": 2623,
      "Next": 2624,
      "Would": 2625,
      "terri": 2626,
      "urse": 2627,
      "added": 2628,
      "figure": 2629,
      "apolog": 2630,
      "grace": 2631,
      "wis": 2632,
      "inde": 2633,
      "deer": 2634,
      "yours": 2635,
      "search": 2636,
      "crayon": 2637,
      "hipp": 2638,
      "jelly": 2639,
      "ured": 2640,
      "tape": 2641,
      "earth": 2642,
      "difficult": 2643,
      "zed": 2644,
      "ancient": 2645,
      "desk": 2646,
      "practice": 2647,
      "fresh": 2648,
      "oc": 2649,
      "stri": 2650,
      "hose": 2651,
      "pee": 2652,
      "excla": 2653,
      "kinds": 2654,
      "ator": 2655,
      "wha": 2656,
      "yal": 2657,
      "toug": 2658,
      "als": 2659,
      "counted": 2660,
      "turtle": 2661,
      "tools": 2662,
      "exclaimed": 2663,
      "bull": 2664,
      "agree": 2665,
      "bags": 2666,
      "penny": 2667,
      "envelope": 2668,
      "aw": 2669,
      "snee": 2670,
      "tummy": 2671,
      "ination": 2672,
      "helps": 2673,
      "umsy": 2674,
      "against": 2675,
      "epend": 2676,
      "bushes": 2677,
      "realised": 2678,
      "guess": 2679,
      "squee": 2680,
      "Ho": 2681,
      "Will": 2682,
      "cam": 2683,
      "dull": 2684,
      "gue": 2685,
      "orge": 2686,
      "order": 2687,
      "those": 2688,
      "dreams": 2689,
      "guard": 2690,
      "balloons": 2691,
      "Grand": 2692,
      "tiger": 2693,
      "aunt": 2694,
      "four": 2695,
      "dreamed": 2696,
      "attic": 2697,
      "lifted": 2698,
      "hippo": 2699,
      "abo": 2700,
      "cudd": 2701,
      "tain": 2702,
      "happiness": 2703,
      "seem": 2704,
      "born": 2705,
      "dreaming": 2706,
      "stream": 2707,
      "serious": 2708,
      "nuts": 2709,
      "graceful": 2710,
      "tough": 2711,
      "above": 2712,
      "Ge": 2713,
      "wing": 2714,
      "reg": 2715,
      "keys": 2716,
      "cact": 2717,
      "louder": 2718,
      "enjoying": 2719,
      "laughs": 2720,
      "elder": 2721,
      "Al": 2722,
      "Dan": 2723,
      "loyal": 2724,
      "amond": 2725,
      "rice": 2726,
      "adm": 2727,
      "hive": 2728,
      "nurse": 2729,
      "pal": 2730,
      "sword": 2731,
      "eraser": 2732,
      "notice": 2733,
      "fier": 2734,
      "diamond": 2735,
      "sofa": 2736,
      "vide": 2737,
      "libr": 2738,
      "independ": 2739,
      "houses": 2740,
      "built": 2741,
      "loudly": 2742,
      "means": 2743,
      "favour": 2744,
      "juicy": 2745,
      "pirate": 2746,
      "scale": 2747,
      "bossy": 2748,
      "scrat": 2749,
      "bs": 2750,
      "cil": 2751,
      "rise": 2752,
      "arrow": 2753,
      "chir": 2754,
      "stove": 2755,
      "cleaning": 2756,
      "march": 2757,
      "Toby": 2758,
      "pencil": 2759,
      "slipped": 2760,
      "successful": 2761,
      "courage": 2762,
      "George": 2763,
      "Sop": 2764,
      "gum": 2765,
      "zip": 2766,
      "cards": 2767,
      "clumsy": 2768,
      "patch": 2769,
      "harder": 2770,
      "flashlight": 2771,
      "whale": 2772,
      "elderly": 2773,
      "Soph": 2774,
      "already": 2775,
      "stub": 2776,
      "upid": 2777,
      "dead": 2778,
      "knows": 2779,
      "thoughtful": 2780,
      "sunflower": 2781,
      "leaving": 2782,
      "cooking": 2783,
      "invited": 2784,
      "circles": 2785,
      "reminded": 2786,
      "dolphin": 2787,
      "Whenever": 2788,
      "favourite": 2789,
      "Mark": 2790,
      "city": 2791,
      "rh": 2792,
      "yo": 2793,
      "office": 2794,
      "batter": 2795,
      "fierce": 2796,
      "vice": 2797,
      "inal": 2798,
      "goat": 2799,
      "playful": 2800,
      "gem": 2801,
      "themselves": 2802,
      "pale": 2803,
      "showing": 2804,
      "spun": 2805,
      "gasped": 2806,
      "changed": 2807,
      "cactus": 2808,
      "independent": 2809,
      "norm": 2810,
      "pants": 2811,
      "ines": 2812,
      "iginal": 2813,
      "extra": 2814,
      "learning": 2815,
      "saying": 2816,
      "delighted": 2817,
      "suggested": 2818,
      "terrible": 2819,
      "salad": 2820,
      "nosy": 2821,
      "vet": 2822,
      "aced": 2823,
      "bald": 2824,
      "power": 2825,
      "hun": 2826,
      "otter": 2827,
      "yell": 2828,
      "reli": 2829,
      "ery": 2830,
      "aroo": 2831,
      "original": 2832,
      "metal": 2833,
      "nail": 2834,
      "excitedly": 2835,
      "angaroo": 2836,
      "compet": 2837,
      "explored": 2838,
      "competit": 2839,
      "Dave": 2840,
      "kangaroo": 2841,
      "sne": 2842,
      "zi": 2843,
      "washed": 2844,
      "stupid": 2845,
      "ately": 2846,
      "runk": 2847,
      "clay": 2848,
      "spilled": 2849,
      "compass": 2850,
      "brightly": 2851,
      "poured": 2852,
      "straw": 2853,
      "hammer": 2854,
      "escape": 2855,
      "wiped": 2856,
      "stubborn": 2857,
      "normal": 2858,
      "load": 2859,
      "bees": 2860,
      "illa": 2861,
      "uring": 2862,
      "post": 2863,
      "windows": 2864,
      "neighb": 2865,
      "prize": 2866,
      "bri": 2867,
      "cco": 2868,
      "cate": 2869,
      "opar": 2870,
      "toma": 2871,
      "leopar": 2872,
      "stage": 2873,
      "shone": 2874,
      "coco": 2875,
      "beak": 2876,
      "doesn": 2877,
      "pengu": 2878,
      "kicked": 2879,
      "destro": 2880,
      "spoiled": 2881,
      "camera": 2882,
      "regular": 2883,
      "ingred": 2884,
      "ordin": 2885,
      "goose": 2886,
      "joined": 2887,
      "cush": 2888,
      "solve": 2889,
      "seeds": 2890,
      "whispered": 2891,
      "admired": 2892,
      "reliable": 2893,
      "destroy": 2894,
      "ingredient": 2895,
      "ordinary": 2896,
      "mes": 2897,
      "ray": 2898,
      "sock": 2899,
      "forth": 2900,
      "coll": 2901,
      "trum": 2902,
      "gging": 2903,
      "belt": 2904,
      "Grandpa": 2905,
      "Flo": 2906,
      "jug": 2907,
      "yet": 2908,
      "sal": 2909,
      "veil": 2910,
      "pebble": 2911,
      "tru": 2912,
      "Andy": 2913,
      "stickers": 2914,
      "delicate": 2915,
      "valu": 2916,
      "warned": 2917,
      "shells": 2918,
      "celebrate": 2919,
      "popcorn": 2920,
      "Lola": 2921,
      "Bye": 2922,
      "zard": 2923,
      "ero": 2924,
      "arian": 2925,
      "lizard": 2926,
      "cod": 2927,
      "careless": 2928,
      "early": 2929,
      "boats": 2930,
      "Joey": 2931,
      "stranger": 2932,
      "ingredients": 2933,
      "collar": 2934,
      "Grace": 2935,
      "Kate": 2936,
      "bump": 2937,
      "jac": 2938,
      "env": 2939,
      "stat": 2940,
      "pepper": 2941,
      "towers": 2942,
      "Ella": 2943,
      "stumbled": 2944,
      "Ale": 2945,
      "Rob": 2946,
      "St": 2947,
      "fou": 2948,
      "fright": 2949,
      "frag": 2950,
      "fort": 2951,
      "ief": 2952,
      "clock": 2953,
      "cheer": 2954,
      "guil": 2955,
      "Alex": 2956,
      "fountain": 2957,
      "Buddy": 2958,
      "Or": 2959,
      "Snow": 2960,
      "ffle": 2961,
      "laser": 2962,
      "enorm": 2963,
      "advice": 2964,
      "perform": 2965,
      "magnet": 2966,
      "barber": 2967,
      "sailor": 2968,
      "whist": 2969,
      "design": 2970,
      "crocod": 2971,
      "compassion": 2972,
      "valuable": 2973,
      "guilty": 2974,
      "enormous": 2975,
      "may": 2976,
      "rece": 2977,
      "carpet": 2978,
      "news": 2979,
      "handle": 2980,
      "obje": 2981,
      "rushed": 2982,
      "stops": 2983,
      "charm": 2984,
      "pige": 2985,
      "serve": 2986,
      "question": 2987,
      "thinking": 2988,
      "Kim": 2989,
      "nature": 2990,
      "reinde": 2991,
      "erry": 2992,
      "ages": 2993,
      "tooth": 2994,
      "shape": 2995,
      "listening": 2996,
      "bloom": 2997,
      "counting": 2998,
      "imagined": 2999,
      "cocoa": 3000,
      "trumpet": 3001,
      "Sm": 3002,
      "tied": 3003,
      "station": 3004,
      "noon": 3005,
      "tem": 3006,
      "skip": 3007,
      "cheap": 3008,
      "disgust": 3009,
      "opens": 3010,
      "snif": 3011,
      "suppl": 3012,
      "complete": 3013,
      "fragile": 3014,
      "charming": 3015,
      "reindeer": 3016,
      "Bu": 3017,
      "names": 3018,
      "parade": 3019,
      "finding": 3020,
      "older": 3021,
      "crow": 3022,
      "searching": 3023,
      "humble": 3024,
      "candle": 3025,
      "œYes": 3026,
      "refused": 3027,
      "loom": 3028,
      "thirst": 3029,
      "cell": 3030,
      "flex": 3031,
      "missing": 3032,
      "struc": 3033,
      "repe": 3034,
      "return": 3035,
      "lol": 3036,
      "bol": 3037,
      "!\".": 3038,
      "pear": 3039,
      "umbre": 3040,
      "reading": 3041,
      "trains": 3042,
      "fingers": 3043,
      "peeked": 3044,
      "frightened": 3045,
      "est": 3046,
      "mush": 3047,
      "ino": 3048,
      "waffle": 3049,
      "host": 3050,
      "pota": 3051,
      "hurry": 3052,
      "chose": 3053,
      "flour": 3054,
      "sleeping": 3055,
      "given": 3056,
      "wrap": 3057,
      "troph": 3058,
      "Maria": 3059,
      "thirsty": 3060,
      "dom": 3061,
      "ither": 3062,
      "rug": 3063,
      "tic": 3064,
      "trunk": 3065,
      "toast": 3066,
      "leash": 3067,
      "thief": 3068,
      "bean": 3069,
      "ended": 3070,
      "robe": 3071,
      "hoop": 3072,
      "moder": 3073,
      "maze": 3074,
      "proudly": 3075,
      "hairy": 3076,
      "polish": 3077,
      "ignorant": 3078,
      "flexible": 3079,
      "intell": 3080,
      "uncomfortable": 3081,
      "raced": 3082,
      "friendship": 3083,
      "axe": 3084,
      "impro": 3085,
      "sparkled": 3086,
      "crocodile": 3087,
      "lolli": 3088,
      "trophy": 3089,
      "intellig": 3090,
      "Jerry": 3091,
      "io": 3092,
      "œLetâ": 3093,
      "reci": 3094,
      "sauce": 3095,
      "beep": 3096,
      "attra": 3097,
      "ugged": 3098,
      "mop": 3099,
      "iches": 3100,
      "sorts": 3101,
      "trash": 3102,
      "steal": 3103,
      "telling": 3104,
      "brothers": 3105,
      "base": 3106,
      "ations": 3107,
      "purse": 3108,
      "football": 3109,
      "respectful": 3110,
      "allowed": 3111,
      "hunter": 3112,
      "leopard": 3113,
      "statue": 3114,
      "pigeon": 3115,
      "modern": 3116,
      "aur": 3117,
      "avo": 3118,
      "pho": 3119,
      "anx": 3120,
      "spend": 3121,
      "rules": 3122,
      "restaur": 3123,
      "deliver": 3124,
      "mailbox": 3125,
      "cardboard": 3126,
      "sandwiches": 3127,
      "cricket": 3128,
      "harmless": 3129,
      "octop": 3130,
      "envious": 3131,
      "photo": 3132,
      "Cl": 3133,
      "bin": 3134,
      "lly": 3135,
      "lives": 3136,
      "ctive": 3137,
      "travel": 3138,
      "wheat": 3139,
      "cycle": 3140,
      "sym": 3141,
      "pilot": 3142,
      "microphone": 3143,
      "spring": 3144,
      "viol": 3145,
      "intelligent": 3146,
      "octopus": 3147,
      "Ros": 3148,
      "dug": 3149,
      "ges": 3150,
      "sudden": 3151,
      "œIt": 3152,
      "œThat": 3153,
      "œWhat": 3154,
      "hay": 3155,
      "sport": 3156,
      "discover": 3157,
      "gling": 3158,
      "package": 3159,
      "impressive": 3160,
      "slides": 3161,
      "super": 3162,
      "film": 3163,
      "disgusting": 3164,
      "restaurant": 3165,
      "Rosie": 3166,
      "fed": 3167,
      "gor": 3168,
      "iver": 3169,
      "ience": 3170,
      "wire": 3171,
      "ince": 3172,
      "rend": 3173,
      "isted": 3174,
      "beet": 3175,
      "hood": 3176,
      "birdie": 3177,
      "comb": 3178,
      "shocked": 3179,
      "crazy": 3180,
      "growing": 3181,
      "Papa": 3182,
      "view": 3183,
      "Snowy": 3184,
      "Sandy": 3185,
      "ghost": 3186,
      "alert": 3187,
      "ado": 3188,
      "starts": 3189,
      "acorn": 3190,
      "surrend": 3191,
      "pastel": 3192,
      "chasing": 3193,
      "Paul": 3194,
      "engine": 3195,
      "Smith": 3196,
      "mushroom": 3197,
      "anxious": 3198,
      "symbol": 3199,
      "violin": 3200,
      "barn": 3201,
      "ilet": 3202,
      "movie": 3203,
      "helmet": 3204,
      "carrying": 3205,
      "decorate": 3206,
      "gorilla": 3207,
      "lla": 3208,
      "scat": 3209,
      "heli": 3210,
      "toilet": 3211,
      "half": 3212,
      "chim": 3213,
      "tered": 3214,
      "hedge": 3215,
      "nicely": 3216,
      "brighter": 3217,
      "stretched": 3218,
      "Annie": 3219,
      "zipper": 3220,
      "umbrella": 3221,
      "oat": 3222,
      "witch": 3223,
      "behave": 3224,
      "shield": 3225,
      "cano": 3226,
      "holds": 3227,
      "spoke": 3228,
      "guit": 3229,
      "icycle": 3230,
      "Because": 3231,
      "knock": 3232,
      "crawl": 3233,
      "steps": 3234,
      "copter": 3235,
      "cushion": 3236,
      "helicopter": 3237,
      "Mike": 3238,
      "gloom": 3239,
      "sses": 3240,
      "pole": 3241,
      "olcano": 3242,
      "istent": 3243,
      "cooler": 3244,
      "cupboard": 3245,
      "harsh": 3246,
      "practiced": 3247,
      "Tony": 3248,
      "bicycle": 3249,
      "fat": 3250,
      "gn": 3251,
      "oak": 3252,
      "pump": 3253,
      "pian": 3254,
      "tire": 3255,
      "yaw": 3256,
      "These": 3257,
      "placed": 3258,
      "asses": 3259,
      "biggest": 3260,
      "shiver": 3261,
      "doors": 3262,
      "impat": 3263,
      "shouts": 3264,
      "chain": 3265,
      "creatures": 3266,
      "wheels": 3267,
      "stirred": 3268,
      "screw": 3269,
      "compassionate": 3270,
      "oy": 3271,
      "reco": 3272,
      "unknown": 3273,
      "forgave": 3274,
      "parrot": 3275,
      "anywhere": 3276,
      "needle": 3277,
      "patter": 3278,
      "turkey": 3279,
      "neighbour": 3280,
      "attractive": 3281,
      "chimney": 3282,
      "piano": 3283,
      "impatient": 3284,
      "Mandy": 3285,
      "Tr": 3286,
      "aud": 3287,
      "cran": 3288,
      "gs": 3289,
      "kne": 3290,
      "vine": 3291,
      "neat": 3292,
      "coo": 3293,
      "jolly": 3294,
      "tray": 3295,
      "shoe": 3296,
      "snuggled": 3297,
      "drawer": 3298,
      "pulls": 3299,
      "Remy": 3300,
      "ahead": 3301,
      "bent": 3302,
      "camp": 3303,
      "kers": 3304,
      "iron": 3305,
      "thus": 3306,
      "thunder": 3307,
      "goal": 3308,
      "speed": 3309,
      "afternoon": 3310,
      "painter": 3311,
      "fireman": 3312,
      "bathtub": 3313,
      "bandage": 3314,
      "wander": 3315,
      "Whis": 3316,
      "Yay": 3317,
      "enthus": 3318,
      "aled": 3319,
      "fee": 3320,
      "beauty": 3321,
      "jumps": 3322,
      "shark": 3323,
      "shadow": 3324,
      "twirled": 3325,
      "Sophie": 3326,
      "jacket": 3327,
      "inocer": 3328,
      "gloomy": 3329,
      "pattern": 3330,
      "Bet": 3331,
      "tion": 3332,
      "task": 3333,
      "secon": 3334,
      "offee": 3335,
      "lions": 3336,
      "memor": 3337,
      "create": 3338,
      "swinging": 3339,
      "monkeys": 3340,
      "butterflies": 3341,
      "pretending": 3342,
      "driving": 3343,
      "trick": 3344,
      "gym": 3345,
      "recogn": 3346,
      "crane": 3347,
      "..": 3348,
      "glove": 3349,
      "pup": 3350,
      "itself": 3351,
      "chance": 3352,
      "hook": 3353,
      "putting": 3354,
      "cats": 3355,
      "persistent": 3356,
      "appl": 3357,
      "pasta": 3358,
      "distant": 3359,
      "giggle": 3360,
      "beetle": 3361,
      "guitar": 3362,
      "inoceros": 3363,
      "Did": 3364,
      "Mim": 3365,
      "volcano": 3366,
      "helpless": 3367,
      "ummer": 3368,
      "finds": 3369,
      "aches": 3370,
      "shaking": 3371,
      "tear": 3372,
      "papers": 3373,
      "badly": 3374,
      "sticker": 3375,
      "trap": 3376,
      "jokes": 3377,
      "barks": 3378,
      "radio": 3379,
      "Brownie": 3380,
      "wishes": 3381,
      "Mimi": 3382,
      "dess": 3383,
      "ffin": 3384,
      "gir": 3385,
      "jet": 3386,
      "size": 3387,
      "ener": 3388,
      "verse": 3389,
      "shut": 3390,
      "ills": 3391,
      "popul": 3392,
      "quite": 3393,
      "couldnâ": 3394,
      "treasures": 3395,
      "distur": 3396,
      "letters": 3397,
      "rhinoceros": 3398,
      "popular": 3399,
      "dive": 3400,
      "pine": 3401,
      "sink": 3402,
      "erable": 3403,
      "uncle": 3404,
      "chan": 3405,
      "rose": 3406,
      "tap": 3407,
      "Everything": 3408,
      "dishes": 3409,
      "miserable": 3410,
      "avail": 3411,
      "tricks": 3412,
      "mixer": 3413,
      "fearful": 3414,
      "riding": 3415,
      "grapes": 3416,
      "library": 3417,
      "ckey": 3418,
      "coffee": 3419,
      "scold": 3420,
      "bet": 3421,
      "cereal": 3422,
      "raven": 3423,
      "holes": 3424,
      "hockey": 3425,
      "laun": 3426,
      "sadly": 3427,
      "useum": 3428,
      "troubled": 3429,
      "roared": 3430,
      "silver": 3431,
      "competitive": 3432,
      "dessert": 3433,
      "available": 3434,
      "illie": 3435,
      "stic": 3436,
      "lick": 3437,
      "peek": 3438,
      "cob": 3439,
      "page": 3440,
      "handed": 3441,
      "brace": 3442,
      "climbing": 3443,
      "point": 3444,
      "Before": 3445,
      "ggy": 3446,
      "cups": 3447,
      "shade": 3448,
      "motorcycle": 3449,
      "message": 3450,
      "Car": 3451,
      "hut": 3452,
      "mill": 3453,
      "museum": 3454,
      "chub": 3455,
      "stared": 3456,
      "ucked": 3457,
      "visited": 3458,
      "scoop": 3459,
      "Whiskers": 3460,
      "laundry": 3461,
      "chubby": 3462,
      "five": 3463,
      "knot": 3464,
      "send": 3465,
      "stack": 3466,
      "admi": 3467,
      "meow": 3468,
      "mechan": 3469,
      "deaf": 3470,
      "nowhere": 3471,
      "speak": 3472,
      "anyway": 3473,
      "reef": 3474,
      "cube": 3475,
      "grabs": 3476,
      "shoo": 3477,
      "mission": 3478,
      "shopkeeper": 3479,
      "resist": 3480,
      "boots": 3481,
      "mechanic": 3482,
      "Is": 3483,
      "ath": 3484,
      "either": 3485,
      "main": 3486,
      "mild": 3487,
      "summer": 3488,
      "wife": 3489,
      "cel": 3490,
      "peach": 3491,
      "checked": 3492,
      "pushes": 3493,
      "colours": 3494,
      "glasses": 3495,
      "bounced": 3496,
      "sweater": 3497,
      "frowned": 3498,
      "zzy": 3499,
      "remain": 3500,
      "wever": 3501,
      "modest": 3502,
      "trem": 3503,
      "cap": 3504,
      "quar": 3505,
      "appreci": 3506,
      "softly": 3507,
      "further": 3508,
      "gifted": 3509,
      "breathe": 3510,
      "organize": 3511,
      "spinning": 3512,
      "stretch": 3513,
      "admire": 3514,
      "Bunny": 3515,
      "dough": 3516,
      "pun": 3517,
      "reve": 3518,
      "loe": 3519,
      "short": 3520,
      "backpack": 3521,
      "opera": 3522,
      "cheek": 3523,
      "cakes": 3524,
      "clapping": 3525,
      "ccoli": 3526,
      "truth": 3527,
      "object": 3528,
      "dar": 3529,
      "gie": 3530,
      "tick": 3531,
      "repair": 3532,
      "sau": 3533,
      "ceed": 3534,
      "spell": 3535,
      "dancer": 3536,
      "sity": 3537,
      "breaks": 3538,
      "chickens": 3539,
      "lollipop": 3540,
      "bracelet": 3541,
      "Baby": 3542,
      "Char": 3543,
      "gain": 3544,
      "wool": 3545,
      "teleph": 3546,
      "journ": 3547,
      "country": 3548,
      "hoping": 3549,
      "bulb": 3550,
      "salt": 3551,
      "telephone": 3552,
      "Sp": 3553,
      "por": 3554,
      "pted": 3555,
      "erc": 3556,
      "ador": 3557,
      "happier": 3558,
      "carto": 3559,
      "wallet": 3560,
      "spir": 3561,
      "track": 3562,
      "castles": 3563,
      "rolling": 3564,
      "pushing": 3565,
      "sneak": 3566,
      "surrender": 3567,
      "lim": 3568,
      "pit": 3569,
      "resc": 3570,
      "ween": 3571,
      "hadn": 3572,
      "learnt": 3573,
      "drop": 3574,
      "drops": 3575,
      "closely": 3576,
      "swamp": 3577,
      "curtain": 3578,
      "stuffed": 3579,
      "journal": 3580,
      "rescue": 3581,
      "incl": 3582,
      "resp": 3583,
      "separ": 3584,
      "starting": 3585,
      "broccoli": 3586,
      "drawings": 3587,
      "tripped": 3588,
      "succeed": 3589,
      "Buzz": 3590,
      "adorable": 3591,
      "Bear": 3592,
      "ckets": 3593,
      "pony": 3594,
      "inking": 3595,
      "arry": 3596,
      "exerc": 3597,
      "iastic": 3598,
      "shouldn": 3599,
      "torn": 3600,
      "restless": 3601,
      "mistakes": 3602,
      "kayak": 3603,
      "powder": 3604,
      "lemonade": 3605,
      "pirates": 3606,
      "enthusiastic": 3607,
      "Co": 3608,
      "hall": 3609,
      "ison": 3610,
      "igator": 3611,
      "unpack": 3612,
      "weep": 3613,
      "ents": 3614,
      "meas": 3615,
      "umb": 3616,
      "pressed": 3617,
      "paws": 3618,
      "Chloe": 3619,
      "filthy": 3620,
      "celery": 3621,
      "Bill": 3622,
      "Un": 3623,
      "washer": 3624,
      "golf": 3625,
      "alligator": 3626,
      "raft": 3627,
      "petal": 3628,
      "meat": 3629,
      "fac": 3630,
      "bru": 3631,
      "complain": 3632,
      "exper": 3633,
      "bles": 3634,
      "Thanks": 3635,
      "airport": 3636,
      "bikes": 3637,
      "throwing": 3638,
      "swee": 3639,
      "dust": 3640,
      "lang": 3641,
      "inarian": 3642,
      "reward": 3643,
      "stamp": 3644,
      "veter": 3645,
      "una": 3646,
      "weigh": 3647,
      "somewhere": 3648,
      "iest": 3649,
      "donâ": 3650,
      "raining": 3651,
      "fishing": 3652,
      "sandbox": 3653,
      "falling": 3654,
      "split": 3655,
      "human": 3656,
      "dishwasher": 3657,
      "applaud": 3658,
      "spirit": 3659,
      "langu": 3660,
      "veterinarian": 3661,
      "Bub": 3662,
      "Pat": 3663,
      "au": 3664,
      "jud": 3665,
      "kitty": 3666,
      "theater": 3667,
      "wags": 3668,
      "onion": 3669,
      "leton": 3670,
      "seal": 3671,
      "keleton": 3672,
      "weather": 3673,
      "cryst": 3674,
      "frogs": 3675,
      "marched": 3676,
      "smells": 3677,
      "counter": 3678,
      "diary": 3679,
      "astic": 3680,
      "fuel": 3681,
      "notebook": 3682,
      "muffin": 3683,
      "supply": 3684,
      "cooked": 3685,
      "Mag": 3686,
      "Millie": 3687,
      "vend": 3688,
      "thread": 3689,
      "ups": 3690,
      "cuss": 3691,
      "discuss": 3692,
      "crash": 3693,
      "tube": 3694,
      "crib": 3695,
      "leaned": 3696,
      "avoc": 3697,
      "energy": 3698,
      "apr": 3699,
      "vroom": 3700,
      "sort": 3701,
      "paid": 3702,
      "swung": 3703,
      "balan": 3704,
      "squash": 3705,
      "throws": 3706,
      "ppery": 3707,
      "shrimp": 3708,
      "pinch": 3709,
      "accept": 3710,
      "factory": 3711,
      "James": 3712,
      "Milly": 3713,
      "Po": 3714,
      "aked": 3715,
      "aking": 3716,
      "luck": 3717,
      "ping": 3718,
      "si": 3719,
      "sle": 3720,
      "skeleton": 3721,
      "une": 3722,
      "itâ": 3723,
      "beam": 3724,
      "tress": 3725,
      "frame": 3726,
      "thanks": 3727,
      "jeep": 3728,
      "value": 3729,
      "slippery": 3730,
      "ucet": 3731,
      "stume": 3732,
      "accepted": 3733,
      "Clara": 3734,
      "Bubbles": 3735,
      "vendor": 3736,
      "Have": 3737,
      "Ro": 3738,
      "Ru": 3739,
      "furn": 3740,
      "mas": 3741,
      "pas": 3742,
      "wipe": 3743,
      "iture": 3744,
      "waste": 3745,
      "nobody": 3746,
      "ribb": 3747,
      "costume": 3748,
      "didnâ": 3749,
      "shoulder": 3750,
      "shoot": 3751,
      "parent": 3752,
      "marry": 3753,
      "fields": 3754,
      "napkin": 3755,
      "harbor": 3756,
      "belongs": 3757,
      "attach": 3758,
      "zoomed": 3759,
      "cabinet": 3760,
      "penguin": 3761,
      "superhero": 3762,
      "quarrel": 3763,
      "furniture": 3764,
      "bur": 3765,
      "mama": 3766,
      "theart": 3767,
      "edy": 3768,
      "unlock": 3769,
      "prune": 3770,
      "faucet": 3771,
      "winter": 3772,
      "oyster": 3773,
      "Nut": 3774,
      "Su": 3775,
      "bits": 3776,
      "mome": 3777,
      "slice": 3778,
      "€“": 3779,
      "player": 3780,
      "thermome": 3781,
      "feelings": 3782,
      "zebra": 3783,
      "presents": 3784,
      "imagination": 3785,
      "apologized": 3786,
      "improve": 3787,
      "porch": 3788,
      "sweetheart": 3789,
      "thermometer": 3790,
      "mask": 3791,
      "sir": 3792,
      "œYou": 3793,
      "regre": 3794,
      "shel": 3795,
      "unhappy": 3796,
      "holid": 3797,
      "poke": 3798,
      "grin": 3799,
      "haircut": 3800,
      "follows": 3801,
      "mattress": 3802,
      "danger": 3803,
      "knob": 3804,
      "soldier": 3805,
      "Danny": 3806,
      "baseball": 3807,
      "between": 3808,
      "holiday": 3809,
      "gro": 3810,
      "ost": 3811,
      "alarm": 3812,
      "ornam": 3813,
      "umber": 3814,
      "fog": 3815,
      "poem": 3816,
      "bling": 3817,
      "creek": 3818,
      "lotion": 3819,
      "flut": 3820,
      "barking": 3821,
      "points": 3822,
      "celebrated": 3823,
      "shakes": 3824,
      "glowing": 3825,
      "support": 3826,
      "yoga": 3827,
      "Charlie": 3828,
      "Nutty": 3829,
      "regret": 3830,
      "bing": 3831,
      "pipe": 3832,
      "iling": 3833,
      "plays": 3834,
      "poked": 3835,
      "prepare": 3836,
      "angle": 3837,
      "math": 3838,
      "buzz": 3839,
      "comm": 3840,
      "Instead": 3841,
      "bathe": 3842,
      "armchair": 3843,
      "chairs": 3844,
      "tention": 3845,
      "imagine": 3846,
      "scope": 3847,
      "golden": 3848,
      "microscope": 3849,
      "repeat": 3850,
      "shelter": 3851,
      "Tina": 3852,
      "ium": 3853,
      "pand": 3854,
      "enter": 3855,
      "works": 3856,
      "choice": 3857,
      "affe": 3858,
      "splashing": 3859,
      "cows": 3860,
      "burned": 3861,
      "cherry": 3862,
      "mule": 3863,
      "God": 3864,
      "Kat": 3865,
      "Rac": 3866,
      "ah": 3867,
      "kis": 3868,
      "yield": 3869,
      "inked": 3870,
      "sting": 3871,
      "attention": 3872,
      "soil": 3873,
      "helper": 3874,
      "worth": 3875,
      "comet": 3876,
      "evening": 3877,
      "perfectly": 3878,
      "Ellie": 3879,
      "folder": 3880,
      "straight": 3881,
      "examine": 3882,
      "second": 3883,
      "giraffe": 3884,
      "dic": 3885,
      "tip": 3886,
      "yach": 3887,
      "ites": 3888,
      "oking": 3889,
      "poss": 3890,
      "makeup": 3891,
      "cau": 3892,
      "sunglasses": 3893,
      "reeze": 3894,
      "wardrobe": 3895,
      "lightning": 3896,
      "lively": 3897,
      "Freddy": 3898,
      "relaxed": 3899,
      "scolded": 3900,
      "petals": 3901,
      "apron": 3902,
      "Rachel": 3903,
      "azz": 3904,
      "cus": 3905,
      "fant": 3906,
      "hon": 3907,
      "nie": 3908,
      "sigh": 3909,
      "suff": 3910,
      "ley": 3911,
      "lier": 3912,
      "hopes": 3913,
      "blinked": 3914,
      "greedy": 3915,
      "spade": 3916,
      "perfu": 3917,
      "appro": 3918,
      "fireplace": 3919,
      "dressed": 3920,
      "writing": 3921,
      "planet": 3922,
      "elephants": 3923,
      "warning": 3924,
      "blowing": 3925,
      "eagerly": 3926,
      "potato": 3927,
      "tionary": 3928,
      "dictionary": 3929,
      "yacht": 3930,
      "perfume": 3931,
      "buck": 3932,
      "fis": 3933,
      "oil": 3934,
      "sla": 3935,
      "isn": 3936,
      "ising": 3937,
      "ambul": 3938,
      "igloo": 3939,
      "unk": 3940,
      "happens": 3941,
      "model": 3942,
      "capt": 3943,
      "ache": 3944,
      "inky": 3945,
      "comput": 3946,
      "trail": 3947,
      "created": 3948,
      "signs": 3949,
      "sprayed": 3950,
      "bricks": 3951,
      "tomato": 3952,
      "Maggie": 3953,
      "ostrich": 3954,
      "ambulance": 3955,
      "Happ": 3956,
      "Iâ": 3957,
      "Luna": 3958,
      "ccer": 3959,
      "sub": 3960,
      "tucked": 3961,
      "intro": 3962,
      "soccer": 3963,
      "switch": 3964,
      "shower": 3965,
      "sunset": 3966,
      "skills": 3967,
      "sandcastle": 3968,
      "streng": 3969,
      "spoons": 3970,
      "delay": 3971,
      "basketball": 3972,
      "uniform": 3973,
      "trusted": 3974,
      "hanging": 3975,
      "tutor": 3976,
      "palm": 3977,
      "whistling": 3978,
      "beans": 3979,
      "pumpkin": 3980,
      "crystal": 3981,
      "introd": 3982,
      "strength": 3983,
      "Qu": 3984,
      "ait": 3985,
      "lend": 3986,
      "mbers": 3987,
      "reaches": 3988,
      "ense": 3989,
      "seeing": 3990,
      "club": 3991,
      "izes": 3992,
      "Not": 3993,
      "baking": 3994,
      "claw": 3995,
      "vision": 3996,
      "fallen": 3997,
      "sailing": 3998,
      "squirrels": 3999,
      "minute": 4000,
      "puddles": 4001,
      "flapped": 4002,
      "sneeze": 4003,
      "kneel": 4004,
      "passport": 4005,
      "cauli": 4006,
      "First": 4007,
      "Hen": 4008,
      "az": 4009,
      "fought": 4010,
      "mist": 4011,
      "ox": 4012,
      "yer": 4013,
      "thumb": 4014,
      "below": 4015,
      "ceiling": 4016,
      "sheet": 4017,
      "licks": 4018,
      "kingdom": 4019,
      "rooms": 4020,
      "comed": 4021,
      "perfor": 4022,
      "rush": 4023,
      "display": 4024,
      "welcomed": 4025,
      "forgotten": 4026,
      "bouncing": 4027,
      "wandered": 4028,
      "crossed": 4029,
      "grocer": 4030,
      "kisses": 4031,
      "Happy": 4032,
      "Henry": 4033,
      "Bun": 4034,
      "breeze": 4035,
      "lumber": 4036,
      "nation": 4037,
      "levision": 4038,
      "alive": 4039,
      "stud": 4040,
      "bey": 4041,
      "myself": 4042,
      "icle": 4043,
      "spear": 4044,
      "television": 4045,
      "bury": 4046,
      "earlier": 4047,
      "offer": 4048,
      "flea": 4049,
      "hurting": 4050,
      "magaz": 4051,
      "twist": 4052,
      "lawyer": 4053,
      "peanuts": 4054,
      "structure": 4055,
      "shooting": 4056,
      "possible": 4057,
      "Cla": 4058,
      "Fro": 4059,
      "May": 4060,
      "lk": 4061,
      "sna": 4062,
      "argue": 4063,
      "stad": 4064,
      "novel": 4065,
      "plates": 4066,
      "plastic": 4067,
      "chy": 4068,
      "raise": 4069,
      "indy": 4070,
      "bears": 4071,
      "sett": 4072,
      "shouting": 4073,
      "shovel": 4074,
      "growled": 4075,
      "blankets": 4076,
      "mention": 4077,
      "quietly": 4078,
      "bananas": 4079,
      "exercise": 4080,
      "judge": 4081,
      "cauliflower": 4082,
      "stadium": 4083,
      "ining": 4084,
      "request": 4085,
      "cared": 4086,
      "jogging": 4087,
      "teas": 4088,
      "quit": 4089,
      "quiz": 4090,
      "sunrise": 4091,
      "spending": 4092,
      "surround": 4093,
      "disappear": 4094,
      "amazem": 4095,
      "sticky": 4096,
      "married": 4097,
      "tuna": 4098,
      "scoo": 4099,
      "cherries": 4100,
      "subway": 4101,
      "amazement": 4102,
      "Ma": 4103,
      "Ouch": 4104,
      "ele": 4105,
      "ipping": 4106,
      "mand": 4107,
      "mug": 4108,
      "admir": 4109,
      "lip": 4110,
      "urge": 4111,
      "dear": 4112,
      "Joy": 4113,
      "buried": 4114,
      "skull": 4115,
      "ction": 4116,
      "float": 4117,
      "chamber": 4118,
      "puzzles": 4119,
      "worms": 4120,
      "shrink": 4121,
      "shrugged": 4122,
      "language": 4123,
      "slept": 4124,
      "Lilly": 4125,
      "Sha": 4126,
      "Sad": 4127,
      "Ste": 4128,
      "cable": 4129,
      "lab": 4130,
      "py": 4131,
      "since": 4132,
      "saving": 4133,
      "web": 4134,
      "chur": 4135,
      "members": 4136,
      "doggy": 4137,
      "leak": 4138,
      "heads": 4139,
      "flame": 4140,
      "floated": 4141,
      "barrel": 4142,
      "chalk": 4143,
      "gifts": 4144,
      "comfort": 4145,
      "sprink": 4146,
      "œItâ": 4147,
      "memories": 4148,
      "church": 4149,
      "Wait": 4150,
      "cts": 4151,
      "ging": 4152,
      "padd": 4153,
      "sizes": 4154,
      "ues": 4155,
      "caring": 4156,
      "urt": 4157,
      "popped": 4158,
      "llen": 4159,
      "quack": 4160,
      "setting": 4161,
      "colle": 4162,
      "matches": 4163,
      "triangle": 4164,
      "musician": 4165,
      "writes": 4166,
      "praised": 4167,
      "easier": 4168,
      "uggle": 4169,
      "eagle": 4170,
      "squeeze": 4171,
      "appreciate": 4172,
      "sausage": 4173,
      "'.": 4174,
      "Ex": 4175,
      "Luck": 4176,
      "aff": 4177,
      "daisy": 4178,
      "emer": 4179,
      "omed": 4180,
      "hter": 4181,
      "rake": 4182,
      "coal": 4183,
      "grill": 4184,
      "prevent": 4185,
      "laughter": 4186,
      "blueberries": 4187,
      "following": 4188,
      "warmth": 4189,
      "floating": 4190,
      "missile": 4191,
      "mailman": 4192,
      "lecture": 4193,
      "Chir": 4194,
      "ignored": 4195,
      "classroom": 4196,
      "yawned": 4197,
      "Cat": 4198,
      "awe": 4199,
      "nies": 4200,
      "wigg": 4201,
      "€.": 4202,
      "rod": 4203,
      "jogged": 4204,
      "trade": 4205,
      "sings": 4206,
      "moves": 4207,
      "taller": 4208,
      "muscle": 4209,
      "blackboard": 4210,
      "burning": 4211,
      "separate": 4212,
      "captain": 4213,
      "settled": 4214,
      "scooter": 4215,
      "Gre": 4216,
      "Jess": 4217,
      "Zoom": 4218,
      "apart": 4219,
      "crun": 4220,
      "gloves": 4221,
      "wine": 4222,
      "zor": 4223,
      "tore": 4224,
      "invest": 4225,
      "waving": 4226,
      "herman": 4227,
      "unite": 4228,
      "sore": 4229,
      "razor": 4230,
      "bleed": 4231,
      "surf": 4232,
      "hearts": 4233,
      "hills": 4234,
      "People": 4235,
      "circus": 4236,
      "lawn": 4237,
      "palace": 4238,
      "sniffed": 4239,
      "avocado": 4240,
      "beamed": 4241,
      "panda": 4242,
      "fisherman": 4243,
      "claws": 4244,
      "investig": 4245,
      "Frank": 4246,
      "ib": 4247,
      "mall": 4248,
      "nce": 4249,
      "anna": 4250,
      "stitch": 4251,
      "igno": 4252,
      "bother": 4253,
      "boot": 4254,
      "skipping": 4255,
      "rabbits": 4256,
      "watches": 4257,
      "chess": 4258,
      "perm": 4259,
      "letting": 4260,
      "ringing": 4261,
      "twink": 4262,
      "planes": 4263,
      "easily": 4264,
      "jewelry": 4265,
      "melt": 4266,
      "cuddled": 4267,
      "video": 4268,
      "strawberries": 4269,
      "destroyed": 4270,
      "computer": 4271,
      "collected": 4272,
      "Luckily": 4273,
      "Liz": 4274,
      "Pen": 4275,
      "equ": 4276,
      "fas": 4277,
      "zing": 4278,
      "sty": 4279,
      "fortun": 4280,
      "gear": 4281,
      "uggling": 4282,
      "icing": 4283,
      "achie": 4284,
      "calls": 4285,
      "fastest": 4286,
      "keeping": 4287,
      "surprises": 4288,
      "medal": 4289,
      "However": 4290,
      "scratch": 4291,
      "receive": 4292,
      "ticket": 4293,
      "magazine": 4294,
      "fasc": 4295,
      "Each": 4296,
      "King": 4297,
      "bang": 4298,
      "gers": 4299,
      "jazz": 4300,
      "pages": 4301,
      "wed": 4302,
      "asht": 4303,
      "paused": 4304,
      "Josh": 4305,
      "conf": 4306,
      "blueberry": 4307,
      "firefight": 4308,
      "served": 4309,
      "slip": 4310,
      "destination": 4311,
      "pillows": 4312,
      "radish": 4313,
      "lime": 4314,
      "includ": 4315,
      "Katie": 4316,
      "approached": 4317,
      "Steve": 4318,
      "ashtray": 4319,
      "Cindy": 4320,
      "Harry": 4321,
      "bun": 4322,
      "dare": 4323,
      "ef": 4324,
      "iers": 4325,
      "tide": 4326,
      "inse": 4327,
      "socks": 4328,
      "expe": 4329,
      "parts": 4330,
      "poison": 4331,
      "difference": 4332,
      "trave": 4333,
      "provide": 4334,
      "crawling": 4335,
      "washing": 4336,
      "couraged": 4337,
      "soldiers": 4338,
      "Floppy": 4339,
      "experience": 4340,
      "grinned": 4341,
      "omeday": 4342,
      "investigate": 4343,
      "Like": 4344,
      "dam": 4345,
      "iv": 4346,
      "jail": 4347,
      "vator": 4348,
      "weap": 4349,
      "chor": 4350,
      "eaten": 4351,
      "comp": 4352,
      "headed": 4353,
      "spots": 4354,
      "understanding": 4355,
      "Someone": 4356,
      "prayed": 4357,
      "Goodbye": 4358,
      "score": 4359,
      "solved": 4360,
      "decorations": 4361,
      "weeks": 4362,
      "squeezed": 4363,
      "bumped": 4364,
      "scatter": 4365,
      "True": 4366,
      "Coco": 4367,
      "six": 4368,
      "Ruby": 4369,
      "elevator": 4370,
      "Sun": 4371,
      "Sant": 4372,
      "mm": 4373,
      "rum": 4374,
      "tug": 4375,
      "infant": 4376,
      "reverse": 4377,
      "orang": 4378,
      "veh": 4379,
      "ady": 4380,
      "aren": 4381,
      "ideas": 4382,
      "pared": 4383,
      "homes": 4384,
      "airplane": 4385,
      "squi": 4386,
      "coats": 4387,
      "candles": 4388,
      "jellyfish": 4389,
      "yog": 4390,
      "scooped": 4391,
      "punish": 4392,
      "fortunately": 4393,
      "fascin": 4394,
      "Santa": 4395,
      "oranges": 4396,
      "mitten": 4397,
      "hesit": 4398,
      "begged": 4399,
      "weighed": 4400,
      "lia": 4401,
      "demand": 4402,
      "oper": 4403,
      "permission": 4404,
      "moments": 4405,
      "deeper": 4406,
      "sparkling": 4407,
      "rubber": 4408,
      "struggling": 4409,
      "invite": 4410,
      "melted": 4411,
      "strawberry": 4412,
      "tomatoes": 4413,
      "recei": 4414,
      "revealed": 4415,
      "auto": 4416,
      "buckle": 4417,
      "yogurt": 4418,
      "bile": 4419,
      "cli": 4420,
      "dried": 4421,
      "drain": 4422,
      "mpo": 4423,
      "someday": 4424,
      "ason": 4425,
      "mobile": 4426,
      "rang": 4427,
      "decis": 4428,
      "shampo": 4429,
      "chores": 4430,
      "hotel": 4431,
      "mint": 4432,
      "pastry": 4433,
      "meeting": 4434,
      "freshed": 4435,
      "chirped": 4436,
      "chirping": 4437,
      "acorns": 4438,
      "ignore": 4439,
      "shampoo": 4440,
      "Wel": 4441,
      "lung": 4442,
      "lugg": 4443,
      "replace": 4444,
      "refreshed": 4445,
      "sters": 4446,
      "stable": 4447,
      "ppers": 4448,
      "Its": 4449,
      "copper": 4450,
      "mosqui": 4451,
      "manage": 4452,
      "quake": 4453,
      "blouse": 4454,
      "Everyday": 4455,
      "kindly": 4456,
      "bravely": 4457,
      "ipment": 4458,
      "pulling": 4459,
      "patiently": 4460,
      "osed": 4461,
      "invit": 4462,
      "mystery": 4463,
      "supposed": 4464,
      "earthquake": 4465,
      "Spike": 4466,
      "respons": 4467,
      "ribbon": 4468,
      "equipment": 4469,
      "automobile": 4470,
      "Welcome": 4471,
      "luggage": 4472,
      "file": 4473,
      "obey": 4474,
      "yucky": 4475,
      "zipped": 4476,
      "encouraged": 4477,
      "lets": 4478,
      "blood": 4479,
      "shot": 4480,
      "insisted": 4481,
      "proper": 4482,
      "Beth": 4483,
      "sparkle": 4484,
      "believed": 4485,
      "freeze": 4486,
      "velvet": 4487,
      "Remember": 4488,
      "collecting": 4489,
      "chewed": 4490,
      "meowed": 4491,
      "Chirpy": 4492,
      "company": 4493,
      "received": 4494,
      "\",": 4495,
      "Miss": 4496,
      "Yuck": 4497,
      "aero": 4498,
      "dire": 4499,
      "iately": 4500,
      "ms": 4501,
      "oas": 4502,
      "sits": 4503,
      "sip": 4504,
      "vac": 4505,
      "anchor": 4506,
      "remembers": 4507,
      "ripped": 4508,
      "entered": 4509,
      "root": 4510,
      "dresses": 4511,
      "hurri": 4512,
      "bites": 4513,
      "mediately": 4514,
      "climbs": 4515,
      "horses": 4516,
      "panic": 4517,
      "planted": 4518,
      "melon": 4519,
      "temple": 4520,
      "tickets": 4521,
      "oats": 4522,
      "weapon": 4523,
      "oasis": 4524,
      "Hop": 4525,
      "Lul": 4526,
      "Mo": 4527,
      "Sh": 4528,
      "Zo": 4529,
      "ygen": 4530,
      "zag": 4531,
      "recomm": 4532,
      "hers": 4533,
      "weight": 4534,
      "birdcage": 4535,
      "compl": 4536,
      "settle": 4537,
      "disagreed": 4538,
      "twisted": 4539,
      "strangers": 4540,
      "Jenna": 4541,
      "drinking": 4542,
      "beef": 4543,
      "teaching": 4544,
      "tune": 4545,
      "brick": 4546,
      "recognized": 4547,
      "suffer": 4548,
      "aeroplane": 4549,
      "Lulu": 4550,
      "Abig": 4551,
      "Mic": 4552,
      "hits": 4553,
      "kins": 4554,
      "none": 4555,
      "vy": 4556,
      "incre": 4557,
      "lic": 4558,
      "antly": 4559,
      "downstairs": 4560,
      "sunlight": 4561,
      "spike": 4562,
      "observe": 4563,
      "tracks": 4564,
      "agreement": 4565,
      "battery": 4566,
      "snapped": 4567,
      "admiring": 4568,
      "Abigail": 4569,
      "By": 4570,
      "bab": 4571,
      "bank": 4572,
      "fut": 4573,
      "junk": 4574,
      "zer": 4575,
      "œLook": 4576,
      "pride": 4577,
      "navy": 4578,
      "tease": 4579,
      "needles": 4580,
      "safety": 4581,
      "steel": 4582,
      "printed": 4583,
      "pedal": 4584,
      "petted": 4585,
      "continue": 4586,
      "mouths": 4587,
      "answers": 4588,
      "bringing": 4589,
      "machines": 4590,
      "Really": 4591,
      "Ready": 4592,
      "sliding": 4593,
      "selling": 4594,
      "scattered": 4595,
      "neighbourhood": 4596,
      "Betty": 4597,
      "Betsy": 4598,
      "Claire": 4599,
      "Exc": 4600,
      "hurricane": 4601,
      "future": 4602,
      "Ye": 4603,
      "chat": 4604,
      "digg": 4605,
      "restore": 4606,
      "wagging": 4607,
      "hated": 4608,
      "igzag": 4609,
      "ranch": 4610,
      "rested": 4611,
      "draws": 4612,
      "Something": 4613,
      "tongue": 4614,
      "attached": 4615,
      "grandmother": 4616,
      "twigs": 4617,
      "apologize": 4618,
      "sneezed": 4619,
      "œThatâ": 4620,
      "cartoons": 4621,
      "oxygen": 4622,
      "Dav": 4623,
      "bie": 4624,
      "olive": 4625,
      "tles": 4626,
      "zie": 4627,
      "waist": 4628,
      "pets": 4629,
      "skirt": 4630,
      "marching": 4631,
      "villag": 4632,
      "Lee": 4633,
      "Elly": 4634,
      "guns": 4635,
      "rides": 4636,
      "soared": 4637,
      "remained": 4638,
      "Unfortunately": 4639,
      "digging": 4640,
      "David": 4641,
      "mare": 4642,
      "rs": 4643,
      "swo": 4644,
      "alright": 4645,
      "!\",": 4646,
      "umbs": 4647,
      "loop": 4648,
      "worse": 4649,
      "famil": 4650,
      "turning": 4651,
      "growl": 4652,
      "visiting": 4653,
      "problems": 4654,
      "pinched": 4655,
      "price": 4656,
      "examined": 4657,
      "marbles": 4658,
      "Hoppy": 4659,
      "penguins": 4660,
      "pastels": 4661,
      "flutter": 4662,
      "surrounded": 4663,
      "permit": 4664,
      "vehicle": 4665,
      "cliff": 4666,
      "invitation": 4667,
      "vacation": 4668,
      "villagers": 4669,
      "Kay": 4670,
      "Mor": 4671,
      "Tin": 4672,
      "fy": 4673,
      "œNo": 4674,
      "stam": 4675,
      "herb": 4676,
      "neath": 4677,
      "hate": 4678,
      "izing": 4679,
      "perched": 4680,
      "wherever": 4681,
      "bookcase": 4682,
      "cutting": 4683,
      "lands": 4684,
      "neighborhood": 4685,
      "jewels": 4686,
      "grape": 4687,
      "Always": 4688,
      "disturbed": 4689,
      "tornado": 4690,
      "crunchy": 4691,
      "license": 4692,
      "Big": 4693,
      "Fol": 4694,
      "during": 4695,
      "hunt": 4696,
      "lee": 4697,
      "raised": 4698,
      "fest": 4699,
      "owned": 4700,
      "rained": 4701,
      "cones": 4702,
      "nightmare": 4703,
      "secrets": 4704,
      "freezer": 4705,
      "struggled": 4706,
      "guessed": 4707,
      "decision": 4708,
      "Zoe": 4709,
      "Moral": 4710,
      "Follow": 4711,
      "Adam": 4712,
      "Bir": 4713,
      "Lucky": 4714,
      "Nan": 4715,
      "ival": 4716,
      "lest": 4717,
      "stom": 4718,
      "beds": 4719,
      "watered": 4720,
      "overjoy": 4721,
      "comfy": 4722,
      "ffic": 4723,
      "mustache": 4724,
      "comforted": 4725,
      "actually": 4726,
      "Julie": 4727,
      "cuddle": 4728,
      "whistled": 4729,
      "massage": 4730,
      "emergen": 4731,
      "Penny": 4732,
      "fascinated": 4733,
      "overjoyed": 4734,
      "!'": 4735,
      "Jam": 4736,
      "gued": 4737,
      "simp": 4738,
      "ude": 4739,
      "argued": 4740,
      "immediately": 4741,
      "ripe": 4742,
      "uses": 4743,
      "everyday": 4744,
      "brain": 4745,
      "talent": 4746,
      "thrilled": 4747,
      "landsca": 4748,
      "scur": 4749,
      "miner": 4750,
      "bene": 4751,
      "valley": 4752,
      "neighbors": 4753,
      "practicing": 4754,
      "seats": 4755,
      "œIâ": 4756,
      "clearing": 4757,
      "measuring": 4758,
      "balancing": 4759,
      "introduc": 4760,
      "mentioned": 4761,
      "bleeding": 4762,
      "festival": 4763,
      "landscape": 4764,
      "Mad": 4765,
      "oh": 4766,
      "tions": 4767,
      "onwards": 4768,
      "lips": 4769,
      "endar": 4770,
      "weren": 4771,
      "peel": 4772,
      "urged": 4773,
      "sidewalk": 4774,
      "caut": 4775,
      "brings": 4776,
      "underneath": 4777,
      "choo": 4778,
      "bottles": 4779,
      "calendar": 4780,
      "zooming": 4781,
      "figured": 4782,
      "spaceship": 4783,
      "newspaper": 4784,
      "potatoes": 4785,
      "Froggy": 4786,
      "bunnies": 4787,
      "mosquito": 4788,
      "beneath": 4789,
      "Friend": 4790,
      "Ha": 4791,
      "Ja": 4792,
      "Lizzy": 4793,
      "Pr": 4794,
      "bbled": 4795,
      "sid": 4796,
      "zigzag": 4797,
      "instruc": 4798,
      "beg": 4799,
      "atch": 4800,
      "covery": 4801,
      "poppy": 4802,
      "label": 4803,
      "stomach": 4804,
      "contain": 4805,
      "steak": 4806,
      "discovery": 4807,
      "prints": 4808,
      "fixing": 4809,
      "trapped": 4810,
      "buildings": 4811,
      "hanger": 4812,
      "glowed": 4813,
      "suitcase": 4814,
      "menu": 4815,
      "loaded": 4816,
      "Robby": 4817,
      "grocery": 4818,
      "operation": 4819,
      "properly": 4820,
      "For": 4821,
      "fash": 4822,
      "lily": 4823,
      "lam": 4824,
      "muddy": 4825,
      "osity": 4826,
      "vor": 4827,
      "refr": 4828,
      "beside": 4829,
      "igera": 4830,
      "upstairs": 4831,
      "brid": 4832,
      "prepared": 4833,
      "crept": 4834,
      "offic": 4835,
      "Afterwards": 4836,
      "wonders": 4837,
      "voices": 4838,
      "paints": 4839,
      "rubbing": 4840,
      "roaring": 4841,
      "universe": 4842,
      "strip": 4843,
      "ordered": 4844,
      "...": 4845,
      "measured": 4846,
      "buzzing": 4847,
      "emergency": 4848,
      "simple": 4849,
      "refrigera": 4850,
      "refrigerator": 4851,
      "Bird": 4852,
      "Hanna": 4853,
      "Mmm": 4854,
      "Ok": 4855,
      "Yum": 4856,
      "bill": 4857,
      "ler": 4858,
      "rust": 4859,
      "tch": 4860,
      "tugged": 4861,
      "tonight": 4862,
      "ities": 4863,
      "beat": 4864,
      "nets": 4865,
      "iggling": 4866,
      "ric": 4867,
      "history": 4868,
      "smar": 4869,
      "ults": 4870,
      "parked": 4871,
      "pops": 4872,
      "firemen": 4873,
      "rocked": 4874,
      "catching": 4875,
      "sparkles": 4876,
      "protected": 4877,
      "rescu": 4878,
      "pancakes": 4879,
      "curled": 4880,
      "soaring": 4881,
      "vanished": 4882,
      "Hannah": 4883,
      "Pip": 4884,
      "broom": 4885,
      "ding": 4886,
      "event": 4887,
      "mittens": 4888,
      "heat": 4889,
      "heel": 4890,
      "orts": 4891,
      "beha": 4892,
      "aded": 4893,
      "chip": 4894,
      "wanting": 4895,
      "girls": 4896,
      "laid": 4897,
      "sadness": 4898,
      "precious": 4899,
      "prettie": 4900,
      "shopping": 4901,
      "bowed": 4902,
      "flood": 4903,
      "sterday": 4904,
      "satis": 4905,
      "chases": 4906,
      "doctors": 4907,
      "folded": 4908,
      "jamas": 4909,
      "completed": 4910,
      "yawn": 4911,
      "tremble": 4912,
      "cartoon": 4913,
      "Suzie": 4914,
      "sprinkles": 4915,
      "muscles": 4916,
      "instructions": 4917,
      "prettiest": 4918,
      "Ral": 4919,
      "Slow": 4920,
      "bare": 4921,
      "bby": 4922,
      "die": 4923,
      "died": 4924,
      "eight": 4925,
      "fer": 4926,
      "lines": 4927,
      "olives": 4928,
      "tasks": 4929,
      "ishes": 4930,
      "stro": 4931,
      "staff": 4932,
      "versity": 4933,
      "unlocked": 4934,
      "roo": 4935,
      "anytime": 4936,
      "pajamas": 4937,
      "Jacky": 4938,
      "izard": 4939,
      "pupp": 4940,
      "firework": 4941,
      "crashed": 4942,
      "challen": 4943,
      "stron": 4944,
      "bouncy": 4945,
      "stirring": 4946,
      "Chr": 4947,
      "escaped": 4948,
      "librarian": 4949,
      "sniff": 4950,
      "pearl": 4951,
      "trembling": 4952,
      "ornament": 4953,
      "studied": 4954,
      "firefighters": 4955,
      "included": 4956,
      "insect": 4957,
      "responsible": 4958,
      "introduced": 4959,
      "begin": 4960,
      "bridges": 4961,
      "Ralph": 4962,
      "pitch": 4963,
      "becoming": 4964,
      "unic": 4965,
      "pears": 4966,
      "peppers": 4967,
      "fully": 4968,
      "loose": 4969,
      "icky": 4970,
      "accompl": 4971,
      "creation": 4972,
      "fied": 4973,
      "slim": 4974,
      "sweets": 4975,
      "traffic": 4976,
      "rolls": 4977,
      "purred": 4978,
      "accidents": 4979,
      "struck": 4980,
      "university": 4981,
      "gathering": 4982,
      "nicer": 4983,
      "lemons": 4984,
      "leader": 4985,
      "wisdom": 4986,
      "waffles": 4987,
      "recognize": 4988,
      "disturb": 4989,
      "cobweb": 4990,
      "curtains": 4991,
      "Poppy": 4992,
      "regretted": 4993,
      "Tiny": 4994,
      "Maddy": 4995,
      "Ol": 4996,
      "Pinky": 4997,
      "bones": 4998,
      "cough": 4999,
      "mater": 5000,
      "wid": 5001,
      "yth": 5002,
      "œWe": 5003,
      "waits": 5004,
      "image": 5005,
      "happiest": 5006,
      "area": 5007,
      "exit": 5008,
      "seesaw": 5009,
      "stole": 5010,
      "realize": 5011,
      "waiter": 5012,
      "curiosity": 5013,
      "claps": 5014,
      "passing": 5015,
      "pigs": 5016,
      "roads": 5017,
      "pouring": 5018,
      "silence": 5019,
      "patterns": 5020,
      "succeeded": 5021,
      "Suzy": 5022,
      "ornaments": 5023,
      "Quick": 5024,
      "teasing": 5025,
      "Sharing": 5026,
      "Sadly": 5027,
      "Jacob": 5028,
      "materi": 5029,
      "Boun": 5030,
      "Out": 5031,
      "Our": 5032,
      "bbed": 5033,
      "hi": 5034,
      "ik": 5035,
      "mallow": 5036,
      "remove": 5037,
      "safer": 5038,
      "thro": 5039,
      "beard": 5040,
      "riage": 5041,
      "shmallow": 5042,
      "cope": 5043,
      "costum": 5044,
      "whip": 5045,
      "grey": 5046,
      "hurried": 5047,
      "hardly": 5048,
      "steep": 5049,
      "singer": 5050,
      "crumbs": 5051,
      "printer": 5052,
      "tastes": 5053,
      "rubs": 5054,
      "breaking": 5055,
      "activ": 5056,
      "solut": 5057,
      "collection": 5058,
      "decorated": 5059,
      "studying": 5060,
      "Julia": 5061,
      "Robbie": 5062,
      "shadows": 5063,
      "dared": 5064,
      "balanced": 5065,
      "sighs": 5066,
      "achieve": 5067,
      "Kayla": 5068,
      "billboard": 5069,
      "ythm": 5070,
      "throat": 5071,
      "costumes": 5072,
      "Tilly": 5073,
      "Zero": 5074,
      "poking": 5075,
      "wizard": 5076,
      "zen": 5077,
      "seag": 5078,
      "weed": 5079,
      "entire": 5080,
      "racco": 5081,
      "brand": 5082,
      "hugging": 5083,
      "decides": 5084,
      "items": 5085,
      "bud": 5086,
      "spill": 5087,
      "letâ": 5088,
      "underground": 5089,
      "bookshelf": 5090,
      "steam": 5091,
      "wondering": 5092,
      "mister": 5093,
      "frozen": 5094,
      "tails": 5095,
      "bathrobe": 5096,
      "struggle": 5097,
      "spiders": 5098,
      "mountains": 5099,
      "curly": 5100,
      "strike": 5101,
      "scratched": 5102,
      "brushes": 5103,
      "Jessie": 5104,
      "stamps": 5105,
      "fashion": 5106,
      "barely": 5107,
      "seagull": 5108,
      "raccoon": 5109,
      "Dolly": 5110,
      "En": 5111,
      "Ke": 5112,
      "Nick": 5113,
      "Rover": 5114,
      "sed": 5115,
      "wre": 5116,
      "wink": 5117,
      "œThank": 5118,
      "œDon": 5119,
      "€”": 5120,
      "toe": 5121,
      "sages": 5122,
      "stare": 5123,
      "rious": 5124,
      "united": 5125,
      "peered": 5126,
      "rance": 5127,
      "oped": 5128,
      "drag": 5129,
      "wooden": 5130,
      "planned": 5131,
      "partic": 5132,
      "reminder": 5133,
      "pencils": 5134,
      "applauded": 5135,
      "Jamie": 5136,
      "slimy": 5137,
      "Boo": 5138,
      "List": 5139,
      "Watch": 5140,
      "scra": 5141,
      "inch": 5142,
      "release": 5143,
      "encourage": 5144,
      "safar": 5145,
      "rac": 5146,
      "racing": 5147,
      "hoo": 5148,
      "homework": 5149,
      "master": 5150,
      "bedtime": 5151,
      "potion": 5152,
      "faraway": 5153,
      "disagree": 5154,
      "frosting": 5155,
      "matched": 5156,
      "iggy": 5157,
      "mixing": 5158,
      "screams": 5159,
      "winning": 5160,
      "piles": 5161,
      "kicking": 5162,
      "flavor": 5163,
      "dolphins": 5164,
      "crackers": 5165,
      "pupil": 5166,
      "Carl": 5167,
      "reveal": 5168,
      "tickle": 5169,
      "Slowly": 5170,
      "Listen": 5171,
      "safari": 5172,
      ".'": 5173,
      "Abb": 5174,
      "De": 5175,
      "Gig": 5176,
      "Get": 5177,
      "Jon": 5178,
      "Lu": 5179,
      "Sunny": 5180,
      "Tues": 5181,
      "pies": 5182,
      "snap": 5183,
      "œCan": 5184,
      "œHello": 5185,
      "itches": 5186,
      "iding": 5187,
      "nes": 5188,
      "boom": 5189,
      "outdoors": 5190,
      "stored": 5191,
      "sorting": 5192,
      "uct": 5193,
      "perature": 5194,
      "monsters": 5195,
      "bars": 5196,
      "trips": 5197,
      "result": 5198,
      "copy": 5199,
      "stretching": 5200,
      "chewing": 5201,
      "Sophia": 5202,
      "temperature": 5203,
      "shivered": 5204,
      "memory": 5205,
      "gained": 5206,
      "weeping": 5207,
      "brushed": 5208,
      "dusty": 5209,
      "prunes": 5210,
      "kneeled": 5211,
      "recommend": 5212,
      "sides": 5213,
      "lamb": 5214,
      "officer": 5215,
      "Ollie": 5216,
      "particular": 5217,
      "Abbie": 5218,
      "Gigi": 5219,
      "Che": 5220,
      "Day": 5221,
      "Ear": 5222,
      "Those": 5223,
      "knel": 5224,
      "tax": 5225,
      "tty": 5226,
      "vow": 5227,
      "vic": 5228,
      "hest": 5229,
      "however": 5230,
      "exact": 5231,
      "gotten": 5232,
      "Anne": 5233,
      "surface": 5234,
      "staying": 5235,
      "coloring": 5236,
      "listens": 5237,
      "Doggy": 5238,
      "baked": 5239,
      "darkness": 5240,
      "situ": 5241,
      "covers": 5242,
      "wasnâ": 5243,
      "ourselves": 5244,
      "healed": 5245,
      "winner": 5246,
      "rainbows": 5247,
      "organizing": 5248,
      "blows": 5249,
      "knights": 5250,
      "sights": 5251,
      "competition": 5252,
      "stealing": 5253,
      "discovering": 5254,
      "knees": 5255,
      "confident": 5256,
      "effort": 5257,
      "travell": 5258,
      "Sunday": 5259,
      "cautious": 5260,
      "Friends": 5261,
      "solution": 5262,
      "knelt": 5263,
      "taxi": 5264,
      "Ba": 5265,
      "Karen": 5266,
      "Mon": 5267,
      "Pi": 5268,
      "Wed": 5269,
      "cous": 5270,
      "fab": 5271,
      "giggling": 5272,
      "pad": 5273,
      "vin": 5274,
      "wound": 5275,
      "omas": 5276,
      "isies": 5277,
      "ided": 5278,
      "liqu": 5279,
      "theirs": 5280,
      "ranger": 5281,
      "whatever": 5282,
      "acted": 5283,
      "Thomas": 5284,
      "rule": 5285,
      "keeps": 5286,
      "dragged": 5287,
      "magnets": 5288,
      "snat": 5289,
      "guys": 5290,
      "powers": 5291,
      "daisies": 5292,
      "strum": 5293,
      "itchy": 5294,
      "June": 5295,
      "leaning": 5296,
      "bloomed": 5297,
      "punished": 5298,
      "countryside": 5299,
      "slapped": 5300,
      "direction": 5301,
      "babies": 5302,
      "scurried": 5303,
      "challenge": 5304,
      "Wednes": 5305,
      "liquid": 5306,
      "Bad": 5307,
      "Mi": 5308,
      "Put": 5309,
      "ago": 5310,
      "ks": 5311,
      "masks": 5312,
      "pout": 5313,
      "rul": 5314,
      "tour": 5315,
      "todd": 5316,
      "rele": 5317,
      "haust": 5318,
      "loving": 5319,
      "nect": 5320,
      "rockets": 5321,
      "exhaust": 5322,
      "cans": 5323,
      "trig": 5324,
      "flames": 5325,
      "dreamt": 5326,
      "deser": 5327,
      "relief": 5328,
      "fuzzy": 5329,
      "flap": 5330,
      "silent": 5331,
      "twirling": 5332,
      "rhythm": 5333,
      "nails": 5334,
      "sneaked": 5335,
      "Buzzy": 5336,
      "crowd": 5337,
      "polishing": 5338,
      "photos": 5339,
      "Green": 5340,
      "style": 5341,
      "demanded": 5342,
      "mineral": 5343,
      "smarter": 5344,
      "roots": 5345,
      "uctantly": 5346,
      "Earth": 5347,
      "exactly": 5348,
      "Any": 5349,
      "Gary": 5350,
      "bend": 5351,
      "bumpy": 5352,
      "fir": 5353,
      "sire": 5354,
      "œMommy": 5355,
      "herbs": 5356,
      "noses": 5357,
      "youâ": 5358,
      "entrance": 5359,
      "Itâ": 5360,
      "mane": 5361,
      "staring": 5362,
      "lap": 5363,
      "worries": 5364,
      "cape": 5365,
      "sorted": 5366,
      "eats": 5367,
      "ventured": 5368,
      "foods": 5369,
      "flat": 5370,
      "dresser": 5371,
      "sweeties": 5372,
      "matching": 5373,
      "creating": 5374,
      "char": 5375,
      "glitter": 5376,
      "highest": 5377,
      "network": 5378,
      "warn": 5379,
      "trol": 5380,
      "Judy": 5381,
      "bbly": 5382,
      "stripes": 5383,
      "completely": 5384,
      "camping": 5385,
      "paddle": 5386,
      "expect": 5387,
      "Yeah": 5388,
      "Enjoy": 5389,
      "dragons": 5390,
      "Wednesday": 5391,
      "exhausted": 5392,
      "siren": 5393,
      "Far": 5394,
      "Many": 5395,
      "cent": 5396,
      "click": 5397,
      "len": 5398,
      "sled": 5399,
      "tum": 5400,
      "unex": 5401,
      "wow": 5402,
      "œWhy": 5403,
      "œOh": 5404,
      "€˜": 5405,
      "ount": 5406,
      "onions": 5407,
      "ora": 5408,
      "cky": 5409,
      "sobbed": 5410,
      "pected": 5411,
      "odd": 5412,
      "istmas": 5413,
      "ledge": 5414,
      "workers": 5415,
      "opening": 5416,
      "ladybug": 5417,
      "tractor": 5418,
      "arrive": 5419,
      "Becky": 5420,
      "sisters": 5421,
      "adding": 5422,
      "drinks": 5423,
      "belly": 5424,
      "coloured": 5425,
      "melting": 5426,
      "Dani": 5427,
      "cheering": 5428,
      "objects": 5429,
      "repeated": 5430,
      "screws": 5431,
      "Uncle": 5432,
      "muffins": 5433,
      "wedding": 5434,
      "swooped": 5435,
      "Birdy": 5436,
      "Christmas": 5437,
      "budge": 5438,
      "Days": 5439,
      "vowed": 5440,
      "fabric": 5441,
      "snatched": 5442,
      "firm": 5443,
      "unexpected": 5444,
      "Olive": 5445,
      "Pipp": 5446,
      "bunch": 5447,
      "dent": 5448,
      "piggy": 5449,
      "sway": 5450,
      "vies": 5451,
      "toed": 5452,
      "seven": 5453,
      "unpacked": 5454,
      "wept": 5455,
      "fever": 5456,
      "cot": 5457,
      "movies": 5458,
      "pose": 5459,
      "pockets": 5460,
      "opin": 5461,
      "catches": 5462,
      "chef": 5463,
      "contest": 5464,
      "control": 5465,
      "colored": 5466,
      "printing": 5467,
      "delivery": 5468,
      "touching": 5469,
      "prov": 5470,
      "Emmy": 5471,
      "cracked": 5472,
      "pointy": 5473,
      "Being": 5474,
      "growling": 5475,
      "interested": 5476,
      "celebration": 5477,
      "spraying": 5478,
      "squeak": 5479,
      "towels": 5480,
      "clowns": 5481,
      "horns": 5482,
      "gazed": 5483,
      "truly": 5484,
      "delivered": 5485,
      "include": 5486,
      "discussed": 5487,
      "fluttered": 5488,
      "planets": 5489,
      "teaspo": 5490,
      "quacked": 5491,
      "expected": 5492,
      "rumble": 5493,
      "rescued": 5494,
      "Luke": 5495,
      "Tuesday": 5496,
      "Mikey": 5497,
      "ruler": 5498,
      "Lau": 5499,
      "Take": 5500,
      "lu": 5501,
      "ris": 5502,
      "swal": 5503,
      "scient": 5504,
      "xu": 5505,
      "rees": 5506,
      "ists": 5507,
      "plent": 5508,
      "soak": 5509,
      "forts": 5510,
      "timer": 5511,
      "outfit": 5512,
      "peaches": 5513,
      "pots": 5514,
      "starfish": 5515,
      "stolen": 5516,
      "grant": 5517,
      "usually": 5518,
      "goodnight": 5519,
      "knowledge": 5520,
      "maid": 5521,
      "forehead": 5522,
      "sports": 5523,
      "concer": 5524,
      "leather": 5525,
      "farther": 5526,
      "stern": 5527,
      "reluctantly": 5528,
      "patience": 5529,
      "Leave": 5530,
      "inviting": 5531,
      "Both": 5532,
      "flags": 5533,
      "paintings": 5534,
      "indeed": 5535,
      "seems": 5536,
      "arrows": 5537,
      "yelling": 5538,
      "bumps": 5539,
      "improved": 5540,
      "burrow": 5541,
      "Quack": 5542,
      "Excuse": 5543,
      "Prin": 5544,
      "œDonâ": 5545,
      "situation": 5546,
      "Laura": 5547,
      "luxu": 5548,
      "swallow": 5549,
      "plenty": 5550,
      "Ah": 5551,
      "During": 5552,
      "Fu": 5553,
      "Mir": 5554,
      "Oli": 5555,
      "cash": 5556,
      "fted": 5557,
      "mice": 5558,
      "pis": 5559,
      "zes": 5560,
      "œThis": 5561,
      "tol": 5562,
      "inter": 5563,
      "igning": 5564,
      "rip": 5565,
      "lies": 5566,
      "rob": 5567,
      "peck": 5568,
      "mance": 5569,
      "caused": 5570,
      "usband": 5571,
      "bravery": 5572,
      "ruin": 5573,
      "fireworks": 5574,
      "sandcastles": 5575,
      "squish": 5576,
      "pretends": 5577,
      "marked": 5578,
      "bowls": 5579,
      "screaming": 5580,
      "teaches": 5581,
      "mination": 5582,
      "desert": 5583,
      "tested": 5584,
      "laying": 5585,
      "snakes": 5586,
      "strings": 5587,
      "protecting": 5588,
      "scales": 5589,
      "determination": 5590,
      "markers": 5591,
      "Whee": 5592,
      "recorded": 5593,
      "scratches": 5594,
      "supplies": 5595,
      "seconds": 5596,
      "sausages": 5597,
      "slap": 5598,
      "introduce": 5599,
      "performance": 5600,
      "groceries": 5601,
      "Zoomy": 5602,
      "satisfied": 5603,
      "unicorn": 5604,
      "activities": 5605,
      "victory": 5606,
      "cautiously": 5607,
      "released": 5608,
      "nectar": 5609,
      "pistol": 5610,
      "Lizz": 5611,
      "Rab": 5612,
      "Two": 5613,
      "aut": 5614,
      "freed": 5615,
      "gar": 5616,
      "iar": 5617,
      "ker": 5618,
      "tex": 5619,
      "recor": 5620,
      "wasted": 5621,
      "arran": 5622,
      "allo": 5623,
      "youn": 5624,
      "chuck": 5625,
      "forgetting": 5626,
      "ters": 5627,
      "fetch": 5628,
      "cost": 5629,
      "?\",": 5630,
      "ica": 5631,
      "fault": 5632,
      "willing": 5633,
      "speaking": 5634,
      "swirl": 5635,
      "untie": 5636,
      "shined": 5637,
      "explorers": 5638,
      "single": 5639,
      "shock": 5640,
      "insist": 5641,
      "pedals": 5642,
      "written": 5643,
      "napkins": 5644,
      "scrubbed": 5645,
      "Pepper": 5646,
      "actions": 5647,
      "diving": 5648,
      "radishes": 5649,
      "dinosaurs": 5650,
      "wipes": 5651,
      "yells": 5652,
      "avoid": 5653,
      "ribbons": 5654,
      "hesitated": 5655,
      "lungs": 5656,
      "familiar": 5657,
      "Keep": 5658,
      "toddler": 5659,
      "Lizzie": 5660,
      "Mat": 5661,
      "Run": 5662,
      "Sim": 5663,
      "Water": 5664,
      "aster": 5665,
      "awake": 5666,
      "glee": 5667,
      "nine": 5668,
      "pite": 5669,
      "rr": 5670,
      "zero": 5671,
      "anno": 5672,
      "onge": 5673,
      "impossible": 5674,
      "shelves": 5675,
      "somebody": 5676,
      "backed": 5677,
      "faced": 5678,
      "angled": 5679,
      "wobble": 5680,
      "sponge": 5681,
      "shoulders": 5682,
      "replaced": 5683,
      "snuck": 5684,
      "marshmallow": 5685,
      "closes": 5686,
      "buying": 5687,
      "hides": 5688,
      "reaching": 5689,
      "wouldnâ": 5690,
      "suits": 5691,
      "paths": 5692,
      "dipped": 5693,
      "princesses": 5694,
      "candies": 5695,
      "gaze": 5696,
      "recording": 5697,
      "forks": 5698,
      "guest": 5699,
      "batteries": 5700,
      "shivering": 5701,
      "tiptoed": 5702,
      "paddled": 5703,
      "twinkle": 5704,
      "Shh": 5705,
      "Mickey": 5706,
      "Nana": 5707,
      "Baa": 5708,
      "scientist": 5709,
      "texture": 5710,
      "annoy": 5711,
      "marshmallows": 5712,
      "Abby": 5713,
      "Cu": 5714,
      "Fe": 5715,
      "Gem": 5716,
      "Lind": 5717,
      "Nina": 5718,
      "Rile": 5719,
      "Snap": 5720,
      "Uh": 5721,
      "husband": 5722,
      "sie": 5723,
      "tuce": 5724,
      "resis": 5725,
      "ory": 5726,
      "third": 5727,
      "season": 5728,
      "youth": 5729,
      "players": 5730,
      "ford": 5731,
      "rops": 5732,
      "Time": 5733,
      "urry": 5734,
      "learns": 5735,
      "pause": 5736,
      "handful": 5737,
      "pered": 5738,
      "lettuce": 5739,
      "Johnson": 5740,
      "Nothing": 5741,
      "tallest": 5742,
      "reply": 5743,
      "rings": 5744,
      "creamy": 5745,
      "filling": 5746,
      "darker": 5747,
      "drives": 5748,
      "drifted": 5749,
      "hider": 5750,
      "Beep": 5751,
      "psy": 5752,
      "afford": 5753,
      "ments": 5754,
      "startled": 5755,
      "prayer": 5756,
      "calmed": 5757,
      "wraps": 5758,
      "valued": 5759,
      "folding": 5760,
      "weekend": 5761,
      "squares": 5762,
      "peeking": 5763,
      "gracefully": 5764,
      "neighbours": 5765,
      "Flopsy": 5766,
      "Star": 5767,
      "sneaky": 5768,
      "wiggled": 5769,
      "stomped": 5770,
      "beginning": 5771,
      "materials": 5772,
      "Daniel": 5773,
      "Pippin": 5774,
      "dentist": 5775,
      "Rabbit": 5776,
      "Linda": 5777,
      "Riley": 5778,
      "Mouse": 5779,
      "Mila": 5780,
      "Matt": 5781,
      "Nora": 5782,
      "Pandy": 5783,
      "Sque": 5784,
      "Vroom": 5785,
      "aven": 5786,
      "cure": 5787,
      "ded": 5788,
      "dies": 5789,
      "echo": 5790,
      "lon": 5791,
      "rising": 5792,
      "sen": 5793,
      "yum": 5794,
      "ene": 5795,
      "lever": 5796,
      "bead": 5797,
      "ampol": 5798,
      "west": 5799,
      "webs": 5800,
      "lied": 5801,
      "forgiven": 5802,
      "ropes": 5803,
      "raind": 5804,
      "idey": 5805,
      "agrees": 5806,
      "canâ": 5807,
      "deal": 5808,
      "loops": 5809,
      "yourselves": 5810,
      "trampol": 5811,
      "skill": 5812,
      "reads": 5813,
      "dollars": 5814,
      "smiley": 5815,
      "resting": 5816,
      "misses": 5817,
      "tablet": 5818,
      "cuts": 5819,
      "mermaid": 5820,
      "magician": 5821,
      "marriage": 5822,
      "wears": 5823,
      "guy": 5824,
      "wrist": 5825,
      "threat": 5826,
      "yesterday": 5827,
      "celebrating": 5828,
      "source": 5829,
      "bully": 5830,
      "splashes": 5831,
      "Owl": 5832,
      "swans": 5833,
      "Although": 5834,
      "Flora": 5835,
      "pumpkins": 5836,
      "tricky": 5837,
      "giraff": 5838,
      "breathed": 5839,
      "tickled": 5840,
      "Spidey": 5841,
      "Roger": 5842,
      "honk": 5843,
      "Sadie": 5844,
      "increase": 5845,
      "cousin": 5846,
      "teaspoon": 5847,
      "chuckled": 5848,
      "raindrops": 5849,
      "trampoline": 5850,
      "giraffes": 5851,
      "Fire": 5852,
      "Holly": 5853,
      "Spr": 5854,
      "Sleep": 5855,
      "Since": 5856,
      "Tess": 5857,
      "Wil": 5858,
      "Zee": 5859,
      "fits": 5860,
      "itor": 5861,
      "ky": 5862,
      "lings": 5863,
      "pon": 5864,
      "ann": 5865,
      "repa": 5866,
      "removed": 5867,
      "restored": 5868,
      "haw": 5869,
      "encou": 5870,
      "losing": 5871,
      "secure": 5872,
      "cept": 5873,
      "unsure": 5874,
      "chop": 5875,
      "oky": 5876,
      "notes": 5877,
      "wenty": 5878,
      "ranny": 5879,
      "lower": 5880,
      "scarves": 5881,
      "dads": 5882,
      "Annabel": 5883,
      "teles": 5884,
      "buckets": 5885,
      "blink": 5886,
      "blings": 5887,
      "least": 5888,
      "worker": 5889,
      "remembering": 5890,
      "snuggle": 5891,
      "kites": 5892,
      "grassy": 5893,
      "rocking": 5894,
      "slower": 5895,
      "fairies": 5896,
      "visitor": 5897,
      "packing": 5898,
      "signed": 5899,
      "seeker": 5900,
      "shrinking": 5901,
      "squealed": 5902,
      "borrowed": 5903,
      "lollipops": 5904,
      "symbols": 5905,
      "hallway": 5906,
      "siblings": 5907,
      "Roar": 5908,
      "honked": 5909,
      "hesitant": 5910,
      "fluttering": 5911,
      "iki": 5912,
      "scraped": 5913,
      "Mira": 5914,
      "cashier": 5915,
      "repaired": 5916,
      "encourag": 5917,
      "telescope": 5918,
      "''": 5919,
      "Ali": 5920,
      "Binky": 5921,
      "Granny": 5922,
      "Je": 5923,
      "Zara": 5924,
      "astron": 5925,
      "east": 5926,
      "rup": 5927,
      "sense": 5928,
      "tiss": 5929,
      "twenty": 5930,
      "va": 5931,
      "œDo": 5932,
      "ena": 5933,
      "stitches": 5934,
      "adult": 5935,
      "soaked": 5936,
      "goals": 5937,
      "itted": 5938,
      "geese": 5939,
      "rail": 5940,
      "mets": 5941,
      "helmets": 5942,
      "except": 5943,
      "owners": 5944,
      "scaring": 5945,
      "Everybody": 5946,
      "cond": 5947,
      "ruining": 5948,
      "Dog": 5949,
      "sticking": 5950,
      "importance": 5951,
      "coral": 5952,
      "pleasure": 5953,
      "patted": 5954,
      "mixture": 5955,
      "miles": 5956,
      "hopeful": 5957,
      "crabs": 5958,
      "policeman": 5959,
      "marker": 5960,
      "tunnels": 5961,
      "zipping": 5962,
      "jackets": 5963,
      "Stay": 5964,
      "blooming": 5965,
      "Carol": 5966,
      "œYouâ": 5967,
      "wiggle": 5968,
      "Excited": 5969,
      "families": 5970,
      "chips": 5971,
      "accomplish": 5972,
      "trigued": 5973,
      "luxury": 5974,
      "swallowed": 5975,
      "resisted": 5976,
      "astronaut": 5977,
      "--": 5978,
      "Jan": 5979,
      "Jay": 5980,
      "Larry": 5981,
      "Sal": 5982,
      "joking": 5983,
      "snail": 5984,
      "tangled": 5985,
      "instrum": 5986,
      "iled": 5987,
      "amount": 5988,
      "ados": 5989,
      "lyn": 5990,
      "playtime": 5991,
      "dod": 5992,
      "anger": 5993,
      "acting": 5994,
      "quilt": 5995,
      "steer": 5996,
      "tricked": 5997,
      "artist": 5998,
      "passeng": 5999,
      "belts": 6000,
      "Meow": 6001,
      "blocking": 6002,
      "marks": 6003,
      "salty": 6004,
      "Paula": 6005,
      "wandering": 6006,
      "cheeks": 6007,
      "complained": 6008,
      "rewarded": 6009,
      "avocados": 6010,
      "slices": 6011,
      "repeats": 6012,
      "awesome": 6013,
      "twinkling": 6014,
      "achieved": 6015,
      "growls": 6016,
      "behavi": 6017,
      "puppies": 6018,
      "pouted": 6019,
      "deserve": 6020,
      "Farmer": 6021,
      "concert": 6022,
      "passengers": 6023,
      "10": 6024,
      "Along": 6025,
      "Bess": 6026,
      "Fox": 6027,
      "Mel": 6028,
      "Mother": 6029,
      "Pre": 6030,
      "bak": 6031,
      "hitting": 6032,
      "ien": 6033,
      "lined": 6034,
      "sank": 6035,
      "yan": 6036,
      "œMom": 6037,
      "intrigued": 6038,
      "reass": 6039,
      "erase": 6040,
      "argu": 6041,
      "beloved": 6042,
      "neither": 6043,
      "sever": 6044,
      "seas": 6045,
      "rior": 6046,
      "roars": 6047,
      "express": 6048,
      "abby": 6049,
      "naps": 6050,
      "presses": 6051,
      "raincoat": 6052,
      "stays": 6053,
      "slam": 6054,
      "stem": 6055,
      "afterwards": 6056,
      "colder": 6057,
      "Finny": 6058,
      "proje": 6059,
      "snowballs": 6060,
      "foxes": 6061,
      "heavier": 6062,
      "health": 6063,
      "knocks": 6064,
      "wishing": 6065,
      "parties": 6066,
      "logs": 6067,
      "Without": 6068,
      "warrior": 6069,
      "pans": 6070,
      "Bluey": 6071,
      "cushions": 6072,
      "delivering": 6073,
      "surrendered": 6074,
      "oysters": 6075,
      "respond": 6076,
      "burst": 6077,
      "performing": 6078,
      "Mabel": 6079,
      "Jessica": 6080,
      "firefighter": 6081,
      "including": 6082,
      "rusty": 6083,
      "stroked": 6084,
      "recorder": 6085,
      "younger": 6086,
      "Curious": 6087,
      "Gemma": 6088,
      "echoed": 6089,
      "beads": 6090,
      "hawk": 6091,
      "arguing": 6092,
      "Ash": 6093,
      "Bri": 6094,
      "Isn": 6095,
      "Mine": 6096,
      "Pam": 6097,
      "Ricky": 6098,
      "Spl": 6099,
      "Spark": 6100,
      "blast": 6101,
      "cers": 6102,
      "eted": 6103,
      "scor": 6104,
      "swords": 6105,
      "stool": 6106,
      "tuck": 6107,
      "tier": 6108,
      "œMy": 6109,
      "toss": 6110,
      "rever": 6111,
      "ouch": 6112,
      "ilder": 6113,
      "sale": 6114,
      "immer": 6115,
      "orted": 6116,
      "ths": 6117,
      "behaving": 6118,
      "sew": 6119,
      "gobbled": 6120,
      "aret": 6121,
      "dots": 6122,
      "worn": 6123,
      "everybody": 6124,
      "teased": 6125,
      "creations": 6126,
      "prettier": 6127,
      "bert": 6128,
      "observed": 6129,
      "wonâ": 6130,
      "ortun": 6131,
      "dancers": 6132,
      "flight": 6133,
      "froze": 6134,
      "swims": 6135,
      "sation": 6136,
      "snowball": 6137,
      "talks": 6138,
      "Bee": 6139,
      "mints": 6140,
      "steady": 6141,
      "action": 6142,
      "results": 6143,
      "zookeeper": 6144,
      "matters": 6145,
      "Freddie": 6146,
      "feeding": 6147,
      "examining": 6148,
      "flapping": 6149,
      "paying": 6150,
      "tigers": 6151,
      "chirp": 6152,
      "pebbles": 6153,
      "Robin": 6154,
      "basement": 6155,
      "audience": 6156,
      "campfire": 6157,
      "limes": 6158,
      "choices": 6159,
      "warnings": 6160,
      "surfboard": 6161,
      "banged": 6162,
      "traveled": 6163,
      "direct": 6164,
      "behaved": 6165,
      "stroke": 6166,
      "sniffs": 6167,
      "Bouncy": 6168,
      "opinion": 6169,
      "chefs": 6170,
      "Princess": 6171,
      "squishy": 6172,
      "arranged": 6173,
      "Simon": 6174,
      "Bon": 6175,
      "Bang": 6176,
      "Mu": 6177,
      "Nice": 6178,
      "Pudd": 6179,
      "Ryan": 6180,
      "Todd": 6181,
      "Unt": 6182,
      "Wo": 6183,
      "Wally": 6184,
      "cas": 6185,
      "wins": 6186,
      "inst": 6187,
      "oni": 6188,
      "stain": 6189,
      "thud": 6190,
      "thorn": 6191,
      "sequ": 6192,
      "seals": 6193,
      "sewed": 6194,
      "ades": 6195,
      "hog": 6196,
      "fears": 6197,
      "feast": 6198,
      "motion": 6199,
      "wobbly": 6200,
      "teen": 6201,
      "rains": 6202,
      "consequ": 6203,
      "nodding": 6204,
      "Does": 6205,
      "grabbing": 6206,
      "drawn": 6207,
      "Too": 6208,
      "ences": 6209,
      "horiz": 6210,
      "seaweed": 6211,
      "winked": 6212,
      "praying": 6213,
      "polished": 6214,
      "smelling": 6215,
      "wrapping": 6216,
      "genie": 6217,
      "imagining": 6218,
      "bells": 6219,
      "sweat": 6220,
      "crossing": 6221,
      "vanish": 6222,
      "vanilla": 6223,
      "occas": 6224,
      "Start": 6225,
      "sailors": 6226,
      "tempt": 6227,
      "wires": 6228,
      "hedgehog": 6229,
      "screwdriver": 6230,
      "separated": 6231,
      "languages": 6232,
      "buzzed": 6233,
      "suffered": 6234,
      "Frog": 6235,
      "increased": 6236,
      "puppet": 6237,
      "widened": 6238,
      "provided": 6239,
      "ponies": 6240,
      "encouraging": 6241,
      "Until": 6242,
      "Bugg": 6243,
      "Er": 6244,
      "Ew": 6245,
      "Kelly": 6246,
      "Min": 6247,
      "Mac": 6248,
      "Rain": 6249,
      "Spe": 6250,
      "Smo": 6251,
      "aimed": 6252,
      "hour": 6253,
      "til": 6254,
      "xie": 6255,
      "œNow": 6256,
      "œCome": 6257,
      "reason": 6258,
      "ware": 6259,
      "wadd": 6260,
      "irts": 6261,
      "neare": 6262,
      "sel": 6263,
      "amed": 6264,
      "ampered": 6265,
      "hissed": 6266,
      "antic": 6267,
      "playroom": 6268,
      "assm": 6269,
      "dot": 6270,
      "roses": 6271,
      "pecked": 6272,
      "coach": 6273,
      "helpers": 6274,
      "treated": 6275,
      "bras": 6276,
      "treehouse": 6277,
      "tying": 6278,
      "Joan": 6279,
      "Jojo": 6280,
      "handsome": 6281,
      "spy": 6282,
      "final": 6283,
      "badge": 6284,
      "conne": 6285,
      "bows": 6286,
      "twice": 6287,
      "merry": 6288,
      "spooky": 6289,
      "creativ": 6290,
      "charac": 6291,
      "zebras": 6292,
      "pennies": 6293,
      "plans": 6294,
      "planning": 6295,
      "scampered": 6296,
      "mailed": 6297,
      "attack": 6298,
      "slither": 6299,
      "flipped": 6300,
      "flips": 6301,
      "panick": 6302,
      "swept": 6303,
      "pizzas": 6304,
      "Mean": 6305,
      "peacefully": 6306,
      "drums": 6307,
      "leads": 6308,
      "Love": 6309,
      "videos": 6310,
      "mesmer": 6311,
      "darling": 6312,
      "complaining": 6313,
      "delayed": 6314,
      "performed": 6315,
      "requested": 6316,
      "ibly": 6317,
      "spikes": 6318,
      "Birdie": 6319,
      "strongest": 6320,
      "wreck": 6321,
      "Cheese": 6322,
      "travelled": 6323,
      "firmly": 6324,
      "Fuzzy": 6325,
      "Squeak": 6326,
      "tissue": 6327,
      "accomplishment": 6328,
      "Bessie": 6329,
      "Pretty": 6330,
      "project": 6331,
      "consequences": 6332,
      "horizon": 6333,
      "Ernie": 6334,
      "creativity": 6335,
      "?'": 6336,
      "Again": 6337,
      "Bru": 6338,
      "Hoo": 6339,
      "Pu": 6340,
      "Sasha": 6341,
      "Wend": 6342,
      "Wigg": 6343,
      "lent": 6344,
      "pours": 6345,
      "vas": 6346,
      "œLet": 6347,
      "edges": 6348,
      "refresh": 6349,
      "ister": 6350,
      "bec": 6351,
      "atur": 6352,
      "vegg": 6353,
      "ply": 6354,
      "akes": 6355,
      "hops": 6356,
      "backwards": 6357,
      "kings": 6358,
      "itely": 6359,
      "builder": 6360,
      "sunscreen": 6361,
      "crew": 6362,
      "spice": 6363,
      "spills": 6364,
      "surfing": 6365,
      "Nobody": 6366,
      "conver": 6367,
      "windy": 6368,
      "nearly": 6369,
      "firefly": 6370,
      "warmly": 6371,
      "dressing": 6372,
      "drawers": 6373,
      "tables": 6374,
      "lighter": 6375,
      "prove": 6376,
      "seashells": 6377,
      "baskets": 6378,
      "touches": 6379,
      "grandparents": 6380,
      "kicks": 6381,
      "politely": 6382,
      "clearly": 6383,
      "nervously": 6384,
      "wiping": 6385,
      "recipe": 6386,
      "œWhatâ": 6387,
      "Trust": 6388,
      "licking": 6389,
      "cobwebs": 6390,
      "Carla": 6391,
      "superheroes": 6392,
      "rushing": 6393,
      "Maia": 6394,
      "Yesterday": 6395,
      "talented": 6396,
      "accomplished": 6397,
      "Matty": 6398,
      "guests": 6399,
      "Feel": 6400,
      "Annabelle": 6401,
      "instruments": 6402,
      "several": 6403,
      "scored": 6404,
      "Bruce": 6405,
      "Wendy": 6406,
      "refreshing": 6407,
      "veggies": 6408,
      "Ame": 6409,
      "Bow": 6410,
      "Cher": 6411,
      "Dear": 6412,
      "Fine": 6413,
      "Hold": 6414,
      "Honey": 6415,
      "Sur": 6416,
      "Try": 6417,
      "Und": 6418,
      "Very": 6419,
      "Woo": 6420,
      "Yummy": 6421,
      "Zip": 6422,
      "bi": 6423,
      "dip": 6424,
      "ev": 6425,
      "earn": 6426,
      "ease": 6427,
      "faded": 6428,
      "gross": 6429,
      "ippy": 6430,
      "opp": 6431,
      "ties": 6432,
      "wn": 6433,
      "ref": 6434,
      "itude": 6435,
      "hael": 6436,
      "ility": 6437,
      "inger": 6438,
      "ids": 6439,
      "ime": 6440,
      "thir": 6441,
      "ading": 6442,
      "adults": 6443,
      "bots": 6444,
      "canvas": 6445,
      "defin": 6446,
      "causing": 6447,
      "shall": 6448,
      "handing": 6449,
      "greet": 6450,
      "greeted": 6451,
      "cheers": 6452,
      "braver": 6453,
      "dollhouse": 6454,
      "heading": 6455,
      "storekeeper": 6456,
      "Which": 6457,
      "welve": 6458,
      "pedaled": 6459,
      "bage": 6460,
      "snowmen": 6461,
      "tons": 6462,
      "jobs": 6463,
      "gesture": 6464,
      "dived": 6465,
      "corners": 6466,
      "leading": 6467,
      "lifts": 6468,
      "angels": 6469,
      "designed": 6470,
      "films": 6471,
      "mushrooms": 6472,
      "cubes": 6473,
      "discussing": 6474,
      "fantastic": 6475,
      "honking": 6476,
      "emerged": 6477,
      "efforts": 6478,
      "punishment": 6479,
      "recommended": 6480,
      "Michael": 6481,
      "enemy": 6482,
      "Splash": 6483,
      "directions": 6484,
      "Woof": 6485,
      "Buggy": 6486,
      "Amelia": 6487,
      "Under": 6488,
      "definitely": 6489,
      "Fion": 6490,
      "Ginger": 6491,
      "Pup": 6492,
      "Playing": 6493,
      "Sup": 6494,
      "Shar": 6495,
      "mered": 6496,
      "munch": 6497,
      "nif": 6498,
      "pip": 6499,
      "prank": 6500,
      "sim": 6501,
      "tar": 6502,
      "tweet": 6503,
      "œHi": 6504,
      "œHey": 6505,
      "refle": 6506,
      "ition": 6507,
      "onward": 6508,
      "isty": 6509,
      "iment": 6510,
      "lody": 6511,
      "sess": 6512,
      "address": 6513,
      "forgives": 6514,
      "elf": 6515,
      "bodies": 6516,
      "robots": 6517,
      "ugs": 6518,
      "ongrat": 6519,
      "ops": 6520,
      "thoughts": 6521,
      "paste": 6522,
      "sunflowers": 6523,
      "overcome": 6524,
      "flown": 6525,
      "flowing": 6526,
      "bravest": 6527,
      "cub": 6528,
      "Janey": 6529,
      "fills": 6530,
      "snowfl": 6531,
      "gues": 6532,
      "glued": 6533,
      "Bea": 6534,
      "baths": 6535,
      "dances": 6536,
      "wrink": 6537,
      "seashell": 6538,
      "rivers": 6539,
      "prayers": 6540,
      "heartbroken": 6541,
      "breathing": 6542,
      "slips": 6543,
      "grandbaby": 6544,
      "uggles": 6545,
      "sweep": 6546,
      "spreading": 6547,
      "Meg": 6548,
      "shady": 6549,
      "chews": 6550,
      "vests": 6551,
      "lifting": 6552,
      "softer": 6553,
      "sneezing": 6554,
      "Hope": 6555,
      "gems": 6556,
      "toothpaste": 6557,
      "neatly": 6558,
      "enthusi": 6559,
      "...\"": 6560,
      "appreciated": 6561,
      "applauding": 6562,
      "crashing": 6563,
      "Robert": 6564,
      "Katy": 6565,
      "yielded": 6566,
      "beyond": 6567,
      "Maya": 6568,
      "admiration": 6569,
      "sprinkled": 6570,
      "Moon": 6571,
      "suffering": 6572,
      "wider": 6573,
      "Bounce": 6574,
      "weeds": 6575,
      "travelling": 6576,
      "granted": 6577,
      "robber": 6578,
      "freedom": 6579,
      "levers": 6580,
      "responded": 6581,
      "immering": 6582,
      "Muffin": 6583,
      "occasion": 6584,
      "connected": 6585,
      "Squeaky": 6586,
      "Feeling": 6587,
      "Fiona": 6588,
      "ongratul": 6589,
      "Aunt": 6590,
      "Den": 6591,
      "Des": 6592,
      "Gaby": 6593,
      "Lou": 6594,
      "Lena": 6595,
      "Ran": 6596,
      "Roo": 6597,
      "Say": 6598,
      "Silly": 6599,
      "Sweet": 6600,
      "Was": 6601,
      "aim": 6602,
      "athan": 6603,
      "ashes": 6604,
      "center": 6605,
      "pant": 6606,
      "pens": 6607,
      "œWow": 6608,
      "œOkay": 6609,
      "œOf": 6610,
      "œWell": 6611,
      "heaven": 6612,
      "wag": 6613,
      "idence": 6614,
      "stall": 6615,
      "stung": 6616,
      "stroll": 6617,
      "thos": 6618,
      "ribble": 6619,
      "thatâ": 6620,
      "asm": 6621,
      "ends": 6622,
      "gears": 6623,
      "shirts": 6624,
      "canes": 6625,
      "newfound": 6626,
      "Youâ": 6627,
      "whoever": 6628,
      "cares": 6629,
      "prepar": 6630,
      "shallow": 6631,
      "wobbled": 6632,
      "ives": 6633,
      "watering": 6634,
      "spits": 6635,
      "biting": 6636,
      "puff": 6637,
      "conqu": 6638,
      "stethos": 6639,
      "thrown": 6640,
      "dropping": 6641,
      "traps": 6642,
      "promises": 6643,
      "drift": 6644,
      "floors": 6645,
      "understands": 6646,
      "cloudy": 6647,
      "purr": 6648,
      "cupcakes": 6649,
      "joining": 6650,
      "beehive": 6651,
      "scent": 6652,
      "ounced": 6653,
      "drivers": 6654,
      "Goodnight": 6655,
      "serving": 6656,
      "spoonful": 6657,
      "grandchild": 6658,
      "ugging": 6659,
      "respected": 6660,
      "scores": 6661,
      "Leah": 6662,
      "finishing": 6663,
      "planting": 6664,
      "trusting": 6665,
      "driveway": 6666,
      "solving": 6667,
      "tidied": 6668,
      "knit": 6669,
      "changes": 6670,
      "leopards": 6671,
      "crawls": 6672,
      "speaker": 6673,
      "daring": 6674,
      "darlings": 6675,
      "pitched": 6676,
      "experien": 6677,
      "Patty": 6678,
      "Poor": 6679,
      "uniforms": 6680,
      "Great": 6681,
      "obeyed": 6682,
      "swollen": 6683,
      "Prince": 6684,
      "Deal": 6685,
      "sternly": 6686,
      "insisting": 6687,
      "visitors": 6688,
      "Puppy": 6689,
      "spices": 6690,
      "evil": 6691,
      "Super": 6692,
      "enthusiasm": 6693,
      "Despite": 6694,
      "Rani": 6695,
      "stethoscope": 6696,
      "Ano": 6697,
      "Ana": 6698,
      "Furry": 6699,
      "Hank": 6700,
      "Jazz": 6701,
      "Jason": 6702,
      "Ka": 6703,
      "Lor": 6704,
      "Rus": 6705,
      "Rib": 6706,
      "Up": 6707,
      "bou": 6708,
      "bound": 6709,
      "dump": 6710,
      "ey": 6711,
      "fif": 6712,
      "jay": 6713,
      "lending": 6714,
      "mies": 6715,
      "ni": 6716,
      "nu": 6717,
      "ners": 6718,
      "osh": 6719,
      "tipped": 6720,
      "via": 6721,
      "wil": 6722,
      "xop": 6723,
      "itched": 6724,
      "saxop": 6725,
      "sets": 6726,
      "plucked": 6727,
      "rick": 6728,
      "adds": 6729,
      "asing": 6730,
      "aside": 6731,
      "chin": 6732,
      "forgets": 6733,
      "elbow": 6734,
      "shown": 6735,
      "shrunk": 6736,
      "carriage": 6737,
      "manag": 6738,
      "posit": 6739,
      "faction": 6740,
      "whose": 6741,
      "shaped": 6742,
      "type": 6743,
      "quet": 6744,
      "Josie": 6745,
      "tage": 6746,
      "taped": 6747,
      "uctor": 6748,
      "compared": 6749,
      "explor": 6750,
      "joyful": 6751,
      "confli": 6752,
      "keepers": 6753,
      "explorer": 6754,
      "displayed": 6755,
      "chopped": 6756,
      "creams": 6757,
      "twin": 6758,
      "welcoming": 6759,
      "throughout": 6760,
      "swimsuit": 6761,
      "Toto": 6762,
      "probab": 6763,
      "Jennie": 6764,
      "covering": 6765,
      "Behind": 6766,
      "whispers": 6767,
      "believing": 6768,
      "paintbrush": 6769,
      "healing": 6770,
      "bandages": 6771,
      "comforting": 6772,
      "designing": 6773,
      "reminding": 6774,
      "Seeing": 6775,
      "rotting": 6776,
      "bats": 6777,
      "soapy": 6778,
      "stumble": 6779,
      "changing": 6780,
      "frowning": 6781,
      "squeezing": 6782,
      "diamonds": 6783,
      "rays": 6784,
      "beeped": 6785,
      "travels": 6786,
      "trembled": 6787,
      "Patch": 6788,
      "Patrick": 6789,
      "quarreling": 6790,
      "pandas": 6791,
      "Claus": 6792,
      "snaps": 6793,
      "surroundings": 6794,
      "confidence": 6795,
      "Birthday": 6796,
      "Nancy": 6797,
      "minerals": 6798,
      "satisfaction": 6799,
      "material": 6800,
      "flavors": 6801,
      "risks": 6802,
      "Oliver": 6803,
      "Olivia": 6804,
      "textures": 6805,
      "annoyed": 6806,
      "Jeff": 6807,
      "conductor": 6808,
      "slammed": 6809,
      "Brian": 6810,
      "waddled": 6811,
      "anticip": 6812,
      "Meanwhile": 6813,
      "Surpr": 6814,
      "refuse": 6815,
      "pipes": 6816,
      "snowflakes": 6817,
      "wrinkled": 6818,
      "experienced": 6819,
      "Another": 6820,
      "Kathy": 6821,
      "Russel": 6822,
      "Ribbit": 6823,
      "bouquet": 6824,
      "nuzz": 6825,
      "saxophone": 6826,
      "probably": 6827,
      "Ac": 6828,
      "Abi": 6829,
      "Back": 6830,
      "Boom": 6831,
      "Dory": 6832,
      "Edd": 6833,
      "Never": 6834,
      "Other": 6835,
      "Sn": 6836,
      "Sw": 6837,
      "Sab": 6838,
      "Stre": 6839,
      "Squ": 6840,
      "Te": 6841,
      "Taking": 6842,
      "buses": 6843,
      "nch": 6844,
      "nib": 6845,
      "pound": 6846,
      "pouch": 6847,
      "rina": 6848,
      "shave": 6849,
      "sending": 6850,
      "twelve": 6851,
      "œSure": 6852,
      "theat": 6853,
      "ouble": 6854,
      "ita": 6855,
      "onse": 6856,
      "sadd": 6857,
      "loses": 6858,
      "allest": 6859,
      "irrel": 6860,
      "beating": 6861,
      "necks": 6862,
      "necess": 6863,
      "sewing": 6864,
      "within": 6865,
      "force": 6866,
      "elle": 6867,
      "doves": 6868,
      "rying": 6869,
      "rather": 6870,
      "smallest": 6871,
      "cosy": 6872,
      "defe": 6873,
      "icles": 6874,
      "foc": 6875,
      "poses": 6876,
      "stopping": 6877,
      "ssom": 6878,
      "declar": 6879,
      "joked": 6880,
      "Maxi": 6881,
      "item": 6882,
      "woof": 6883,
      "maker": 6884,
      "Jackie": 6885,
      "venture": 6886,
      "fins": 6887,
      "beautifully": 6888,
      "convin": 6889,
      "stepping": 6890,
      "hearing": 6891,
      "blocked": 6892,
      "bluebird": 6893,
      "couple": 6894,
      "stands": 6895,
      "fires": 6896,
      "ladybird": 6897,
      "worrying": 6898,
      "germs": 6899,
      "races": 6900,
      "gonna": 6901,
      "dangers": 6902,
      "grows": 6903,
      "freezing": 6904,
      "shops": 6905,
      "lunchbox": 6906,
      "Peanut": 6907,
      "desper": 6908,
      "footsteps": 6909,
      "active": 6910,
      "Rebec": 6911,
      "calmly": 6912,
      "necklaces": 6913,
      "pinching": 6914,
      "Susan": 6915,
      "cleared": 6916,
      "prick": 6917,
      "Megan": 6918,
      "tidying": 6919,
      "Martin": 6920,
      "hamster": 6921,
      "digs": 6922,
      "croaked": 6923,
      "scram": 6924,
      "cuddly": 6925,
      "Alan": 6926,
      "Alison": 6927,
      "Davey": 6928,
      "sniffing": 6929,
      "hoops": 6930,
      "discoveries": 6931,
      "tearing": 6932,
      "meowing": 6933,
      "response": 6934,
      "crystals": 6935,
      "twisting": 6936,
      "Gregg": 6937,
      "twinkled": 6938,
      "scattering": 6939,
      "hunting": 6940,
      "rustling": 6941,
      "masterpiece": 6942,
      "Anytime": 6943,
      "charge": 6944,
      "cottage": 6945,
      "garbage": 6946,
      "forgiveness": 6947,
      "behavior": 6948,
      "thorns": 6949,
      "tilted": 6950,
      "preparing": 6951,
      "nibble": 6952,
      "anticipation": 6953,
      "Eddie": 6954,
      "Sabrina": 6955,
      "Squirrel": 6956,
      "theatre": 6957,
      "declared": 6958,
      "Rebecca": 6959,
      "Con": 6960,
      "Cow": 6961,
      "Doug": 6962,
      "Fair": 6963,
      "Fortun": 6964,
      "Jax": 6965,
      "Jilly": 6966,
      "Laser": 6967,
      "Maisy": 6968,
      "Micky": 6969,
      "Open": 6970,
      "Oops": 6971,
      "Pan": 6972,
      "Pain": 6973,
      "Pear": 6974,
      "Rita": 6975,
      "Sy": 6976,
      "Tara": 6977,
      "Tia": 6978,
      "Vel": 6979,
      "Yo": 6980,
      "afar": 6981,
      "dred": 6982,
      "fain": 6983,
      "fond": 6984,
      "garet": 6985,
      "lve": 6986,
      "lers": 6987,
      "rout": 6988,
      "vines": 6989,
      "œWhere": 6990,
      "height": 6991,
      "insp": 6992,
      "iles": 6993,
      "among": 6994,
      "momâ": 6995,
      "forgiving": 6996,
      "raising": 6997,
      "Only": 6998,
      "carries": 6999,
      "fet": 7000,
      "peep": 7001,
      "girlâ": 7002,
      "Buttons": 7003,
      "icicle": 7004,
      "goodies": 7005,
      "pres": 7006,
      "acle": 7007,
      "papa": 7008,
      "bubbly": 7009,
      "Jackâ": 7010,
      "handy": 7011,
      "tapped": 7012,
      "waters": 7013,
      "classm": 7014,
      "spins": 7015,
      "combed": 7016,
      "expert": 7017,
      "Thatâ": 7018,
      "beaver": 7019,
      "rainy": 7020,
      "gardens": 7021,
      "badger": 7022,
      "ruff": 7023,
      "surprising": 7024,
      "Bobbie": 7025,
      "stew": 7026,
      "workshop": 7027,
      "lessons": 7028,
      "hairdresser": 7029,
      "months": 7030,
      "singers": 7031,
      "counts": 7032,
      "squaw": 7033,
      "colla": 7034,
      "bathing": 7035,
      "dripping": 7036,
      "slowed": 7037,
      "pleaded": 7038,
      "tasting": 7039,
      "boards": 7040,
      "appearance": 7041,
      "purrs": 7042,
      "explains": 7043,
      "syrup": 7044,
      "Peggy": 7045,
      "alongside": 7046,
      "nests": 7047,
      "grandfather": 7048,
      "imagin": 7049,
      "images": 7050,
      "stirs": 7051,
      "stretches": 7052,
      "Boys": 7053,
      "picnics": 7054,
      "Chuck": 7055,
      "disappoint": 7056,
      "Marshmallow": 7057,
      "Margaret": 7058,
      "rotten": 7059,
      "whispering": 7060,
      "wakes": 7061,
      "strips": 7062,
      "cuddles": 7063,
      "Alright": 7064,
      "kangaroos": 7065,
      "postman": 7066,
      "mayor": 7067,
      "repeating": 7068,
      "knocking": 7069,
      "vinegar": 7070,
      "disturbing": 7071,
      "scolds": 7072,
      "stacked": 7073,
      "unpacking": 7074,
      "weighing": 7075,
      "judges": 7076,
      "communic": 7077,
      "student": 7078,
      "students": 7079,
      "bothered": 7080,
      "fascinating": 7081,
      "More": 7082,
      "choosing": 7083,
      "Outside": 7084,
      "Jonny": 7085,
      "particularly": 7086,
      "Pixie": 7087,
      "tumbled": 7088,
      "swayed": 7089,
      "annoying": 7090,
      "Excitedly": 7091,
      "astronauts": 7092,
      "Puddles": 7093,
      "mesmerized": 7094,
      "conversation": 7095,
      "thirty": 7096,
      "exploration": 7097,
      "nuzzled": 7098,
      "necessary": 7099,
      "focused": 7100,
      "scrambled": 7101,
      "Fortunately": 7102,
      "Pearl": 7103,
      "Sylve": 7104,
      "Velvet": 7105,
      "Yoga": 7106,
      "Sylvester": 7107,
      "Bro": 7108,
      "Bizzy": 7109,
      "Cleaning": 7110,
      "Din": 7111,
      "Gu": 7112,
      "Hallo": 7113,
      "Imag": 7114,
      "Jelly": 7115,
      "La": 7116,
      "Man": 7117,
      "Nurse": 7118,
      "Oak": 7119,
      "Pur": 7120,
      "Pink": 7121,
      "Right": 7122,
      "Sa": 7123,
      "Sid": 7124,
      "Span": 7125,
      "Vio": 7126,
      "Wise": 7127,
      "Wings": 7128,
      "awoke": 7129,
      "cour": 7130,
      "dama": 7131,
      "glo": 7132,
      "gul": 7133,
      "jack": 7134,
      "ka": 7135,
      "mitt": 7136,
      "mate": 7137,
      "ramp": 7138,
      "ushed": 7139,
      "vive": 7140,
      "œBut": 7141,
      "œSee": 7142,
      "toward": 7143,
      "reunited": 7144,
      "waking": 7145,
      "local": 7146,
      "thump": 7147,
      "thumbs": 7148,
      "nood": 7149,
      "soo": 7150,
      "asers": 7151,
      "peak": 7152,
      "moat": 7153,
      "cases": 7154,
      "nasty": 7155,
      "usty": 7156,
      "Anny": 7157,
      "thanking": 7158,
      "angles": 7159,
      "speople": 7160,
      "Joanna": 7161,
      "clues": 7162,
      "untied": 7163,
      "compan": 7164,
      "cleaner": 7165,
      "doorway": 7166,
      "fishy": 7167,
      "nights": 7168,
      "chopping": 7169,
      "chosen": 7170,
      "brightest": 7171,
      "curiously": 7172,
      "misch": 7173,
      "sweetest": 7174,
      "sandpit": 7175,
      "movements": 7176,
      "petting": 7177,
      "swimmer": 7178,
      "marve": 7179,
      "artwork": 7180,
      "purpose": 7181,
      "cupcake": 7182,
      "townspeople": 7183,
      "teachers": 7184,
      "despite": 7185,
      "pastries": 7186,
      "presented": 7187,
      "calf": 7188,
      "streets": 7189,
      "puzzled": 7190,
      "Elsie": 7191,
      "tests": 7192,
      "troubles": 7193,
      "flick": 7194,
      "toolbox": 7195,
      "seatbelt": 7196,
      "sprays": 7197,
      "Chick": 7198,
      "decorating": 7199,
      "squeaked": 7200,
      "ignoring": 7201,
      "flashing": 7202,
      "meals": 7203,
      "crowns": 7204,
      "suggestion": 7205,
      "extraordinary": 7206,
      "Stella": 7207,
      "toothbrush": 7208,
      "cells": 7209,
      "oatmeal": 7210,
      "tires": 7211,
      "appreciation": 7212,
      "meatballs": 7213,
      "luckiest": 7214,
      "computers": 7215,
      "burying": 7216,
      "sincere": 7217,
      "insects": 7218,
      "damaged": 7219,
      "mosquitoes": 7220,
      "stamped": 7221,
      "rescuing": 7222,
      "wrench": 7223,
      "encouragement": 7224,
      "pupils": 7225,
      "Mona": 7226,
      "cotton": 7227,
      "squeaky": 7228,
      "Spring": 7229,
      "Caroline": 7230,
      "steering": 7231,
      "reassured": 7232,
      "expression": 7233,
      "Ashlee": 7234,
      "Bonnie": 7235,
      "nearest": 7236,
      "panicked": 7237,
      "builders": 7238,
      "simply": 7239,
      "conquered": 7240,
      "convinced": 7241,
      "inspired": 7242,
      "peeped": 7243,
      "classmates": 7244,
      "Halloween": 7245,
      "Spanish": 7246,
      "Violet": 7247,
      "damage": 7248,
      "'?\"": 7249,
      "?!\"": 7250,
      "Blo": 7251,
      "Bas": 7252,
      "Bigg": 7253,
      "Care": 7254,
      "Cara": 7255,
      "Clar": 7256,
      "Dr": 7257,
      "Ever": 7258,
      "Eric": 7259,
      "Fake": 7260,
      "Find": 7261,
      "Giz": 7262,
      "Grac": 7263,
      "Gabby": 7264,
      "Jas": 7265,
      "Mack": 7266,
      "Muffy": 7267,
      "Nee": 7268,
      "Nathan": 7269,
      "Per": 7270,
      "Play": 7271,
      "Pizz": 7272,
      "Rory": 7273,
      "Sl": 7274,
      "Show": 7275,
      "Ty": 7276,
      "Tiki": 7277,
      "Tabby": 7278,
      "Willi": 7279,
      "Winter": 7280,
      "ause": 7281,
      "aboard": 7282,
      "bond": 7283,
      "bitten": 7284,
      "bbling": 7285,
      "cages": 7286,
      "congratul": 7287,
      "date": 7288,
      "fare": 7289,
      "jars": 7290,
      "mie": 7291,
      "munk": 7292,
      "plo": 7293,
      "pac": 7294,
      "sou": 7295,
      "sill": 7296,
      "tant": 7297,
      "tted": 7298,
      "tran": 7299,
      "œThe": 7300,
      "int": 7301,
      "inted": 7302,
      "reck": 7303,
      "rent": 7304,
      "ouched": 7305,
      "erg": 7306,
      "enger": 7307,
      "issa": 7308,
      "alley": 7309,
      "orter": 7310,
      "utter": 7311,
      "kes": 7312,
      "atitude": 7313,
      "rier": 7314,
      "soaking": 7315,
      "liar": 7316,
      "chilly": 7317,
      "forty": 7318,
      "elace": 7319,
      "shorter": 7320,
      "ulars": 7321,
      "hollow": 7322,
      "cops": 7323,
      "cooper": 7324,
      "helle": 7325,
      "dears": 7326,
      "parted": 7327,
      "poster": 7328,
      "stomer": 7329,
      "birdhouse": 7330,
      "grily": 7331,
      "grum": 7332,
      "gratitude": 7333,
      "getic": 7334,
      "goodby": 7335,
      "cia": 7336,
      "Angie": 7337,
      "acles": 7338,
      "whipped": 7339,
      "ista": 7340,
      "traded": 7341,
      "spat": 7342,
      "cheated": 7343,
      "ketball": 7344,
      "donkey": 7345,
      "Whatâ": 7346,
      "exploded": 7347,
      "survive": 7348,
      "winding": 7349,
      "customer": 7350,
      "ilda": 7351,
      "Dove": 7352,
      "forests": 7353,
      "shoelace": 7354,
      "surely": 7355,
      "snorted": 7356,
      "warmer": 7357,
      "floppy": 7358,
      "sandy": 7359,
      "queens": 7360,
      "visits": 7361,
      "glar": 7362,
      "gliding": 7363,
      "sails": 7364,
      "sailboat": 7365,
      "packages": 7366,
      "wrigg": 7367,
      "pressing": 7368,
      "ounce": 7369,
      "wisely": 7370,
      "distra": 7371,
      "serv": 7372,
      "storms": 7373,
      "Elle": 7374,
      "zookeepers": 7375,
      "burnt": 7376,
      "Whoever": 7377,
      "blown": 7378,
      "gasp": 7379,
      "protection": 7380,
      "trotted": 7381,
      "priest": 7382,
      "curl": 7383,
      "sprout": 7384,
      "honesty": 7385,
      "flaps": 7386,
      "battle": 7387,
      "dolly": 7388,
      "rats": 7389,
      "checking": 7390,
      "chooses": 7391,
      "New": 7392,
      "wealth": 7393,
      "frowns": 7394,
      "apologised": 7395,
      "wiser": 7396,
      "oculars": 7397,
      "awful": 7398,
      "Hood": 7399,
      "cuddling": 7400,
      "streamers": 7401,
      "Allie": 7402,
      "scratching": 7403,
      "goats": 7404,
      "hundred": 7405,
      "loading": 7406,
      "destroying": 7407,
      "juggling": 7408,
      "pepperoni": 7409,
      "performers": 7410,
      "designs": 7411,
      "Clare": 7412,
      "binoculars": 7413,
      "beetles": 7414,
      "Trista": 7415,
      "speeding": 7416,
      "applause": 7417,
      "knots": 7418,
      "exercises": 7419,
      "weighs": 7420,
      "humans": 7421,
      "sheets": 7422,
      "floats": 7423,
      "Catty": 7424,
      "wiggly": 7425,
      "permitted": 7426,
      "Shann": 7427,
      "Michelle": 7428,
      "Kaylee": 7429,
      "scurrying": 7430,
      "peeled": 7431,
      "caution": 7432,
      "labels": 7433,
      "chipmunk": 7434,
      "Chris": 7435,
      "silently": 7436,
      "Quackers": 7437,
      "longest": 7438,
      "bakery": 7439,
      "tossed": 7440,
      "Startled": 7441,
      "temptation": 7442,
      "Minnie": 7443,
      "Speed": 7444,
      "Smokey": 7445,
      "characters": 7446,
      "slithered": 7447,
      "munching": 7448,
      "Snuggles": 7449,
      "prickly": 7450,
      "communicate": 7451,
      "Imagine": 7452,
      "noodles": 7453,
      "companion": 7454,
      "Basketball": 7455,
      "Gizmo": 7456,
      "Gracie": 7457,
      "Jasmine": 7458,
      "Pizza": 7459,
      "William": 7460,
      "farewell": 7461,
      "tantrum": 7462,
      "reckless": 7463,
      "goodbyes": 7464,
      "Shannon": 7465,
      "!'.": 7466,
      "Amand": 7467,
      "Achoo": 7468,
      "Crab": 7469,
      "Cook": 7470,
      "Clown": 7471,
      "Dina": 7472,
      "Eating": 7473,
      "Fur": 7474,
      "Fish": 7475,
      "Goo": 7476,
      "Hugs": 7477,
      "Isa": 7478,
      "Isl": 7479,
      "Jor": 7480,
      "Kids": 7481,
      "Lia": 7482,
      "Make": 7483,
      "Moo": 7484,
      "Nell": 7485,
      "Que": 7486,
      "Rol": 7487,
      "Rav": 7488,
      "Rik": 7489,
      "Sk": 7490,
      "Sand": 7491,
      "Sof": 7492,
      "Shoo": 7493,
      "Tes": 7494,
      "Win": 7495,
      "Willie": 7496,
      "ashed": 7497,
      "aware": 7498,
      "gle": 7499,
      "grain": 7500,
      "gap": 7501,
      "glistening": 7502,
      "killed": 7503,
      "natur": 7504,
      "sipped": 7505,
      "ssess": 7506,
      "vast": 7507,
      "whim": 7508,
      "œIf": 7509,
      "œYay": 7510,
      "€,": 7511,
      "inches": 7512,
      "rect": 7513,
      "ouchy": 7514,
      "oma": 7515,
      "aroma": 7516,
      "sacks": 7517,
      "lor": 7518,
      "although": 7519,
      "state": 7520,
      "orting": 7521,
      "becomes": 7522,
      "secur": 7523,
      "aming": 7524,
      "rib": 7525,
      "chill": 7526,
      "noticing": 7527,
      "roamed": 7528,
      "smashed": 7529,
      "ulpt": 7530,
      "sometime": 7531,
      "cocon": 7532,
      "melody": 7533,
      "moo": 7534,
      "ody": 7535,
      "details": 7536,
      "focus": 7537,
      "possess": 7538,
      "fact": 7539,
      "failed": 7540,
      "llas": 7541,
      "otherwise": 7542,
      "napping": 7543,
      "whoosh": 7544,
      "ievous": 7545,
      "maje": 7546,
      "types": 7547,
      "foreshadow": 7548,
      "Jose": 7549,
      "comets": 7550,
      "tapping": 7551,
      "clut": 7552,
      "sped": 7553,
      "sprang": 7554,
      "shines": 7555,
      "fleas": 7556,
      "bracele": 7557,
      "gardener": 7558,
      "finishes": 7559,
      "joyfully": 7560,
      "custom": 7561,
      "Dotty": 7562,
      "stores": 7563,
      "snug": 7564,
      "crouched": 7565,
      "gladly": 7566,
      "squished": 7567,
      "movement": 7568,
      "prod": 7569,
      "duckling": 7570,
      "snowy": 7571,
      "tighter": 7572,
      "tricycle": 7573,
      "triangles": 7574,
      "glimmering": 7575,
      "kayaking": 7576,
      "tongues": 7577,
      "writ": 7578,
      "drying": 7579,
      "scrub": 7580,
      "sculpt": 7581,
      "freely": 7582,
      "daily": 7583,
      "ships": 7584,
      "belongings": 7585,
      "million": 7586,
      "flip": 7587,
      "heroes": 7588,
      "suitcases": 7589,
      "checkout": 7590,
      "pays": 7591,
      "Lots": 7592,
      "cracker": 7593,
      "engines": 7594,
      "supported": 7595,
      "orders": 7596,
      "posts": 7597,
      "windowsill": 7598,
      "erosity": 7599,
      "environ": 7600,
      "Stand": 7601,
      "questioned": 7602,
      "supplied": 7603,
      "returning": 7604,
      "umbrellas": 7605,
      "cooed": 7606,
      "volcanoes": 7607,
      "energetic": 7608,
      "tickling": 7609,
      "repairman": 7610,
      "Charles": 7611,
      "Cozy": 7612,
      "tubes": 7613,
      "burger": 7614,
      "tips": 7615,
      "fishes": 7616,
      "shovels": 7617,
      "lipstick": 7618,
      "bothering": 7619,
      "vehicles": 7620,
      "decisions": 7621,
      "tunes": 7622,
      "increasing": 7623,
      "popsicle": 7624,
      "activity": 7625,
      "spilling": 7626,
      "Kevin": 7627,
      "Debby": 7628,
      "Anything": 7629,
      "glittering": 7630,
      "expecting": 7631,
      "swaying": 7632,
      "opinions": 7633,
      "robbers": 7634,
      "rrr": 7635,
      "dodged": 7636,
      "reversed": 7637,
      "instantly": 7638,
      "Hoot": 7639,
      "Wooly": 7640,
      "Denise": 7641,
      "Louie": 7642,
      "conflict": 7643,
      "Surprise": 7644,
      "nibbled": 7645,
      "Fairy": 7646,
      "faint": 7647,
      "soothing": 7648,
      "mischievous": 7649,
      "congratulated": 7650,
      "trans": 7651,
      "Amanda": 7652,
      "Goose": 7653,
      "Isabel": 7654,
      "Island": 7655,
      "Jordan": 7656,
      "Queen": 7657,
      "Rollie": 7658,
      "Ravi": 7659,
      "Riko": 7660,
      "Tessa": 7661,
      "natural": 7662,
      "coconut": 7663,
      "bracelets": 7664,
      "customers": 7665,
      "sculpture": 7666,
      "environment": 7667,
      "AA": 7668,
      "Book": 7669,
      "Bloom": 7670,
      "Count": 7671,
      "Down": 7672,
      "Dash": 7673,
      "Eleph": 7674,
      "Fight": 7675,
      "Fribble": 7676,
      "Glo": 7677,
      "Hmm": 7678,
      "Im": 7679,
      "Jody": 7680,
      "Ken": 7681,
      "Lac": 7682,
      "Pit": 7683,
      "Rh": 7684,
      "Rich": 7685,
      "Raven": 7686,
      "Set": 7687,
      "Turn": 7688,
      "Tree": 7689,
      "Tino": 7690,
      "Wor": 7691,
      "Worm": 7692,
      "Years": 7693,
      "ais": 7694,
      "coug": 7695,
      "clicked": 7696,
      "fade": 7697,
      "gallo": 7698,
      "lasers": 7699,
      "mur": 7700,
      "othy": 7701,
      "plow": 7702,
      "sno": 7703,
      "signing": 7704,
      "vour": 7705,
      "vince": 7706,
      "woken": 7707,
      "ying": 7708,
      "œMaybe": 7709,
      "œGood": 7710,
      "tock": 7711,
      "haven": 7712,
      "haps": 7713,
      "washes": 7714,
      "enzie": 7715,
      "onde": 7716,
      "army": 7717,
      "ilities": 7718,
      "lem": 7719,
      "immered": 7720,
      "stal": 7721,
      "stur": 7722,
      "stantly": 7723,
      "begs": 7724,
      "keen": 7725,
      "kest": 7726,
      "amused": 7727,
      "ppa": 7728,
      "ria": 7729,
      "adab": 7730,
      "unity": 7731,
      "unfortunately": 7732,
      "weâ": 7733,
      "ower": 7734,
      "chant": 7735,
      "formed": 7736,
      "allerg": 7737,
      "ittered": 7738,
      "dock": 7739,
      "roast": 7740,
      "shif": 7741,
      "shrank": 7742,
      "shorts": 7743,
      "racer": 7744,
      "Timothy": 7745,
      "hover": 7746,
      "pea": 7747,
      "peas": 7748,
      "pecks": 7749,
      "cock": 7750,
      "code": 7751,
      "dee": 7752,
      "backs": 7753,
      "popping": 7754,
      "lowered": 7755,
      "prof": 7756,
      "facing": 7757,
      "fawn": 7758,
      "cafe": 7759,
      "whatâ": 7760,
      "ieter": 7761,
      "quieter": 7762,
      "JoJo": 7763,
      "blushed": 7764,
      "blonde": 7765,
      "skies": 7766,
      "waterfall": 7767,
      "cled": 7768,
      "spare": 7769,
      "checks": 7770,
      "compe": 7771,
      "common": 7772,
      "brains": 7773,
      "underwater": 7774,
      "Three": 7775,
      "convince": 7776,
      "leaking": 7777,
      "leapt": 7778,
      "shares": 7779,
      "Looking": 7780,
      "torto": 7781,
      "bowing": 7782,
      "magnif": 7783,
      "differently": 7784,
      "Helen": 7785,
      "twists": 7786,
      "twisty": 7787,
      "cris": 7788,
      "crumb": 7789,
      "Whippy": 7790,
      "rocky": 7791,
      "woodpeck": 7792,
      "ducklings": 7793,
      "cracks": 7794,
      "landing": 7795,
      "udged": 7796,
      "zzz": 7797,
      "minds": 7798,
      "riverbank": 7799,
      "scrun": 7800,
      "scrubbing": 7801,
      "lunchtime": 7802,
      "Peppa": 7803,
      "certain": 7804,
      "piled": 7805,
      "osite": 7806,
      "granddaughter": 7807,
      "generosity": 7808,
      "cowboy": 7809,
      "wildflowers": 7810,
      "embarrassing": 7811,
      "answering": 7812,
      "miracle": 7813,
      "knives": 7814,
      "meadows": 7815,
      "Marie": 7816,
      "brushing": 7817,
      "riddle": 7818,
      "incredibly": 7819,
      "relaxing": 7820,
      "harmony": 7821,
      "elders": 7822,
      "scares": 7823,
      "vibr": 7824,
      "cheerfully": 7825,
      "bounces": 7826,
      "striking": 7827,
      "whales": 7828,
      "Grandmother": 7829,
      "seriously": 7830,
      "sneaking": 7831,
      "statues": 7832,
      "Alexa": 7833,
      "tempted": 7834,
      "crows": 7835,
      "improving": 7836,
      "bruises": 7837,
      "experiment": 7838,
      "aprons": 7839,
      "poems": 7840,
      "buckled": 7841,
      "isnâ": 7842,
      "Happyland": 7843,
      "BunBun": 7844,
      "lumberjack": 7845,
      "magazines": 7846,
      "Mae": 7847,
      "barrels": 7848,
      "lectures": 7849,
      "surfer": 7850,
      "Liza": 7851,
      "Should": 7852,
      "pedaling": 7853,
      "chatter": 7854,
      "nightmares": 7855,
      "rooster": 7856,
      "seagulls": 7857,
      "winks": 7858,
      "revealing": 7859,
      ".''": 7860,
      "Jonas": 7861,
      "cousins": 7862,
      "wounds": 7863,
      "trigger": 7864,
      "charged": 7865,
      "interrup": 7866,
      "announced": 7867,
      "Jana": 7868,
      "behaviour": 7869,
      "baker": 7870,
      "Sparky": 7871,
      "tucks": 7872,
      "sweaty": 7873,
      "Macy": 7874,
      "earned": 7875,
      "opposite": 7876,
      "target": 7877,
      "reflection": 7878,
      "Stretch": 7879,
      "pounds": 7880,
      "routine": 7881,
      "presence": 7882,
      "imaginary": 7883,
      "disappointment": 7884,
      "Mackenzie": 7885,
      "cooperate": 7886,
      "glared": 7887,
      "writer": 7888,
      "Books": 7889,
      "Fighting": 7890,
      "Gloria": 7891,
      "Immediately": 7892,
      "Lacy": 7893,
      "coughed": 7894,
      "sturdy": 7895,
      "adabra": 7896,
      "woodpecker": 7897,
      "',": 7898,
      "Aw": 7899,
      "Ay": 7900,
      "Abra": 7901,
      "Arrr": 7902,
      "Bust": 7903,
      "Brad": 7904,
      "Ca": 7905,
      "Carri": 7906,
      "Clem": 7907,
      "Dian": 7908,
      "Father": 7909,
      "Gl": 7910,
      "Girl": 7911,
      "Gav": 7912,
      "Har": 7913,
      "Ice": 7914,
      "Kiki": 7915,
      "Li": 7916,
      "Land": 7917,
      "Lime": 7918,
      "Mart": 7919,
      "Nel": 7920,
      "Pump": 7921,
      "Pass": 7922,
      "Rusty": 7923,
      "Spu": 7924,
      "Satur": 7925,
      "Wis": 7926,
      "Worry": 7927,
      "Yel": 7928,
      "bom": 7929,
      "bis": 7930,
      "bam": 7931,
      "bly": 7932,
      "batt": 7933,
      "cuc": 7934,
      "dles": 7935,
      "dumb": 7936,
      "elect": 7937,
      "iens": 7938,
      "kittens": 7939,
      "lump": 7940,
      "limp": 7941,
      "ots": 7942,
      "puck": 7943,
      "penter": 7944,
      "rins": 7945,
      "rinse": 7946,
      "som": 7947,
      "shat": 7948,
      "till": 7949,
      "tugging": 7950,
      "vate": 7951,
      "whel": 7952,
      "yn": 7953,
      "œPlease": 7954,
      "œMummy": 7955,
      "œWho": 7956,
      "œThanks": 7957,
      "€¦": 7958,
      "hey": 7959,
      "ans": 7960,
      "ands": 7961,
      "toaster": 7962,
      "intent": 7963,
      "rejo": 7964,
      "rewards": 7965,
      "wax": 7966,
      "ersa": 7967,
      "ening": 7968,
      "savor": 7969,
      "locks": 7970,
      "aliens": 7971,
      "strolled": 7972,
      "oring": 7973,
      "orrow": 7974,
      "ative": 7975,
      "cep": 7976,
      "igaret": 7977,
      "ricity": 7978,
      "unwrapped": 7979,
      "gogg": 7980,
      "gobble": 7981,
      "eliness": 7982,
      "ender": 7983,
      "ulous": 7984,
      "carpenter": 7985,
      "Tomorrow": 7986,
      "pest": 7987,
      "pecu": 7988,
      "funn": 7989,
      "range": 7990,
      "storing": 7991,
      "birdseed": 7992,
      "lleng": 7993,
      "parking": 7994,
      "capes": 7995,
      "ssy": 7996,
      "napped": 7997,
      "caretak": 7998,
      "joins": 7999,
      "actor": 8000,
      "oldest": 8001,
      "whizz": 8002,
      "bubbling": 8003,
      "blank": 8004,
      "trading": 8005,
      "overwhel": 8006,
      "spies": 8007,
      "spades": 8008,
      "chea": 8009,
      "shinier": 8010,
      "bless": 8011,
      "Things": 8012,
      "Johnâ": 8013,
      "concent": 8014,
      "cleans": 8015,
      "tingle": 8016,
      "closing": 8017,
      "doorbell": 8018,
      "month": 8019,
      "ips": 8020,
      "fluff": 8021,
      "warmed": 8022,
      "crum": 8023,
      "pedall": 8024,
      "baa": 8025,
      "corals": 8026,
      "correct": 8027,
      "Toys": 8028,
      "Emilda": 8029,
      "buyer": 8030,
      "guide": 8031,
      "Got": 8032,
      "challeng": 8033,
      "rows": 8034,
      "roller": 8035,
      "glittered": 8036,
      "psed": 8037,
      "Flutter": 8038,
      "business": 8039,
      "purring": 8040,
      "heavily": 8041,
      "iety": 8042,
      "scene": 8043,
      "tentacles": 8044,
      "mini": 8045,
      "polar": 8046,
      "serves": 8047,
      "wrapper": 8048,
      "slipping": 8049,
      "grandson": 8050,
      "giggles": 8051,
      "practised": 8052,
      "invol": 8053,
      "testing": 8054,
      "bellies": 8055,
      "erases": 8056,
      "scree": 8057,
      "reminds": 8058,
      "gasps": 8059,
      "breaths": 8060,
      "bulbs": 8061,
      "flashed": 8062,
      "allowing": 8063,
      "jogs": 8064,
      "escaping": 8065,
      "gae": 8066,
      "tanks": 8067,
      "leans": 8068,
      "terrified": 8069,
      "apology": 8070,
      "sneezes": 8071,
      "squeezes": 8072,
      "guards": 8073,
      "guarding": 8074,
      "zips": 8075,
      "otters": 8076,
      "salon": 8077,
      "Still": 8078,
      "Stitch": 8079,
      "crocodiles": 8080,
      "pigeons": 8081,
      "trunks": 8082,
      "hunters": 8083,
      "Clumsy": 8084,
      "cupboards": 8085,
      "hooks": 8086,
      "Cari": 8087,
      "miller": 8088,
      "supplying": 8089,
      "sleigh": 8090,
      "Rudy": 8091,
      "pokes": 8092,
      "honks": 8093,
      "offering": 8094,
      "eleven": 8095,
      "Share": 8096,
      "chalks": 8097,
      "ibility": 8098,
      "experiences": 8099,
      "Sunflower": 8100,
      "rumbling": 8101,
      "responsibly": 8102,
      "Motor": 8103,
      "challenged": 8104,
      "œWeâ": 8105,
      "hooves": 8106,
      "Pico": 8107,
      "pads": 8108,
      "sirens": 8109,
      "tummies": 8110,
      "providing": 8111,
      "pecking": 8112,
      "loneliness": 8113,
      "sensation": 8114,
      "Sprite": 8115,
      "Jean": 8116,
      "Ashley": 8117,
      "reversing": 8118,
      "strokes": 8119,
      "Bongo": 8120,
      "Smoke": 8121,
      "character": 8122,
      "Wiggle": 8123,
      "Wiggly": 8124,
      "Cherry": 8125,
      "opportun": 8126,
      "panting": 8127,
      "manager": 8128,
      "Swim": 8129,
      "Painter": 8130,
      "fetched": 8131,
      "collapsed": 8132,
      "matey": 8133,
      "Carefully": 8134,
      "plopped": 8135,
      "servant": 8136,
      "Crabby": 8137,
      "Furball": 8138,
      "Sofia": 8139,
      "ribbit": 8140,
      "majestic": 8141,
      "Wormie": 8142,
      "aisle": 8143,
      "compete": 8144,
      "Ayla": 8145,
      "Buster": 8146,
      "Carrie": 8147,
      "Diana": 8148,
      "Gavin": 8149,
      "Martha": 8150,
      "Nellie": 8151,
      "Pumpkin": 8152,
      "Spud": 8153,
      "Saturday": 8154,
      "Wisdom": 8155,
      "Yellow": 8156,
      "bamboo": 8157,
      "battles": 8158,
      "rinsed": 8159,
      "somersa": 8160,
      "goggles": 8161,
      "peculiar": 8162,
      "caretaker": 8163,
      ",'": 8164,
      "20": 8165,
      "AN": 8166,
      "Ad": 8167,
      "Af": 8168,
      "Alf": 8169,
      "Amer": 8170,
      "Amen": 8171,
      "Bry": 8172,
      "Bumpy": 8173,
      "CD": 8174,
      "Cel": 8175,
      "Cars": 8176,
      "Dra": 8177,
      "Eag": 8178,
      "Eva": 8179,
      "Fa": 8180,
      "Fly": 8181,
      "Faster": 8182,
      "Icy": 8183,
      "Jet": 8184,
      "Light": 8185,
      "Mer": 8186,
      "Merry": 8187,
      "Mindy": 8188,
      "Misty": 8189,
      "Ot": 8190,
      "Offic": 8191
    },
    "merges": [
      [
        "h",
        "e"
      ],
      [
        "a",
        "n"
      ],
      [
        "t",
        "he"
      ],
      [
        "e",
        "d"
      ],
      [
        "an",
        "d"
      ],
      [
        "t",
        "o"
      ],
      [
        "i",
        "n"
      ],
      [
        "r",
        "e"
      ],
      [
        "o",
        "u"
      ],
      [
        "w",
        "a"
      ],
      [
        "i",
        "t"
      ],
      [
        "h",
        "a"
      ],
      [
        "e",
        "r"
      ],
      [
        "wa",
        "s"
      ],
      [
        "o",
        "m"
      ],
      [
        "e",
        "n"
      ],
      [
        "o",
        "n"
      ],
      [
        "a",
        "r"
      ],
      [
        "T",
        "he"
      ],
      [
        "i",
        "s"
      ],
      [
        "i",
        "l"
      ],
      [
        "in",
        "g"
      ],
      [
        "s",
        "a"
      ],
      [
        "i",
        "d"
      ],
      [
        "a",
        "y"
      ],
      [
        "l",
        "e"
      ],
      [
        "i",
        "m"
      ],
      [
        "l",
        "o"
      ],
      [
        "a",
        "l"
      ],
      [
        "s",
        "t"
      ],
      [
        "o",
        "r"
      ],
      [
        "he",
        "r"
      ],
      [
        "H",
        "e"
      ],
      [
        "S",
        "he"
      ],
      [
        "i",
        "r"
      ],
      [
        "The",
        "y"
      ],
      [
        "t",
        "h"
      ],
      [
        "b",
        "e"
      ],
      [
        "n",
        "e"
      ],
      [
        "ha",
        "t"
      ],
      [
        "v",
        "er"
      ],
      [
        "u",
        "t"
      ],
      [
        "s",
        "e"
      ],
      [
        "k",
        "e"
      ],
      [
        "a",
        "t"
      ],
      [
        "n",
        "o"
      ],
      [
        "il",
        "y"
      ],
      [
        "c",
        "k"
      ],
      [
        "l",
        "d"
      ],
      [
        "a",
        "m"
      ],
      [
        "c",
        "e"
      ],
      [
        "sa",
        "id"
      ],
      [
        "v",
        "e"
      ],
      [
        "i",
        "g"
      ],
      [
        "s",
        "he"
      ],
      [
        "p",
        "l"
      ],
      [
        "L",
        "ily"
      ],
      [
        "it",
        "h"
      ],
      [
        "w",
        "ith"
      ],
      [
        "p",
        "p"
      ],
      [
        "r",
        "i"
      ],
      [
        "h",
        "is"
      ],
      [
        "o",
        "f"
      ],
      [
        "a",
        "d"
      ],
      [
        "y",
        "ou"
      ],
      [
        "u",
        "n"
      ],
      [
        "k",
        "ed"
      ],
      [
        "d",
        "ay"
      ],
      [
        "s",
        "o"
      ],
      [
        "l",
        "y"
      ],
      [
        "w",
        "e"
      ],
      [
        "ver",
        "y"
      ],
      [
        "om",
        "e"
      ],
      [
        "l",
        "i"
      ],
      [
        "m",
        "y"
      ],
      [
        "t",
        "hat"
      ],
      [
        "u",
        "p"
      ],
      [
        "o",
        "w"
      ],
      [
        "g",
        "o"
      ],
      [
        "an",
        "t"
      ],
      [
        "pl",
        "ay"
      ],
      [
        "e",
        "s"
      ],
      [
        "a",
        "s"
      ],
      [
        "c",
        "h"
      ],
      [
        "ha",
        "d"
      ],
      [
        "m",
        "om"
      ],
      [
        "the",
        "y"
      ],
      [
        "f",
        "or"
      ],
      [
        "e",
        "l"
      ],
      [
        "n",
        "d"
      ],
      [
        "en",
        "d"
      ],
      [
        "al",
        "l"
      ],
      [
        "ou",
        "ld"
      ],
      [
        "b",
        "o"
      ],
      [
        "ha",
        "pp"
      ],
      [
        "en",
        "t"
      ],
      [
        "it",
        "t"
      ],
      [
        "w",
        "ant"
      ],
      [
        "a",
        "re"
      ],
      [
        "g",
        "e"
      ],
      [
        "o",
        "k"
      ],
      [
        "t",
        "im"
      ],
      [
        "d",
        "o"
      ],
      [
        "I",
        "t"
      ],
      [
        "ou",
        "t"
      ],
      [
        "no",
        "t"
      ],
      [
        "r",
        "o"
      ],
      [
        "the",
        "r"
      ],
      [
        "ou",
        "nd"
      ],
      [
        "itt",
        "le"
      ],
      [
        "tim",
        "e"
      ],
      [
        "l",
        "ittle"
      ],
      [
        "the",
        "re"
      ],
      [
        "b",
        "ig"
      ],
      [
        "happ",
        "y"
      ],
      [
        "r",
        "y"
      ],
      [
        "s",
        "h"
      ],
      [
        "h",
        "t"
      ],
      [
        "r",
        "a"
      ],
      [
        "s",
        "m"
      ],
      [
        "ri",
        "end"
      ],
      [
        "f",
        "riend"
      ],
      [
        "y",
        "s"
      ],
      [
        "T",
        "im"
      ],
      [
        "sa",
        "w"
      ],
      [
        "b",
        "ut"
      ],
      [
        "a",
        "ke"
      ],
      [
        ".",
        "\""
      ],
      [
        "t",
        "er"
      ],
      [
        "O",
        "ne"
      ],
      [
        "a",
        "ck"
      ],
      [
        "u",
        "l"
      ],
      [
        "th",
        "ing"
      ],
      [
        "id",
        "e"
      ],
      [
        "s",
        "ome"
      ],
      [
        "v",
        "ed"
      ],
      [
        "!",
        "\""
      ],
      [
        "O",
        "n"
      ],
      [
        "on",
        "e"
      ],
      [
        "u",
        "g"
      ],
      [
        "On",
        "ce"
      ],
      [
        "we",
        "re"
      ],
      [
        "h",
        "o"
      ],
      [
        "c",
        "ar"
      ],
      [
        "h",
        "im"
      ],
      [
        "f",
        "e"
      ],
      [
        "B",
        "en"
      ],
      [
        "up",
        "on"
      ],
      [
        "ir",
        "l"
      ],
      [
        "want",
        "ed"
      ],
      [
        "the",
        "m"
      ],
      [
        "T",
        "om"
      ],
      [
        "p",
        "e"
      ],
      [
        "g",
        "irl"
      ],
      [
        "f",
        "ul"
      ],
      [
        "the",
        "ir"
      ],
      [
        "il",
        "l"
      ],
      [
        "a",
        "g"
      ],
      [
        "in",
        "d"
      ],
      [
        "u",
        "r"
      ],
      [
        "d",
        "id"
      ],
      [
        "c",
        "o"
      ],
      [
        "m",
        "e"
      ],
      [
        "sm",
        "il"
      ],
      [
        "c",
        "ould"
      ],
      [
        "ha",
        "ve"
      ],
      [
        "m",
        "o"
      ],
      [
        "he",
        "n"
      ],
      [
        "he",
        "l"
      ],
      [
        "e",
        "x"
      ],
      [
        "c",
        "an"
      ],
      [
        "n",
        "am"
      ],
      [
        "w",
        "ent"
      ],
      [
        "B",
        "ut"
      ],
      [
        "r",
        "om"
      ],
      [
        "t",
        "ed"
      ],
      [
        "?",
        "\""
      ],
      [
        "o",
        "d"
      ],
      [
        "ne",
        "w"
      ],
      [
        "hel",
        "p"
      ],
      [
        "friend",
        "s"
      ],
      [
        "f",
        "el"
      ],
      [
        "Tim",
        "my"
      ],
      [
        "d",
        "e"
      ],
      [
        "ig",
        "ht"
      ],
      [
        "u",
        "m"
      ],
      [
        "he",
        "d"
      ],
      [
        "a",
        "b"
      ],
      [
        "f",
        "un"
      ],
      [
        "wa",
        "y"
      ],
      [
        "b",
        "ack"
      ],
      [
        "Y",
        "ou"
      ],
      [
        "li",
        "ke"
      ],
      [
        "nam",
        "ed"
      ],
      [
        "a",
        "in"
      ],
      [
        "i",
        "c"
      ],
      [
        "p",
        "ar"
      ],
      [
        "to",
        "o"
      ],
      [
        "s",
        "ide"
      ],
      [
        "f",
        "o"
      ],
      [
        "m",
        "an"
      ],
      [
        "r",
        "an"
      ],
      [
        "lo",
        "ved"
      ],
      [
        "p",
        "o"
      ],
      [
        "ou",
        "g"
      ],
      [
        "lo",
        "w"
      ],
      [
        "fel",
        "t"
      ],
      [
        "smil",
        "ed"
      ],
      [
        "lo",
        "o"
      ],
      [
        "st",
        "ar"
      ],
      [
        "as",
        "ked"
      ],
      [
        "se",
        "e"
      ],
      [
        "e",
        "t"
      ],
      [
        "loo",
        "ked"
      ],
      [
        "l",
        "a"
      ],
      [
        "b",
        "ir"
      ],
      [
        "i",
        "ck"
      ],
      [
        "am",
        "e"
      ],
      [
        "s",
        "to"
      ],
      [
        "ar",
        "d"
      ],
      [
        "ow",
        "n"
      ],
      [
        "ar",
        "ound"
      ],
      [
        "m",
        "ake"
      ],
      [
        "p",
        "r"
      ],
      [
        "u",
        "re"
      ],
      [
        "M",
        "om"
      ],
      [
        "bir",
        "d"
      ],
      [
        "no",
        "w"
      ],
      [
        "w",
        "or"
      ],
      [
        "on",
        "g"
      ],
      [
        "bo",
        "y"
      ],
      [
        "w",
        "ould"
      ],
      [
        "g",
        "r"
      ],
      [
        "f",
        "a"
      ],
      [
        "l",
        "l"
      ],
      [
        "o",
        "ther"
      ],
      [
        "par",
        "k"
      ],
      [
        "t",
        "re"
      ],
      [
        ",",
        "\""
      ],
      [
        "ge",
        "ther"
      ],
      [
        "c",
        "a"
      ],
      [
        "ad",
        "e"
      ],
      [
        "o",
        "p"
      ],
      [
        "w",
        "hat"
      ],
      [
        "i",
        "ce"
      ],
      [
        "a",
        "way"
      ],
      [
        "to",
        "gether"
      ],
      [
        "d",
        "d"
      ],
      [
        "sa",
        "ys"
      ],
      [
        "c",
        "ame"
      ],
      [
        "ou",
        "d"
      ],
      [
        "star",
        "ted"
      ],
      [
        "s",
        "s"
      ],
      [
        "m",
        "ade"
      ],
      [
        "t",
        "s"
      ],
      [
        "p",
        "ut"
      ],
      [
        "sa",
        "d"
      ],
      [
        "some",
        "thing"
      ],
      [
        "it",
        "ed"
      ],
      [
        "n",
        "a"
      ],
      [
        "lo",
        "ok"
      ],
      [
        "go",
        "t"
      ],
      [
        "ge",
        "t"
      ],
      [
        "u",
        "e"
      ],
      [
        "f",
        "rom"
      ],
      [
        "ag",
        "ain"
      ],
      [
        "h",
        "ome"
      ],
      [
        "u",
        "s"
      ],
      [
        "go",
        "od"
      ],
      [
        "s",
        "car"
      ],
      [
        "ex",
        "c"
      ],
      [
        "i",
        "f"
      ],
      [
        "ri",
        "ed"
      ],
      [
        "a",
        "ch"
      ],
      [
        "f",
        "ound"
      ],
      [
        "w",
        "ho"
      ],
      [
        "wa",
        "l"
      ],
      [
        "i",
        "e"
      ],
      [
        "pp",
        "ed"
      ],
      [
        "oug",
        "ht"
      ],
      [
        "b",
        "r"
      ],
      [
        "play",
        "ing"
      ],
      [
        "mo",
        "re"
      ],
      [
        "the",
        "n"
      ],
      [
        "h",
        "ug"
      ],
      [
        "w",
        "hen"
      ],
      [
        "de",
        "c"
      ],
      [
        "e",
        "p"
      ],
      [
        "u",
        "ch"
      ],
      [
        "a",
        "ve"
      ],
      [
        "u",
        "st"
      ],
      [
        "k",
        "ing"
      ],
      [
        "c",
        "i"
      ],
      [
        "thing",
        "s"
      ],
      [
        "al",
        "ly"
      ],
      [
        "b",
        "y"
      ],
      [
        "ou",
        "s"
      ],
      [
        "li",
        "ked"
      ],
      [
        "n",
        "y"
      ],
      [
        "do",
        "g"
      ],
      [
        "u",
        "se"
      ],
      [
        "d",
        "er"
      ],
      [
        "exc",
        "ited"
      ],
      [
        "c",
        "are"
      ],
      [
        "you",
        "r"
      ],
      [
        "e",
        "very"
      ],
      [
        "ou",
        "se"
      ],
      [
        "dec",
        "id"
      ],
      [
        "ar",
        "a"
      ],
      [
        "S",
        "am"
      ],
      [
        "d",
        "own"
      ],
      [
        "A",
        "n"
      ],
      [
        "decid",
        "ed"
      ],
      [
        "a",
        "x"
      ],
      [
        "W",
        "e"
      ],
      [
        "f",
        "ind"
      ],
      [
        "d",
        "ad"
      ],
      [
        "u",
        "ck"
      ],
      [
        "p",
        "re"
      ],
      [
        "t",
        "ake"
      ],
      [
        "j",
        "o"
      ],
      [
        "th",
        "an"
      ],
      [
        "fe",
        "el"
      ],
      [
        "scar",
        "ed"
      ],
      [
        "wa",
        "ys"
      ],
      [
        "an",
        "g"
      ],
      [
        "M",
        "ax"
      ],
      [
        "at",
        "e"
      ],
      [
        "ar",
        "n"
      ],
      [
        "a",
        "c"
      ],
      [
        "s",
        "ha"
      ],
      [
        "u",
        "dd"
      ],
      [
        "tre",
        "e"
      ],
      [
        "w",
        "ill"
      ],
      [
        "s",
        "pe"
      ],
      [
        "to",
        "ys"
      ],
      [
        "ou",
        "r"
      ],
      [
        "S",
        "ara"
      ],
      [
        "did",
        "n"
      ],
      [
        "c",
        "lo"
      ],
      [
        "to",
        "ok"
      ],
      [
        "it",
        "e"
      ],
      [
        "An",
        "na"
      ],
      [
        "al",
        "ways"
      ],
      [
        "ab",
        "out"
      ],
      [
        "w",
        "o"
      ],
      [
        "er",
        "s"
      ],
      [
        "k",
        "now"
      ],
      [
        "mom",
        "my"
      ],
      [
        "m",
        "a"
      ],
      [
        "th",
        "ought"
      ],
      [
        "he",
        "re"
      ],
      [
        "b",
        "ed"
      ],
      [
        "t",
        "e"
      ],
      [
        "out",
        "side"
      ],
      [
        "le",
        "arn"
      ],
      [
        "S",
        "o"
      ],
      [
        "is",
        "e"
      ],
      [
        "s",
        "or"
      ],
      [
        "ro",
        "om"
      ],
      [
        "t",
        "y"
      ],
      [
        "c",
        "at"
      ],
      [
        "i",
        "ve"
      ],
      [
        "o",
        "ld"
      ],
      [
        "w",
        "h"
      ],
      [
        "q",
        "u"
      ],
      [
        "en",
        "ed"
      ],
      [
        "la",
        "ug"
      ],
      [
        "b",
        "all"
      ],
      [
        "g",
        "ed"
      ],
      [
        "H",
        "er"
      ],
      [
        "W",
        "hen"
      ],
      [
        "fo",
        "re"
      ],
      [
        "an",
        "y"
      ],
      [
        "p",
        "a"
      ],
      [
        "r",
        "ed"
      ],
      [
        "f",
        "ter"
      ],
      [
        "o",
        "l"
      ],
      [
        "h",
        "ouse"
      ],
      [
        "r",
        "un"
      ],
      [
        "J",
        "o"
      ],
      [
        "to",
        "y"
      ],
      [
        "b",
        "u"
      ],
      [
        "c",
        "ome"
      ],
      [
        "k",
        "new"
      ],
      [
        "udd",
        "en"
      ],
      [
        "is",
        "h"
      ],
      [
        "h",
        "ow"
      ],
      [
        "ci",
        "al"
      ],
      [
        "spe",
        "cial"
      ],
      [
        "b",
        "l"
      ],
      [
        "ne",
        "ver"
      ],
      [
        "s",
        "w"
      ],
      [
        "sh",
        "ow"
      ],
      [
        "is",
        "t"
      ],
      [
        "i",
        "a"
      ],
      [
        "sor",
        "ry"
      ],
      [
        "t",
        "r"
      ],
      [
        "udden",
        "ly"
      ],
      [
        "m",
        "uch"
      ],
      [
        "J",
        "ack"
      ],
      [
        "care",
        "ful"
      ],
      [
        "r",
        "d"
      ],
      [
        "s",
        "un"
      ],
      [
        "c",
        "re"
      ],
      [
        "d",
        "re"
      ],
      [
        "in",
        "k"
      ],
      [
        "g",
        "ave"
      ],
      [
        "to",
        "ld"
      ],
      [
        "l",
        "f"
      ],
      [
        "c",
        "le"
      ],
      [
        "v",
        "en"
      ],
      [
        "h",
        "and"
      ],
      [
        "ab",
        "le"
      ],
      [
        "l",
        "ong"
      ],
      [
        "bo",
        "x"
      ],
      [
        "s",
        "k"
      ],
      [
        "play",
        "ed"
      ],
      [
        "t",
        "a"
      ],
      [
        "in",
        "to"
      ],
      [
        "wa",
        "ter"
      ],
      [
        "lo",
        "ve"
      ],
      [
        "t",
        "ter"
      ],
      [
        "E",
        "very"
      ],
      [
        "t",
        "ried"
      ],
      [
        "e",
        "at"
      ],
      [
        "pr",
        "oud"
      ],
      [
        "c",
        "l"
      ],
      [
        "in",
        "side"
      ],
      [
        "o",
        "ver"
      ],
      [
        "g",
        "re"
      ],
      [
        "s",
        "p"
      ],
      [
        "ra",
        "b"
      ],
      [
        "L",
        "et"
      ],
      [
        "M",
        "ia"
      ],
      [
        "could",
        "n"
      ],
      [
        "ca",
        "use"
      ],
      [
        "d",
        "y"
      ],
      [
        "u",
        "c"
      ],
      [
        "p",
        "ick"
      ],
      [
        "F",
        "rom"
      ],
      [
        "he",
        "ard"
      ],
      [
        "hug",
        "ged"
      ],
      [
        "f",
        "ly"
      ],
      [
        "e",
        "ar"
      ],
      [
        "i",
        "on"
      ],
      [
        "S",
        "uddenly"
      ],
      [
        "pre",
        "t"
      ],
      [
        "ne",
        "ed"
      ],
      [
        "e",
        "ach"
      ],
      [
        "um",
        "p"
      ],
      [
        "wa",
        "t"
      ],
      [
        "l",
        "ed"
      ],
      [
        "th",
        "is"
      ],
      [
        "be",
        "cause"
      ],
      [
        "j",
        "ust"
      ],
      [
        "A",
        "nd"
      ],
      [
        "f",
        "low"
      ],
      [
        "man",
        "y"
      ],
      [
        "H",
        "is"
      ],
      [
        "c",
        "he"
      ],
      [
        "n",
        "ice"
      ],
      [
        "il",
        "e"
      ],
      [
        "The",
        "n"
      ],
      [
        "sm",
        "all"
      ],
      [
        "un",
        "t"
      ],
      [
        "c",
        "om"
      ],
      [
        "t",
        "ry"
      ],
      [
        "i",
        "z"
      ],
      [
        "ex",
        "p"
      ],
      [
        "im",
        "al"
      ],
      [
        "sh",
        "in"
      ],
      [
        "c",
        "t"
      ],
      [
        "b",
        "er"
      ],
      [
        "l",
        "ad"
      ],
      [
        "an",
        "imal"
      ],
      [
        "T",
        "hat"
      ],
      [
        "v",
        "ing"
      ],
      [
        "of",
        "f"
      ],
      [
        "po",
        "t"
      ],
      [
        "b",
        "le"
      ],
      [
        "learn",
        "ed"
      ],
      [
        "re",
        "ad"
      ],
      [
        "ke",
        "t"
      ],
      [
        "be",
        "ar"
      ],
      [
        "oug",
        "h"
      ],
      [
        "be",
        "tter"
      ],
      [
        "it",
        "s"
      ],
      [
        "p",
        "er"
      ],
      [
        "se",
        "lf"
      ],
      [
        "h",
        "ur"
      ],
      [
        "c",
        "all"
      ],
      [
        "unt",
        "il"
      ],
      [
        "Y",
        "es"
      ],
      [
        "fa",
        "st"
      ],
      [
        "k",
        "ind"
      ],
      [
        "be",
        "a"
      ],
      [
        "b",
        "it"
      ],
      [
        "f",
        "i"
      ],
      [
        "d",
        "on"
      ],
      [
        "W",
        "hat"
      ],
      [
        "be",
        "st"
      ],
      [
        "ur",
        "n"
      ],
      [
        "sa",
        "y"
      ],
      [
        "f",
        "le"
      ],
      [
        "as",
        "s"
      ],
      [
        "an",
        "k"
      ],
      [
        "b",
        "ra"
      ],
      [
        "v",
        "ent"
      ],
      [
        "than",
        "ked"
      ],
      [
        "exp",
        "lo"
      ],
      [
        "w",
        "here"
      ],
      [
        "laug",
        "hed"
      ],
      [
        "le",
        "t"
      ],
      [
        "e",
        "ven"
      ],
      [
        "sk",
        "y"
      ],
      [
        "bea",
        "ut"
      ],
      [
        "r",
        "ong"
      ],
      [
        "j",
        "ump"
      ],
      [
        "y",
        "es"
      ],
      [
        "C",
        "an"
      ],
      [
        "l",
        "ist"
      ],
      [
        "ra",
        "in"
      ],
      [
        "un",
        "der"
      ],
      [
        "g",
        "ard"
      ],
      [
        "gard",
        "en"
      ],
      [
        "sa",
        "fe"
      ],
      [
        "a",
        "ce"
      ],
      [
        "el",
        "l"
      ],
      [
        "st",
        "ill"
      ],
      [
        "l",
        "oud"
      ],
      [
        "o",
        "b"
      ],
      [
        "p",
        "t"
      ],
      [
        "f",
        "in"
      ],
      [
        "n",
        "t"
      ],
      [
        "i",
        "ful"
      ],
      [
        "Mom",
        "my"
      ],
      [
        "lo",
        "ts"
      ],
      [
        "beaut",
        "iful"
      ],
      [
        "s",
        "ur"
      ],
      [
        "c",
        "hed"
      ],
      [
        "jo",
        "y"
      ],
      [
        "animal",
        "s"
      ],
      [
        "T",
        "h"
      ],
      [
        "g",
        "ive"
      ],
      [
        "li",
        "ved"
      ],
      [
        "f",
        "am"
      ],
      [
        "p",
        "u"
      ],
      [
        "A",
        "s"
      ],
      [
        "am",
        "a"
      ],
      [
        "bo",
        "ok"
      ],
      [
        "h",
        "n"
      ],
      [
        "Jo",
        "hn"
      ],
      [
        "ig",
        "h"
      ],
      [
        "Th",
        "ank"
      ],
      [
        "n",
        "ing"
      ],
      [
        "w",
        "on"
      ],
      [
        "gr",
        "ound"
      ],
      [
        "bo",
        "th"
      ],
      [
        "hur",
        "t"
      ],
      [
        "t",
        "urn"
      ],
      [
        "re",
        "e"
      ],
      [
        "ck",
        "s"
      ],
      [
        "A",
        "fter"
      ],
      [
        "bra",
        "ve"
      ],
      [
        "st",
        "ay"
      ],
      [
        "ha",
        "s"
      ],
      [
        "fle",
        "w"
      ],
      [
        "ha",
        "rd"
      ],
      [
        "N",
        "o"
      ],
      [
        "L",
        "uc"
      ],
      [
        "b",
        "ad"
      ],
      [
        "do",
        "ll"
      ],
      [
        "sh",
        "ould"
      ],
      [
        "Luc",
        "y"
      ],
      [
        "in",
        "e"
      ],
      [
        "o",
        "ok"
      ],
      [
        "op",
        "le"
      ],
      [
        "ang",
        "ry"
      ],
      [
        "call",
        "ed"
      ],
      [
        "t",
        "wo"
      ],
      [
        "a",
        "pp"
      ],
      [
        "is",
        "hed"
      ],
      [
        "c",
        "on"
      ],
      [
        "r",
        "u"
      ],
      [
        "s",
        "l"
      ],
      [
        "le",
        "a"
      ],
      [
        "p",
        "ic"
      ],
      [
        "cle",
        "an"
      ],
      [
        "wal",
        "ked"
      ],
      [
        "ke",
        "ep"
      ],
      [
        "r",
        "m"
      ],
      [
        "t",
        "ing"
      ],
      [
        "sha",
        "re"
      ],
      [
        "or",
        "t"
      ],
      [
        "fam",
        "ily"
      ],
      [
        "pe",
        "ople"
      ],
      [
        "d",
        "ra"
      ],
      [
        "sur",
        "pr"
      ],
      [
        "f",
        "ar"
      ],
      [
        "B",
        "ob"
      ],
      [
        "clo",
        "s"
      ],
      [
        "il",
        "ly"
      ],
      [
        "so",
        "on"
      ],
      [
[...]
